[PAD]	0
[UNK]	0
[BOS]	0
[EOS]	0
[SEPT]	0
[SEP]	0
[unused00]	0
[unused01]	0
[unused02]	0
[unused03]	0
[unused04]	0
[unused05]	0
[unused06]	0
[unused07]	0
[unused08]	0
[unused09]	0
[unused10]	0
[unused11]	0
[unused12]	0
[unused13]	0
[unused14]	0
[unused15]	0
[unused16]	0
[unused17]	0
[unused18]	0
[unused19]	0
[unused20]	0
[unused21]	0
[unused22]	0
[unused23]	0
[unused24]	0
[unused25]	0
[unused26]	0
[unused27]	0
[unused28]	0
[unused29]	0
[unused30]	0
[unused31]	0
[unused32]	0
[unused33]	0
[unused34]	0
[unused35]	0
[unused36]	0
[unused37]	0
[unused38]	0
[unused39]	0
[unused40]	0
[unused41]	0
[unused42]	0
[unused43]	0
[unused44]	0
[unused45]	0
[unused46]	0
[unused47]	0
[unused48]	0
[unused49]	0
0	0
1	0
2	0
3	0
4	0
5	0
6	0
7	0
8	0
9	0
▁	-2.5953
▁た	-3.64261
▁て	-3.65275
▁笑	-3.78721
▁!	-3.89527
▁の	-3.94008
▁?	-3.94081
▁に	-4.24932
▁、	-4.2863
▁よ	-4.29379
▁は	-4.30766
▁ね	-4.36478
▁な	-4.43175
▁ない	-4.4706
▁ん	-4.48639
▁で	-4.53688
▁し	-4.53785
▁だ	-4.58028
▁ー	-4.69261
▁か	-4.70972
▁も	-4.73599
▁から	-4.81122
▁が	-4.82725
笑	-4.89881
▁と	-4.92993
っ	-5.03181
▁てる	-5.18284
る	-5.22511
▁や	-5.26051
▁いい	-5.27477
▁うん	-5.40647
▁そう	-5.42823
▁。	-5.43811
▁けど	-5.44247
▁お	-5.49162
▁w	-5.52833
▁って	-5.58187
▁~	-5.60292
▁たら	-5.60678
ん	-5.69229
▁それ	-5.7665
▁!!	-5.77283
▁です	-5.77465
▁わ	-5.89367
▁え	-5.90891
▁たい	-5.93254
▁今日	-5.97016
▁する	-5.9828
▁こと	-5.98851
▁う	-6.03092
▁あ	-6.04899
▁よー	-6.06119
▁今	-6.07338
▁ます	-6.07611
▁い	-6.0867
▁...	-6.12005
▁寝	-6.14332
▁そ	-6.15351
▁ある	-6.17575
▁を	-6.20574
▁でも	-6.20819
▁き	-6.2137
い	-6.21832
▁じゃ	-6.2309
▁れ	-6.24282
▁大丈夫	-6.25042
▁もう	-6.28891
▁??	-6.30668
▁さ	-6.31634
▁とか	-6.32138
▁やん	-6.32508
▁なっ	-6.33737
▁明日	-6.36868
▁ありがとう	-6.38521
▁俺	-6.38991
▁やっ	-6.3962
▁何	-6.41483
▁なん	-6.42532
▁なら	-6.43641
▁なんか	-6.45648
▁いや	-6.4614
時	-6.4676
まで	-6.58559
▁言っ	-6.61304
▁ば	-6.61414
▁もん	-6.62438
▁だけ	-6.6449
▁私	-6.66126
▁ねー	-6.67967
▁なに	-6.68242
▁気	-6.68485
😊	-6.6908
▁なる	-6.69825
▁なー	-6.70855
▁ごめん	-6.71026
▁食べ	-6.71292
▁だっ	-6.72734
思っ	-6.73388
▁爆笑	-6.74835
▁見	-6.75221
▁まだ	-6.75528
!	-6.7711
▁すぎ	-6.78526
▁あー	-6.78631
▁行っ	-6.78941
▁おは	-6.78942
▁行く	-6.79877
▁さん	-6.80656
▁そんな	-6.81928
😂	-6.82293
▁くらい	-6.83059
▁み	-6.83989
▁人	-6.84919
▁まじ	-6.85845
かっ	-6.87063
▁なかっ	-6.87945
▁じゃあ	-6.88272
▁これ	-6.90789
▁また	-6.91809
▁まし	-6.94088
日	-6.94641
し	-6.9512
▁ちゃん	-6.95503
でしょ	-6.96213
▁好き	-6.96337
▁かも	-6.96889
に	-6.9694
ー	-6.96972
▁時	-6.97119
▁めっちゃ	-6.97309
う	-6.99779
▁やろ	-6.99888
▁やつ	-6.99944
▁どう	-7.00089
😭	-7.0066
▁わかっ	-7.02564
▁くる	-7.0273
▁なく	-7.02815
▁なんで	-7.03549
▁あっ	-7.04408
▁終わっ	-7.04768
▁いま	-7.05303
▁ちょっと	-7.05344
▁あと	-7.06137
▁くれ	-7.06684
▁来	-7.06959
▁思う	-7.07325
よかっ	-7.08005
▁じゃん	-7.08498
▁ちゃう	-7.09963
▁!!!	-7.10592
▁どこ	-7.10807
▁起き	-7.11279
▁電話	-7.11664
▁帰っ	-7.11971
▁前	-7.12183
▁家	-7.13282
▁その	-7.13393
▁いる	-7.13795
▁なぁ	-7.14257
▁❤	-7.14386
▁ww	-7.14714
▁えー	-7.14785
▁ありがと	-7.18762
▁せ	-7.20341
▁はい	-7.20757
▁ま	-7.21683
みたい	-7.22344
▁☺	-7.2415
人	-7.25128
▁へ	-7.26171
▁方	-7.26195
▁け	-7.26215
▁感じ	-7.26803
▁言わ	-7.27088
分	-7.27494
頑張っ	-7.2809
す	-7.28161
▁つけ	-7.28411
▁おやすみ	-7.28476
ら	-7.29175
よ	-7.29583
▁全然	-7.30594
▁出	-7.31716
▁まあ	-7.31858
💕	-7.32337
▁でき	-7.33506
▁いく	-7.34122
▁くん	-7.34128
様	-7.34675
▁www	-7.35099
▁うち	-7.35234
▁お疲れ	-7.35316
く	-7.3599
▁やばい	-7.37042
▁いっ	-7.37197
▁ほんと	-7.38024
ーい	-7.38884
▁よう	-7.39016
▁ちゃっ	-7.3978
▁おけ	-7.39903
▁れる	-7.39955
▁時間	-7.40431
り	-7.40827
▁しか	-7.40854
ろ	-7.41695
▁一緒	-7.42075
▁早く	-7.42307
▁ごめんね	-7.43779
▁無理	-7.44465
▁おれ	-7.44669
▁かわいい	-7.44878
▁この	-7.45307
▁つい	-7.46683
▁行き	-7.4748
▁バイト	-7.47612
▁なあ	-7.47749
▁まぁ	-7.48382
▁ゆ	-7.48549
▁一	-7.48579
💦	-7.49023
のに	-7.49979
▁あれ	-7.50441
▁とこ	-7.51134
▁!?	-7.52102
▁風呂	-7.53329
▁寝る	-7.54796
▁仕事	-7.55562
▁だって	-7.56354
▁おはよう	-7.57052
▁たく	-7.57185
▁言う	-7.5719
▁ねん	-7.59288
▁すき	-7.59412
▁ちゃんと	-7.59821
▁疲れ	-7.60269
▁‍	-7.60672
▁🥺	-7.60822
▁️	-7.61628
▁待っ	-7.61777
▁おっ	-7.62083
▁中	-7.62444
▁しよ	-7.62775
さ	-7.63002
▁もー	-7.63261
▁帰る	-7.63955
▁つかれ	-7.64439
😢	-7.64668
▁自分	-7.6495
▁できる	-7.65307
▁wwww	-7.65309
▁絶対	-7.65854
▁着	-7.66405
か	-7.66589
▁とき	-7.66639
▁夜	-7.66773
▁すごい	-7.66882
▁朝	-7.67006
▁かい	-7.68076
▁なるほど	-7.68156
▁話	-7.68368
て	-7.6911
▁可愛い	-7.69803
▁よく	-7.69943
▁昨日	-7.70468
▁あり	-7.7084
▁ご飯	-7.70969
▁やめ	-7.71311
▁どー	-7.71617
▁いつ	-7.71689
わからん	-7.73311
▁✨	-7.73356
▁わたし	-7.73744
入っ	-7.7375
▁いつも	-7.73856
▁ほんま	-7.74096
▁かー	-7.74378
聞い	-7.75782
▁きた	-7.76242
▁頑張	-7.7652
▁ええ	-7.76709
▁!!!!	-7.77544
っけ	-7.78117
だろ	-7.78571
▁ちゃ	-7.78839
▁会い	-7.79425
▁とる	-7.80365
▁ほんとに	-7.80694
▁すぐ	-7.81522
そっか	-7.82032
買っ	-7.83521
れ	-7.84542
▁だめ	-7.84882
ねぇ	-7.85448
▁~~	-7.8548
▁ゆっくり	-7.85532
▁こ	-7.85621
▁普通	-7.86059
▁ぞ	-7.86215
▁大好き	-7.86635
▁てか	-7.86657
▁まっ	-7.867
▁楽しみ	-7.86759
▁より	-7.86777
▁られ	-7.87396
▁へん	-7.87733
▁みんな	-7.88207
回	-7.89728
▁らしい	-7.89802
▁うんうん	-7.90384
▁ほ	-7.90936
▁勉強	-7.91706
▁ずっと	-7.92184
▁日	-7.92282
▁考え	-7.92385
▁多分	-7.92791
▁送	-7.92897
▁ち	-7.93278
▁良か	-7.94428
わ	-7.94707
▁嬉しい	-7.96633
▁とく	-7.9697
▁やる	-7.97053
違う	-7.97322
▁り	-7.97371
む	-7.97644
▁とりあえず	-7.97646
▁どっち	-7.98738
▁会え	-7.98908
▁帰り	-7.99295
▁良い	-7.99403
▁嫌	-7.99806
▁持	-8.00122
▁なり	-8.00698
▁休み	-8.00734
▁写真	-8.00744
ください	-8.01638
▁電車	-8.01653
▁だから	-8.01831
▁ところ	-8.01895
▁学校	-8.02171
🤣	-8.02449
▁目	-8.02536
😳	-8.02844
▁忘れ	-8.02914
▁ご	-8.0343
▁でる	-8.04758
で	-8.05003
▁いっぱい	-8.05504
▁わかる	-8.05584
と	-8.05734
▁じ	-8.05926
時間	-8.06128
▁そこ	-8.06256
▁いえ	-8.06622
▁ら	-8.06872
▁わから	-8.07231
▁いいね	-8.07538
き	-8.07563
▁👍	-8.07805
▁顔	-8.07816
▁友達	-8.0799
😅	-8.08175
▁ませ	-8.08232
▁ねえ	-8.08322
ね	-8.09304
▁なんて	-8.09536
▁ど	-8.10918
▁あら	-8.112
▁こんな	-8.11936
▁いって	-8.12062
▁でし	-8.12328
んで	-8.12401
▁教え	-8.13365
▁す	-8.14352
だよ	-8.14725
▁悪い	-8.14836
💓	-8.14926
▁ほしい	-8.15163
すぎる	-8.1527
😁	-8.15414
♀	-8.1552
🤔	-8.16194
▁半	-8.16475
▁つ	-8.17468
▁使	-8.17866
くれる	-8.17946
▁おき	-8.18327
おわっ	-8.18475
▁これから	-8.185
▁別	-8.18625
▁:	-8.18661
▁連絡	-8.18968
々	-8.18979
▁話し	-8.19105
▁あの	-8.19715
▁いけ	-8.1972
▁だー	-8.19801
▁ぐらい	-8.2025
さすが	-8.20291
▁少し	-8.20456
▁行こ	-8.20822
▁おかえり	-8.20897
😆	-8.20947
▁わら	-8.20992
▁入れ	-8.21199
月	-8.21595
▁ぇ	-8.21663
▁おつかれさま	-8.218
▁次	-8.22255
▁今度	-8.22307
▁最近	-8.22555
▁車	-8.22948
▁予定	-8.23149
▁ぬ	-8.23222
▁line	-8.23261
▁く	-8.23389
▁早い	-8.23426
▁~!	-8.23437
▁雨	-8.23728
▁ょ	-8.23999
▁欲しい	-8.24212
▁飲ん	-8.24448
▁もっと	-8.24607
▁了解	-8.24687
▁誰	-8.25256
▁め	-8.25281
たぶん	-8.25643
▁なう	-8.25853
▁ダメ	-8.26228
▁知ら	-8.26604
▁よし	-8.26636
▁他	-8.26693
▁暇	-8.26808
▁行か	-8.26927
▁かけ	-8.27015
▁しよう	-8.27259
なきゃ	-8.27263
▁会	-8.27956
▁おる	-8.27957
そういう	-8.28873
ま	-8.298
結構	-8.29916
なんや	-8.30175
▁大変	-8.30195
▁....	-8.30219
しない	-8.30579
▁たり	-8.31169
▁色	-8.31628
▁とっ	-8.31769
▁ほう	-8.31884
▁知っ	-8.31982
▁🥰	-8.32212
番	-8.32304
▁的	-8.32382
▁子	-8.32575
▁もの	-8.32757
▁みる	-8.33238
▁後	-8.33525
▁-	-8.33817
つ	-8.33899
▁ず	-8.34076
▁全部	-8.34148
▁気持ち	-8.34239
▁あげ	-8.34504
お	-8.34711
▁やっぱ	-8.34762
▁事	-8.34826
▁いき	-8.35393
いける	-8.35474
🙄	-8.35637
▁行け	-8.35873
▁たべ	-8.35927
▁うーん	-8.35997
😘	-8.36119
▁怖い	-8.36415
▁同じ	-8.3665
▁お腹	-8.36716
😌	-8.3689
ござい	-8.36943
▁心配	-8.37545
▁わー	-8.37955
▁こっち	-8.38166
▁こそ	-8.38971
▁がんばっ	-8.38974
▁飲み	-8.39219
み	-8.40147
たしかに	-8.40392
▁ごめんなさい	-8.40467
▁わけ	-8.41266
▁終わ	-8.41704
▁おお	-8.41723
▁?!	-8.4184
さん	-8.41843
▁遅く	-8.42463
▁ううん	-8.42485
▁つく	-8.42737
▁どんな	-8.42745
▁ただ	-8.42907
▁さっき	-8.43189
▁お願い	-8.4332
▁大	-8.43578
の	-8.43922
▁昼	-8.44244
もらっ	-8.44448
▁先	-8.44994
▁かな	-8.45014
▁いう	-8.45167
▁本当に	-8.4534
▁眠い	-8.45406
😍	-8.45409
そんなに	-8.45416
▁元気	-8.46694
▁🙆	-8.47095
▁準備	-8.47226
😚	-8.47478
ので	-8.47927
▁ゆう	-8.4797
▁うそ	-8.48026
▁やっぱり	-8.48348
▁出る	-8.48404
♂	-8.48792
▁わろ	-8.49008
▁分か	-8.49113
▁怒	-8.49129
▁意味	-8.49736
▁終わり	-8.49932
▁わか	-8.49968
そろそろ	-8.50225
わかん	-8.50464
▁とい	-8.50512
▁やば	-8.50699
▁頭	-8.50749
着く	-8.51359
▁かっ	-8.51963
▁いこ	-8.52492
▁食べる	-8.52503
▁僕	-8.52524
▁確か	-8.53035
▁何時	-8.5345
▁覚え	-8.53625
▁回	-8.55025
▁あい	-8.55278
▁???	-8.55628
▁そそ	-8.55642
▁べ	-8.55988
▁痛い	-8.56117
▁ふふ	-8.56199
あげる	-8.56934
▁休	-8.57191
▁ぜ	-8.57195
▁そっち	-8.57316
▁ふ	-8.57484
▁そうそう	-8.58248
▁店	-8.58592
▁頑張れ	-8.58913
▁こー	-8.58926
▁ぁ	-8.59169
ちゃん	-8.59172
▁ましょ	-8.59999
▁早	-8.60428
▁買	-8.60974
▁だいすき	-8.6149
▁幸せ	-8.61539
▁手	-8.61569
▁ちょ	-8.61662
▁ライン	-8.62343
▁上	-8.63149
▁決め	-8.63356
▁やり	-8.63366
▁おい	-8.64128
▁作っ	-8.64219
年	-8.64487
▁した	-8.64752
▁過ぎ	-8.64915
▁言え	-8.64989
▁しまっ	-8.6506
▁結	-8.65529
方	-8.65678
▁楽しい	-8.65894
子	-8.66144
😑	-8.67279
▁男	-8.67336
ちがう	-8.67594
▁とー	-8.67626
▁テスト	-8.67703
▁出来	-8.68889
▁言い	-8.68985
😱	-8.69012
▁うむ	-8.69344
▁ながら	-8.69653
▁どし	-8.69706
▁乗っ	-8.69984
▁はやく	-8.70232
▁先生	-8.70354
▁ここ	-8.70619
▁変	-8.70755
▁おわ	-8.70769
そ	-8.70772
円	-8.71066
まーす	-8.7162
▁分から	-8.71965
▁がんばる	-8.72234
たくさん	-8.72387
ゆこ	-8.72678
▁お金	-8.72795
▁こちら	-8.73212
▁けん	-8.73475
▁声	-8.73791
▁そや	-8.74067
▁授業	-8.74174
▁楽し	-8.74323
▁外	-8.74477
▁やら	-8.74851
▁無	-8.74869
▁がん	-8.7488
▁がんばれ	-8.75117
▁駅	-8.75908
度	-8.76299
も	-8.76301
😏	-8.76419
▁逆	-8.76427
▁多い	-8.76462
▁むり	-8.76636
▁間に合	-8.77004
なさい	-8.77071
▁急	-8.77248
▁せい	-8.77264
局	-8.77335
▁せん	-8.7745
▁めちゃ	-8.77527
▁なし	-8.78247
▁嘘	-8.78307
会う	-8.78481
▁空い	-8.78579
🤤	-8.78981
▁楽しか	-8.79653
▁たん	-8.79692
▁楽しん	-8.79744
▁そりゃ	-8.80634
😇	-8.80646
家	-8.8073
▁けい	-8.80834
あんまり	-8.80863
▁えっ	-8.81943
▁思い	-8.82205
▁寒い	-8.82214
▁うー	-8.82853
週	-8.82899
▁ため	-8.82921
気	-8.82982
▁我慢	-8.83022
▁大事	-8.83542
▁こわい	-8.83797
▁嫌い	-8.83974
▁帰れ	-8.84
▁ひ	-8.8424
ーだ	-8.84291
▁.	-8.84299
▁しれ	-8.84373
▁バス	-8.84397
▁あした	-8.84495
▁二	-8.8469
こ	-8.85095
▁ほど	-8.85143
😖	-8.85272
▁はや	-8.85293
▁君	-8.8532
▁最高	-8.85485
▁先輩	-8.85652
▁お母さ	-8.86267
▁よろしく	-8.86511
▁えらい	-8.86695
▁毎日	-8.86768
た	-8.86774
▁体調	-8.86845
▁休憩	-8.87238
▁練習	-8.87632
▁部屋	-8.88036
😋	-8.88151
▁下	-8.88241
▁遅い	-8.88855
▁よね	-8.88975
じゃなくて	-8.89222
▁ちゅ	-8.89238
▁ろー	-8.89309
▁最後	-8.89353
っと	-8.89439
▁いか	-8.90261
れる	-8.90537
来る	-8.90917
▁調べ	-8.91175
▁はず	-8.91537
▁部活	-8.91542
▁おやすみなさい	-8.92031
😉	-8.92039
▁;	-8.92096
▁🙋	-8.92314
▁書い	-8.92886
▁迎え	-8.92961
▁さー	-8.93152
は	-8.93573
▁いやいや	-8.94128
▁髪	-8.94314
▁ねむい	-8.94485
▁ぃ	-8.94498
▁はやい	-8.94537
▁だれ	-8.94602
▁かぁ	-8.94618
▁ああ	-8.94967
▁スタンプ	-8.94977
▁見る	-8.9522
▁しょ	-8.9561
▁平	-8.9604
駅	-8.96045
▁無い	-8.96119
▁かそ	-8.96684
▁うわ	-8.97734
▁おら	-8.97909
▁🙇	-8.98045
▁高い	-8.98187
😤	-8.98239
▁びっくり	-8.98305
▁ふー	-8.98518
▁お前	-8.98539
▁頃	-8.9873
🤗	-8.98977
▁たま	-8.99136
▁ごはん	-8.9917
あ	-8.99328
▁映画	-8.99474
そしたら	-9.00115
限	-9.00226
▁余裕	-9.00399
▁一番	-9.0067
▁見せ	-9.00841
以外	-9.0096
😡	-9.01225
おもっ	-9.013
▁そっ	-9.01368
▁ただいま	-9.0143
▁🙏	-9.01493
っていう	-9.0154
っす	-9.01744
▁おう	-9.01784
▁美味しい	-9.01865
▁ノ	-9.01909
▁女	-9.01954
▁治	-9.01992
▁ひま	-9.02134
▁服	-9.02145
▁ばい	-9.02153
さま	-9.02174
▁こう	-9.02182
▁風邪	-9.02261
▁お仕事	-9.02277
▁頑張り	-9.02324
▁やっと	-9.02816
▁思わ	-9.029
▁近く	-9.02959
▁...?	-9.03104
▁起こ	-9.03272
▁親	-9.03426
入る	-9.03477
▁あんま	-9.03481
▁なんの	-9.03767
😎	-9.0377
▁安心	-9.04126
▁彼女	-9.04227
▁死ん	-9.04257
▁優しい	-9.04267
▁恥ずかしい	-9.04425
▁すん	-9.04453
▁彼氏	-9.04457
▁眠く	-9.04637
▁どっか	-9.05328
▁じゃー	-9.0584
会	-9.05866
的	-9.05942
▁へー	-9.0635
降っ	-9.06407
▁わかり	-9.06423
▁あかん	-9.06513
▁しっかり	-9.06616
▁しかも	-9.06737
▁見え	-9.07018
▁病院	-9.07283
▁遊	-9.0746
▁やし	-9.07475
▁死ぬ	-9.07638
▁間違え	-9.07836
▁仕方	-9.08048
▁つもり	-9.08184
▁体	-9.08355
🏻	-9.08541
▁👌	-9.08732
▁ゅ	-9.08899
中	-9.09077
▁ぉ	-9.09142
▁面白い	-9.09197
かっこいい	-9.09217
▁かえる	-9.09449
な	-9.0956
▁やな	-9.09635
😣	-9.09783
から	-9.09902
▁るん	-9.0993
▁草	-9.10108
▁ちょい	-9.10553
なかなか	-9.10796
😄	-9.10807
▁しんどい	-9.11098
▁くそ	-9.11537
め	-9.11578
点	-9.11673
▁泣い	-9.11749
▁一人	-9.11864
▁綺麗	-9.12231
▁~?	-9.12395
▁♥	-9.12402
▁似	-9.12767
▁怒ら	-9.12838
▁三	-9.12851
▁買い	-9.12958
▁お昼	-9.13212
▁わい	-9.13386
💗	-9.1347
▁名前	-9.13542
▁なお	-9.13631
▁初めて	-9.1367
▁最初	-9.14063
▁よっ	-9.14269
▁✌	-9.14498
▁とも	-9.14801
応	-9.14924
▁ぅ	-9.14963
▁❗	-9.15012
行ける	-9.15137
もちろん	-9.15168
▁足	-9.15226
かかる	-9.15456
▁忙しい	-9.15462
▁ばか	-9.15485
▁問題	-9.15487
😃	-9.1594
▁個	-9.16145
▁にゃ	-9.16156
として	-9.16232
▁落ち	-9.16336
▁それで	-9.16365
▁ぴ	-9.16372
めちゃくちゃ	-9.16386
▁お互い	-9.16402
▁あか	-9.16753
▁女子	-9.1676
▁すい	-9.16868
▁お家	-9.16979
🙃	-9.17063
▁付き合っ	-9.17068
▁一緒に	-9.17128
▁変え	-9.17163
▁長い	-9.1719
▁そして	-9.17209
え	-9.17729
▁良く	-9.18
▁予約	-9.18052
▁金曜	-9.18433
▁きつい	-9.18516
▁もうすぐ	-9.18666
▁ちゅー	-9.18727
▁トイレ	-9.19345
▁夕	-9.19418
▁関係	-9.1946
▁東京	-9.19758
▁どれ	-9.19966
場	-9.20011
▁返信	-9.20105
▁寂しい	-9.20335
▁遅れ	-9.20619
🤭	-9.20656
▁系	-9.20831
んじゃ	-9.21019
物	-9.21123
ってな	-9.21125
▁しゃー	-9.21216
▁強い	-9.21342
当	-9.21572
▁っぽい	-9.21604
▁o	-9.21816
▁という	-9.21833
▁心	-9.21846
ーちゃん	-9.21938
▁残念	-9.22384
▁夢	-9.2271
▁きっと	-9.22786
▁あや	-9.2293
▁会社	-9.23135
▁謝	-9.2316
▁すー	-9.23205
▁気分	-9.23392
▁聞き	-9.23833
▁ぎゅー	-9.23876
▁終わら	-9.24044
▁あなた	-9.24063
▁ろ	-9.24214
▁うれしい	-9.24495
▁遊び	-9.24697
▁難しい	-9.24697
おぉ	-9.24714
▁買い物	-9.24836
られる	-9.25012
▁まま	-9.2526
▁口	-9.25293
▁楽	-9.25309
▁ふろ	-9.2543
▁撮っ	-9.26003
▁動画	-9.26235
▁感	-9.26533
▁金	-9.26707
▁ゆっ	-9.26775
ぶ	-9.27015
▁探し	-9.27015
▁早め	-9.27025
▁悪く	-9.27384
▁出し	-9.28136
▁誘	-9.28152
▁ひと	-9.28212
▁あたし	-9.28482
▁分	-9.28521
▁本当	-9.28933
酒	-9.28998
▁近い	-9.29166
▁にー	-9.29311
▁本	-9.2932
▁負け	-9.29462
事	-9.29759
▁乗	-9.29797
おもう	-9.29826
もらう	-9.29872
▁聞か	-9.29934
▁💪	-9.30793
▁いない	-9.30876
以上	-9.30911
▁生き	-9.31136
▁すれ	-9.3122
▁いえいえ	-9.31323
▁布団	-9.31377
▁だいぶ	-9.31406
▁そのまま	-9.31423
▁辛い	-9.31436
▁意外	-9.31512
寝	-9.31534
▁よき	-9.31631
▁ねむ	-9.31854
▁別れ	-9.31908
▁小	-9.32096
▁そうだ	-9.32111
▁無事	-9.32114
▁よぉ	-9.32472
▁いれ	-9.32495
▁特	-9.32508
はぁ	-9.32889
▁万	-9.3297
感	-9.32994
▁迷	-9.33085
▁運転	-9.33126
?	-9.33135
▁長	-9.33301
いやー	-9.33447
▁いら	-9.33485
▁ちょうど	-9.33492
▁実	-9.33529
▁ゲーム	-9.33642
😔	-9.33764
▁場所	-9.33835
▁よい	-9.34341
▁バレ	-9.34416
▁明後	-9.34441
▁熱	-9.34738
▁今週	-9.34772
▁女の子	-9.34901
▁月曜	-9.34906
▁わーい	-9.34923
ちなみに	-9.35006
▁暑い	-9.35116
▁るの	-9.35127
▁あん	-9.35138
それなら	-9.35191
▁決まっ	-9.35962
▁聞く	-9.36
▁;;	-9.36068
▁毎	-9.3616
▁頼	-9.36221
▁薬	-9.36315
▁携帯	-9.36517
▁見れ	-9.36654
ば	-9.36723
たのしみ	-9.36995
▁🙌	-9.37049
▁付け	-9.37187
久しぶり	-9.372
▁切っ	-9.3751
いってらっしゃい	-9.38118
▁誰か	-9.3818
▁おん	-9.3841
▁ラーメン	-9.38475
▁なーい	-9.38501
▁すごく	-9.38683
▁たち	-9.38858
▁つか	-9.38886
▁もっ	-9.39028
▁しら	-9.39119
▁悪	-9.39203
▁もし	-9.3926
▁汗	-9.39424
▁やすい	-9.39515
▁マジ	-9.39672
▁なぜ	-9.39732
▁きい	-9.39823
▁おり	-9.39971
▁居	-9.40122
▁混	-9.40214
毛	-9.40309
▁気づ	-9.40507
▁かなっ	-9.40543
😶	-9.40593
▁ないし	-9.40617
▁割	-9.40649
▁いろいろ	-9.40737
ヶ月	-9.40777
ち	-9.40841
▁信じ	-9.41018
▁ホテル	-9.41195
▁バカ	-9.41198
▁飲む	-9.41242
▁任せ	-9.41428
▁おもろい	-9.41437
▁愛	-9.41943
▁全く	-9.41994
▁りん	-9.42146
▁上がっ	-9.42384
▁遠い	-9.42429
▁歩い	-9.42494
長	-9.42648
▁いわ	-9.42688
▁ばっか	-9.42744
🎵	-9.42763
▁泊まり	-9.43107
▁とけ	-9.43306
▁出来る	-9.44188
▁やったー	-9.44514
▁褒め	-9.44584
🙈	-9.44737
▁カラオケ	-9.44813
▁かんじ	-9.44898
▁どの	-9.44913
▁☀	-9.451
週間	-9.45101
▁充電	-9.45161
▁期待	-9.45242
▁おかしい	-9.45284
▁なれ	-9.45503
が	-9.4553
▁不	-9.45647
▁風	-9.4567
▁勝手	-9.45822
▁ぴー	-9.45847
▁必要	-9.4599
▁食	-9.4602
力	-9.4607
▁t	-9.46267
▁高	-9.46323
▁不安	-9.46426
▁だし	-9.46448
▁む	-9.4654
▁理	-9.4674
▁ばー	-9.46757
どういう	-9.46795
▁課題	-9.47206
▁飯	-9.47208
屋	-9.47394
▁照れ	-9.47431
ご飯	-9.47487
視	-9.47562
▁降り	-9.47592
しとる	-9.47659
▁ママ	-9.47804
作る	-9.47887
▁うるさい	-9.48226
▁すげ	-9.48447
▁インスタ	-9.48508
▁最悪	-9.48659
▁かん	-9.48865
▁腹	-9.48943
▁美味し	-9.48993
▁眠	-9.49012
▁集合	-9.49072
山	-9.49212
▁途中	-9.49239
▁帰宅	-9.49653
▁タイミング	-9.49682
▁だい	-9.49744
坊	-9.49945
▁かわい	-9.50395
▁大学	-9.50508
もう少し	-9.50555
▁応援	-9.50707
▁そん	-9.50738
▁夏	-9.50917
▁こい	-9.5127
▁用	-9.51295
かける	-9.51359
▁土曜日	-9.51388
😗	-9.51418
▁結婚	-9.51468
▁愛し	-9.51593
ン	-9.51622
▁通り	-9.51624
飯	-9.51736
▁言葉	-9.51764
▁こん	-9.52053
▁元	-9.52141
▁隣	-9.52235
目	-9.52317
▁デート	-9.52428
▁テレビ	-9.52568
▁????	-9.52721
▁悲しい	-9.52791
▁マジで	-9.52907
▁取れ	-9.53382
や	-9.53418
▁泊ま	-9.53703
▁落ち着	-9.53732
け	-9.53874
▁適	-9.5411
▁ぶ	-9.54201
▁ほぼ	-9.54216
▁しょうが	-9.5423
▁するー	-9.544
▁申し訳ない	-9.54603
▁遊ぶ	-9.54899
▁わし	-9.54944
▁鼻	-9.55224
▁わぁ	-9.55251
▁ガチ	-9.55263
▁直	-9.55495
▁相手	-9.55643
▁旅行	-9.55645
▁多	-9.55873
▁日曜	-9.56192
▁困	-9.56289
▁可愛	-9.56296
😓	-9.5638
性	-9.56575
▁だるい	-9.56732
変わっ	-9.56903
▁緊張	-9.57224
😵	-9.57376
▁取り	-9.57389
▁いつか	-9.57683
あいたい	-9.57698
▁生	-9.57874
▁置い	-9.57932
▁生理	-9.58007
▁消し	-9.58039
▁作	-9.58073
▁誕生日	-9.58081
▁えええ	-9.58085
▁読	-9.58179
▁せる	-9.58181
▁遅	-9.58329
▁まだまだ	-9.58647
▁こわ	-9.58683
▁変わ	-9.5877
▁入り	-9.59255
せ	-9.59331
▁午後	-9.59337
▁間	-9.59381
▁愛してる	-9.59608
▁子供	-9.5991
▁我	-9.59959
後	-9.60044
▁ふん	-9.601
▁きー	-9.60185
▁水	-9.60191
部	-9.60417
▁ホント	-9.60459
▁洗濯	-9.60536
▁痛く	-9.60624
▁向かっ	-9.60675
▁がんばろ	-9.60681
▁いらん	-9.60766
▁微	-9.61172
▁横	-9.61178
▁コンビニ	-9.61282
~	-9.61378
▁おわり	-9.61401
▁想像	-9.61417
▁爆	-9.61449
線	-9.61474
▁調子	-9.6157
▁間違い	-9.61658
▁まず	-9.61748
おなか	-9.61777
▁泣	-9.61789
もうちょい	-9.61927
▁まゆ	-9.62089
ス	-9.62274
▁痩せ	-9.62292
▁れん	-9.62363
。	-9.62384
▁慣れ	-9.62564
▁ひどい	-9.62656
▁返し	-9.62662
▁天気	-9.627
▁うまい	-9.62904
▁おこ	-9.63376
▁つらい	-9.63587
▁まさ	-9.63731
▁みよ	-9.63778
▁英語	-9.63963
▁ちー	-9.6399
話して	-9.64055
▁はいはい	-9.64139
▁男子	-9.64143
▁連れ	-9.64163
▁しまう	-9.64194
▁変態	-9.64242
▁足り	-9.64354
てらっしゃい	-9.64515
▁つき	-9.64573
▁始め	-9.64714
▁ディズニー	-9.64726
そう	-9.64732
▁ぜんぜん	-9.64738
▁大阪	-9.64751
▁可愛く	-9.64779
本	-9.64863
▁かた	-9.65037
変わら	-9.651
▁合わせ	-9.65119
枚	-9.65226
者	-9.65394
▁いよ	-9.6551
出	-9.65534
▁話せ	-9.65563
▁似合	-9.65668
▁酔っ	-9.65766
▁今年	-9.65802
▁くー	-9.65817
▁戻	-9.65854
▁泣き	-9.65871
▁だら	-9.66094
▁ゆい	-9.6616
由	-9.66522
▁許し	-9.66595
そうね	-9.66627
▁すご	-9.66824
▁それでも	-9.66861
▁めんどくさい	-9.66899
▁流石	-9.67092
▁もらえ	-9.67219
▁しらん	-9.67227
▁なんとか	-9.67444
▁らっしゃい	-9.67492
▁午前	-9.6806
▁所	-9.68466
妙	-9.68556
▁伝え	-9.68629
▁クソ	-9.68645
▁お父さん	-9.6876
🤪	-9.68906
▁切れ	-9.68946
▁土曜	-9.68951
▁乗れ	-9.69159
▁くせ	-9.69169
▁向か	-9.69208
▁👏	-9.6923
▁よお	-9.69275
▁レベル	-9.69372
▁考える	-9.69441
ぐ	-9.69541
▁かなり	-9.69615
▁付き合	-9.69648
▁謎	-9.69758
▁受け	-9.69934
▁使え	-9.69948
▁タイプ	-9.70142
▁ねね	-9.70434
▁確認	-9.70535
▁らん	-9.7055
▁テンション	-9.7062
▁もち	-9.70632
ず	-9.70834
▁聞こえ	-9.70834
😞	-9.70907
▁当たり前	-9.71004
▁掃除	-9.7107
▁日本	-9.71091
▁音	-9.71234
やけん	-9.7125
▁超	-9.7125
▁匂い	-9.71341
ふつう	-9.71395
▁日曜日	-9.71463
▁ええええ	-9.71512
▁答え	-9.7166
▁イケメン	-9.71685
▁見つけ	-9.71766
なんとなく	-9.71807
😥	-9.72011
▁おいで	-9.72071
😪	-9.72118
▁新しい	-9.72171
前	-9.72229
▁--	-9.72241
▁許	-9.72274
▁ないー	-9.72364
▁ほか	-9.72369
▁塾	-9.72396
勤	-9.72658
ル	-9.72803
ふふふ	-9.72855
▁理解	-9.73128
▁本気	-9.73239
▁味	-9.73262
▁遅刻	-9.73285
歳	-9.73457
😐	-9.73462
▁黒	-9.73497
▁おく	-9.73502
▁おや	-9.73573
▁シャワー	-9.73685
くん	-9.73757
▁肉	-9.73988
▁邪魔	-9.74116
じ	-9.74182
▁高校	-9.74376
▁後で	-9.74438
▁家族	-9.74479
かけて	-9.74586
▁ひろ	-9.74694
うける	-9.74797
▁あぁ	-9.74861
▁きょう	-9.74913
▁周	-9.74985
▁あんな	-9.75019
▁土日	-9.75074
なっちゃった	-9.75116
見	-9.75221
▁試合	-9.75366
😴	-9.75367
すみません	-9.75368
▁ほん	-9.7546
▁なな	-9.75601
▁増え	-9.75868
大丈夫	-9.76109
▁海	-9.76204
室	-9.76336
▁いち	-9.76344
▁強	-9.76347
▁ああああ	-9.76518
▁諦め	-9.76562
着き	-9.76665
▁げ	-9.7689
▁あいつ	-9.76936
▁ありゃ	-9.76998
▁~!!	-9.77144
▁えっち	-9.77191
▁かわいそう	-9.77197
▁美味しか	-9.77248
▁なか	-9.77279
▁人間	-9.77417
▁おいしい	-9.77525
▁ばれ	-9.77961
▁イメージ	-9.77997
▁おめでとう	-9.78059
▁甘え	-9.7813
▁荷物	-9.78364
▁発	-9.78402
▁是	-9.78419
睡	-9.78446
▁なぁー	-9.78446
▁さまー	-9.78539
😨	-9.78579
▁みき	-9.7859
▁仲良く	-9.78619
▁新宿	-9.78703
▁売	-9.7875
▁数	-9.78822
▁やけど	-9.78897
▁買え	-9.79044
▁観	-9.7915
▁合	-9.79194
▁髪の	-9.79549
😫	-9.79645
▁むしろ	-9.79703
▁あらら	-9.79709
▁すまん	-9.79716
▁さえ	-9.79794
ばっかり	-9.8004
あはは	-9.80074
▁安い	-9.80115
▁しろ	-9.80197
▁自信	-9.80299
戻っ	-9.80458
▁年	-9.80523
▁ぼく	-9.80565
▁やす	-9.8058
▁使い	-9.80617
▁喧嘩	-9.80643
ト	-9.80676
▁記憶	-9.80807
▁ほら	-9.8087
▁真	-9.81059
▁届	-9.81081
かもしれん	-9.81084
▁白	-9.81127
だ	-9.81215
音	-9.81269
▁座	-9.81336
▁飲み会	-9.81346
やから	-9.8168
なけれ	-9.81736
▁きれ	-9.8178
▁以	-9.81863
▁撮	-9.81902
▁焼肉	-9.81977
けど	-9.81984
▁物	-9.82036
ッ	-9.82055
▁晴れ	-9.82164
かえって	-9.82294
▁約束	-9.82359
▁カレー	-9.82628
っしょ	-9.83072
▁しょう	-9.83219
▁後ろ	-9.83459
▁違	-9.83487
▁ぽ	-9.83556
大	-9.83685
▁凄い	-9.83888
▁早起き	-9.84011
😩	-9.84059
▁火曜	-9.84191
▁なのか	-9.84257
▁迷惑	-9.84391
▁悩	-9.84461
ぼ	-9.84518
▁花火	-9.84536
▁ちゃい	-9.84622
▁のみ	-9.84646
▁二人	-9.84649
▁走	-9.84792
▁浮気	-9.84878
▁❣	-9.84894
▁完全	-9.85019
😙	-9.85108
▁ごろ	-9.8511
▁泣く	-9.85203
▁あたり	-9.85213
▁捨て	-9.85286
🙂	-9.8533
▁死に	-9.85346
▁初	-9.85611
▁やる気	-9.85623
▁借り	-9.85625
▁正直	-9.85721
▁ストーリー	-9.85777
▁興味	-9.85809
なくなっ	-9.85851
▁雪	-9.85898
▁せっかく	-9.8591
▁待ち	-9.8592
▁久々	-9.86082
▁通話	-9.86181
😰	-9.86246
間	-9.86251
▁赤	-9.86386
▁改札	-9.8646
▁るし	-9.86468
▁辺	-9.86525
▁どん	-9.866
めちゃめちゃ	-9.86653
やろう	-9.86686
▁洗	-9.86713
▁させ	-9.86825
▁あがっ	-9.8687
▁開け	-9.86878
単	-9.86887
▁辞め	-9.87057
💤	-9.87057
▁かえり	-9.87298
😒	-9.87398
▁木曜	-9.87432
▁ねれ	-9.87493
▁弁当	-9.87532
▁がち	-9.87534
▁太	-9.87633
▁ぢ	-9.87676
▁どうする	-9.87699
▁❓	-9.87811
▁素直	-9.88173
▁ひな	-9.88208
▁触	-9.88488
▁そだね	-9.88548
▁絵	-9.88675
▁猫	-9.88832
▁歯	-9.88861
▁パパ	-9.88941
▁可能	-9.8907
▁とても	-9.89214
▁飽き	-9.89416
▁はね	-9.89604
▁いたい	-9.89672
🤢	-9.89694
▁がんばり	-9.89732
▁くっ	-9.89952
出す	-9.90178
▁でんわ	-9.90361
▁席	-9.90374
▁冬	-9.9038
▁アイス	-9.90481
▁返事	-9.90484
▁偉い	-9.90521
▁いくら	-9.90739
▁組	-9.90918
▁ふつ	-9.91198
▁内	-9.91323
ほんまや	-9.91406
▁冗談	-9.91547
▁すっ	-9.91593
▁ういい	-9.91621
▁たべる	-9.91713
▁だぁ	-9.91896
💧	-9.92034
きらい	-9.92059
▁そら	-9.92294
▁昔	-9.92295
くない	-9.92481
▁曲	-9.92493
▁パン	-9.92542
水	-9.92653
▁ふっ	-9.92717
▁寒	-9.92748
▁🥺🥺	-9.92852
▁既読	-9.92882
▁結果	-9.92926
▁まる	-9.93085
▁着替え	-9.93237
▁めん	-9.93246
▁一瞬	-9.9329
▁好きな人	-9.93451
▁いね	-9.93459
▁好	-9.93466
▁苦手	-9.93568
▁ゆり	-9.93814
▁会わ	-9.94007
▁どこか	-9.94338
▁勝っ	-9.94364
▁飲ま	-9.94551
口	-9.94607
ない	-9.94802
▁相談	-9.95283
▁わあ	-9.9529
かったん	-9.95415
顔	-9.95434
👀	-9.95482
▁ひとり	-9.9555
▁嬉し	-9.95566
▁やも	-9.9567
▁チャリ	-9.9569
▁ぎゅ	-9.95719
▁片付け	-9.95754
▁簡	-9.95765
▁まい	-9.95861
▁筋肉	-9.96025
▁きっ	-9.96059
▁神	-9.96072
▁言	-9.96122
▁次第	-9.96154
▁シフト	-9.96161
思い出し	-9.96239
▁離れ	-9.96274
▁度	-9.96278
いいんじゃない	-9.96491
▁帰ら	-9.9655
▁説明	-9.96573
▁いきなり	-9.96686
▁妹	-9.96728
田	-9.96782
▁出勤	-9.96847
▁鍵	-9.9685
▁大人	-9.96974
▁屋	-9.97079
▁さむい	-9.97113
▁ずるい	-9.97171
▁すきー	-9.97585
心	-9.97642
▁有	-9.97664
いい	-9.97671
▁台風	-9.97673
▁学	-9.97709
▁反応	-9.97843
行こう	-9.98074
▁焦	-9.98194
▁選	-9.98224
▁会話	-9.98283
▁こっ	-9.98415
😝	-9.98531
▁断	-9.98532
🐶	-9.98786
けども	-9.9881
▁イライラ	-9.99091
▁温泉	-9.99231
▁やけ	-9.99325
▁消え	-9.99365
▁嬉しか	-9.9938
▁半分	-9.99396
▁返	-9.99452
▁道	-9.99538
位	-9.99602
▁京都	-9.99631
▁まえ	-9.99753
▁乗り	-10.0001
とも	-10.0003
▁なんと	-10.0018
▁oo	-10.0027
▁新	-10.0027
きもい	-10.003
▁✋	-10.0042
▁b	-10.0051
入ら	-10.0067
▁用意	-10.0074
▁うわー	-10.0076
▁自	-10.008
▁レポート	-10.0089
内	-10.009
▁どんまい	-10.0095
▁良	-10.0102
▁帰ろ	-10.0103
痛	-10.0111
▁犬	-10.0133
▁おもしろい	-10.0135
▁喉	-10.0141
▁残っ	-10.0148
▁ぶー	-10.0153
▁説	-10.016
こういう	-10.0161
▁おおおお	-10.0177
▁ちい	-10.0177
▁運動	-10.0185
ど	-10.0189
▁かわいく	-10.0206
▁つら	-10.0209
▁指	-10.0211
▁買わ	-10.0213
▁すこし	-10.0219
ていう	-10.022
▁長く	-10.0227
▁耐え	-10.0236
▁こんなに	-10.0247
▁うま	-10.0265
▁ライブ	-10.0271
▁ゃ	-10.0278
▁かえっ	-10.0293
▁ゃん	-10.0297
▁余計	-10.0318
▁ベッド	-10.0319
▁ストレス	-10.0321
▁クラス	-10.0327
▁自転車	-10.0329
階	-10.033
▁さき	-10.0339
へぇ	-10.0342
▁乾か	-10.0342
▁どうせ	-10.0358
▁少ない	-10.0363
土産	-10.0369
▁たって	-10.0387
▁...!	-10.0387
▁さい	-10.0396
▁いっしょ	-10.0407
▁部	-10.0408
見える	-10.0411
▁エッチ	-10.0423
▁全	-10.0438
▁めんどい	-10.0445
▁からー	-10.0452
▁要	-10.0464
▁来年	-10.0476
▁うっ	-10.0498
▁真面目	-10.0505
▁通	-10.0507
▁ギリギリ	-10.0532
▁對	-10.0533
▁ちん	-10.0535
色	-10.0555
▁ざ	-10.0568
▁大切	-10.0569
▁とり	-10.0573
おばあちゃん	-10.0577
▁病	-10.0604
髪	-10.0606
ごはん	-10.0611
▁言い方	-10.0638
▁おしえ	-10.0646
▁気づか	-10.0659
▁面接	-10.0662
会お	-10.0663
▁ぶん	-10.0665
べき	-10.0673
▁料理	-10.0693
▁ゆき	-10.0701
▁安	-10.0716
▁わんちゃん	-10.0718
▁うんこ	-10.0726
▁集中	-10.0734
▁いいえ	-10.0741
▁m	-10.075
▁怖	-10.0751
▁珍しい	-10.0751
💖	-10.0756
😜	-10.0764
減っ	-10.0765
▁,	-10.0779
▁ジム	-10.0803
▁楽しく	-10.0809
▁にゃー	-10.0813
▁報告	-10.0822
▁笑う	-10.0824
▁並	-10.0828
▁流れ	-10.0833
▁生活	-10.0835
▁抜け	-10.0837
▁数学	-10.0848
▁あほ	-10.0849
▁a	-10.0849
▁~~~	-10.085
▁マック	-10.088
体	-10.0898
▁..	-10.0899
▁切	-10.0903
もらえる	-10.0914
▁厳しい	-10.0925
▁残業	-10.0938
▁貰	-10.0939
美	-10.0942
ぎ	-10.0949
😀	-10.0951
▁来れ	-10.0957
▁寿司	-10.0962
🎶	-10.0976
▁まな	-10.0981
▁作り	-10.0983
▁待た	-10.0983
▁卒業	-10.0985
▁住	-10.1015
▁いかん	-10.1018
おじさん	-10.1029
たくない	-10.1031
▁ヽ	-10.1038
▁移動	-10.104
▁舐め	-10.1047
▁危ない	-10.1048
▁人生	-10.105
▁性格	-10.105
▁待ち合わせ	-10.1055
▁ハート	-10.1061
▁しな	-10.1066
べつに	-10.1072
▁渡	-10.1072
▁パソコン	-10.1074
▁わるい	-10.1076
▁満	-10.1077
▁わすれ	-10.1084
いろんな	-10.1094
▁みせ	-10.1107
▁あみ	-10.1108
▁アホ	-10.1111
💭	-10.1136
▁点	-10.1145
🤩	-10.1148
▁普段	-10.1158
▁正解	-10.1161
▁そもそも	-10.1178
▁あまり	-10.1183
▁でかい	-10.1205
呼ん	-10.1207
▁母	-10.1207
▁どうぞ	-10.121
▁実は	-10.121
▁ひい	-10.1247
▁あかり	-10.1249
▁羨ましい	-10.1255
▁すか	-10.1258
▁お菓子	-10.1283
戦	-10.1287
生	-10.1287
▁止ま	-10.1288
▁四	-10.1295
▁c	-10.1296
▁世界	-10.1297
かし	-10.1318
▁眠たい	-10.1322
▁エロ	-10.1336
▁わがまま	-10.1342
▁弟	-10.1344
▁側	-10.1347
▁実際	-10.135
▁感謝	-10.1351
▁えな	-10.1362
▁何で	-10.1373
つける	-10.1384
食っ	-10.1385
▁やばく	-10.1386
▁おかげ	-10.1389
▁ごと	-10.1391
▁お話	-10.1393
▁名古屋	-10.1394
▁探	-10.1395
りょうかい	-10.1406
▁おっぱい	-10.1406
▁違い	-10.1412
▁右	-10.1414
▁渋谷	-10.1416
いるよ	-10.1417
着	-10.1417
😠	-10.142
▁代	-10.1421
▁晩	-10.1429
ぇぇ	-10.1431
▁大きい	-10.144
▁野球	-10.145
▁ゆか	-10.1459
▁スマホ	-10.146
こいつ	-10.1464
たん	-10.1465
▁一生	-10.147
せやな	-10.1471
▁あああ	-10.1478
▁おち	-10.1488
てる	-10.1498
▁セブン	-10.152
欲	-10.152
▁かしら	-10.1524
▁続	-10.1536
ク	-10.1544
まくっ	-10.1544
▁ケーキ	-10.1544
すいません	-10.1551
道	-10.1551
▁あき	-10.1552
期	-10.1568
▁時期	-10.1569
▁かほ	-10.1579
▁解	-10.1591
▁チョコ	-10.1594
▁スタバ	-10.1599
コ	-10.1608
▁クリスマス	-10.1614
▁休め	-10.1615
式	-10.1631
型	-10.1647
▁プレゼント	-10.1659
たまに	-10.166
数	-10.1662
▁またね	-10.1688
▁伝わ	-10.1688
ばいと	-10.1689
だいたい	-10.169
わざわざ	-10.1706
▁とれ	-10.1716
▁止め	-10.1743
💩	-10.1745
▁飲め	-10.1749
▁えぐい	-10.1752
▁まち	-10.1756
▁おまえ	-10.1762
香	-10.1762
▁左	-10.1762
やばかっ	-10.1773
啊	-10.1777
▁助か	-10.178
▁もしか	-10.1782
▁直接	-10.1799
▁やすみ	-10.1803
想	-10.1806
💢	-10.1817
する	-10.1818
した	-10.1827
▁もらい	-10.1842
▁ねた	-10.1851
降	-10.1862
▁良き	-10.1878
▁ついて	-10.188
▁さみしい	-10.1894
下	-10.1905
▁横浜	-10.1912
▁いじめ	-10.1918
▁喜ん	-10.1924
外	-10.1929
ア	-10.1939
▁優しく	-10.1946
しばらく	-10.1985
▁うまく	-10.1987
▁~☺	-10.1993
▁力	-10.2
▁分かり	-10.2003
▁新幹線	-10.2011
▁キス	-10.2016
▁一日	-10.2027
▁やれ	-10.2037
▁ド	-10.2055
▁優し	-10.2065
そうかな	-10.2067
館	-10.2073
▁素敵	-10.2082
面	-10.2083
▁寝落ち	-10.2102
▁ゴロゴロ	-10.2121
▁質問	-10.2139
▁腰	-10.2143
▁ぶっ	-10.2156
▁りょう	-10.2169
イ	-10.2187
▁だいじ	-10.2191
▁去年	-10.2226
ほとんど	-10.2229
得	-10.2229
▁達	-10.2231
▁歌	-10.2234
▁散歩	-10.224
▁おおー	-10.2249
▁怖く	-10.2263
▁やぁ	-10.2269
▁鬼	-10.2276
▁あそこ	-10.2297
▁うれ	-10.2299
▁雰囲気	-10.2303
▁下さ	-10.2303
▁かね	-10.2308
▁始まっ	-10.2308
▁ファイト	-10.2316
▁酒	-10.2331
▁思え	-10.2333
▁事故	-10.2339
▁山	-10.2352
▁では	-10.2376
▁基本	-10.2388
▁歩き	-10.2388
▁出発	-10.2397
▁待つ	-10.2398
▁とら	-10.2407
▁取っ	-10.2416
▁まう	-10.2446
▁こら	-10.245
▁内容	-10.246
▁書	-10.2465
▁駐車	-10.2466
▁おいし	-10.2467
▁とりま	-10.2478
▁胸	-10.248
所	-10.2494
▁乗り換え	-10.2494
▁ゆわ	-10.25
▁逃げ	-10.2515
▁聞け	-10.2526
リ	-10.2528
▁スーツ	-10.2529
だいちゃん	-10.2536
▁下手	-10.255
▁オール	-10.2552
▁てれ	-10.2563
▁一個	-10.2569
▁たしか	-10.2577
▁らい	-10.2588
ついてる	-10.2598
▁悠	-10.26
▁くるー	-10.2606
▁天才	-10.2612
▁程	-10.2614
▁うい	-10.2617
▁後輩	-10.2617
▁やた	-10.2619
▁かお	-10.262
わりと	-10.2626
▁ばれー	-10.2638
けっこう	-10.2641
▁ばり	-10.2645
▁ざい	-10.2646
んな	-10.2647
▁美容	-10.2651
▁行	-10.2654
▁健康	-10.266
▁就	-10.2664
▁作れ	-10.2667
文字	-10.2674
▁相	-10.268
出し	-10.2685
▁星	-10.2704
▁小さい	-10.2713
▁助け	-10.2714
▁靴	-10.2717
いっぱい	-10.2717
出して	-10.2736
言	-10.2738
▁誤字	-10.2739
▁きれい	-10.2745
▁ok	-10.2746
希	-10.2749
タ	-10.275
▁傘	-10.2752
▁痛	-10.2754
▁てこ	-10.2764
▁カフェ	-10.2767
▁うた	-10.2777
おけまる	-10.28
ことね	-10.2803
▁花	-10.2812
語	-10.2832
たち	-10.284
▁ひか	-10.2841
▁ぽん	-10.2846
▁飛行機	-10.2853
▁そお	-10.2883
▁働い	-10.2887
▁合わ	-10.2887
▁濡れ	-10.2889
▁寂しく	-10.2895
▁嫌わ	-10.2896
▁涙	-10.29
▁浴び	-10.29
▁萎え	-10.2901
也	-10.2909
▁消	-10.2909
▁返す	-10.291
▁沢	-10.291
▁身体	-10.2911
▁はなし	-10.2942
半	-10.2943
🏼	-10.2944
程	-10.295
▁オッケー	-10.2962
▁まさか	-10.2963
祭	-10.2974
▁しゅん	-10.2978
▁面白	-10.2979
▁引	-10.2983
▁ひん	-10.2991
▁当たっ	-10.3
上	-10.3004
▁遠	-10.3008
▁春	-10.3009
ゆうくん	-10.301
▁距離	-10.3013
▁サッカー	-10.3019
▁歩く	-10.302
▁耳	-10.3035
▁夏休み	-10.3039
▁呼ば	-10.3044
▁裏	-10.305
▁睡眠	-10.3052
▁パンツ	-10.3081
▁会いたい	-10.3087
▁ほな	-10.3097
行	-10.3111
▁たのしい	-10.3111
▁⤴	-10.312
▁あつい	-10.3121
▁さぁ	-10.3125
▁つくっ	-10.3131
▁寒く	-10.314
もらお	-10.3145
▁恋愛	-10.3157
▁奴	-10.3162
▁開い	-10.3168
▁あいし	-10.3168
▁強く	-10.3176
▁筋トレ	-10.3187
▁イオン	-10.3194
ゆ	-10.3196
▁はあ	-10.321
▁通知	-10.321
💡	-10.3212
▁りな	-10.3221
▁画	-10.323
▁チケット	-10.3237
▁首	-10.3245
▁ホーム	-10.3258
▁払	-10.3268
▁終電	-10.3269
▁勝て	-10.3275
暮らし	-10.3276
▁東	-10.3278
▁こんど	-10.328
▁ぽい	-10.3294
▁暑	-10.3297
▁🤦	-10.3298
▁馬鹿	-10.3299
ズ	-10.332
▁伸び	-10.3322
▁すら	-10.3324
▁目覚め	-10.3325
▁かえ	-10.333
▁丸	-10.334
▁ネット	-10.3365
そうですね	-10.337
▁youtube	-10.3378
▁ドキドキ	-10.3385
▁ハマ	-10.3394
▁十分	-10.3398
▁からだ	-10.3401
▁ちか	-10.3403
▁ビール	-10.3408
😛	-10.3415
▁うう	-10.3416
▁千	-10.3416
ふぁいと	-10.3417
▁コロナ	-10.3418
でー	-10.3442
▁タクシー	-10.3443
▁ネタ	-10.3444
ム	-10.3445
ぃ	-10.3451
止まら	-10.3456
まったく	-10.3462
▁連	-10.3472
▁なき	-10.3493
▁行動	-10.3496
▁池袋	-10.3498
▁ラスト	-10.3499
▁受か	-10.3501
▁無駄	-10.3511
▁吸	-10.3517
▁タバコ	-10.3526
▁興奮	-10.3528
機	-10.3529
▁~、	-10.3529
▁弱い	-10.3549
川	-10.3564
ご	-10.3567
▁なにか	-10.3578
▁重い	-10.3583
いけん	-10.3591
▁ヾ	-10.3599
▁このまま	-10.36
▁勘違い	-10.3601
▁うる	-10.3605
▁月	-10.3606
ーん	-10.3607
▁急い	-10.3612
▁s	-10.3614
▁打っ	-10.3617
▁軽く	-10.3621
▁ぜったい	-10.3629
▁癒	-10.3642
お願い	-10.3643
カ	-10.3645
▁うぅー	-10.3648
▁都	-10.3649
きもち	-10.3649
▁たけ	-10.3657
▁アプリ	-10.3658
▁へっ	-10.3669
▁はるか	-10.367
▁出かけ	-10.3687
▁スーパー	-10.3691
▁ピョン	-10.3696
▁可哀	-10.3696
▁腕	-10.3696
困っ	-10.3696
▁宿題	-10.3701
▁どんだけ	-10.3711
▁ふぁ	-10.3717
▁おそ	-10.3718
🐹	-10.3718
▁完璧	-10.3737
▁フォロー	-10.3738
▁得	-10.3744
▁よろしい	-10.3745
▁あるある	-10.3748
▁りく	-10.3753
機嫌	-10.3757
▁提	-10.3763
▁瞬間	-10.3771
車	-10.3772
▁経	-10.3773
▁性	-10.3777
▁知り	-10.3784
▁うぅ	-10.3796
おつかれさん	-10.3802
▁おかえりなさい	-10.3807
▁試験	-10.3816
調	-10.384
ラ	-10.3843
▁運	-10.3844
▁化粧	-10.3848
ーっと	-10.3848
話そ	-10.3848
話	-10.3854
書	-10.3862
▁やあ	-10.3863
▁素晴らしい	-10.3865
▁りお	-10.3869
m	-10.3872
▁なめ	-10.3874
平	-10.3876
▁遅か	-10.3878
▁動い	-10.3894
▁たか	-10.391
症	-10.3918
▁ええん	-10.3919
▁どうして	-10.392
▁ゆうき	-10.3933
👍🏻	-10.3934
▁うどん	-10.3939
割	-10.3945
▁おねがい	-10.3945
▁どんどん	-10.3947
▁五	-10.3949
▁下が	-10.3956
▁優	-10.3965
▁ショック	-10.3966
▁解散	-10.3972
▁恥ずかし	-10.3981
▁訳	-10.3985
▁すま	-10.3989
いっつも	-10.3991
▁飛ん	-10.3991
▁壊れ	-10.4011
▁上がり	-10.4013
いってき	-10.4023
▁☹	-10.4035
▁付	-10.4035
▁あけ	-10.4036
▁知らん	-10.4057
▁家出	-10.406
▁ぱ	-10.4078
▁きみ	-10.4096
▁倒れ	-10.4105
癖	-10.4115
▁近	-10.4121
▁それだけ	-10.4121
▁ぁぁ	-10.4129
▁おかしく	-10.4135
かわいいよ	-10.4139
▁ブス	-10.414
▁続け	-10.4144
▁きめ	-10.4155
▁ううう	-10.4159
しゃ	-10.4175
▁キャラ	-10.4179
▁まさかの	-10.4195
▁実習	-10.421
やめよ	-10.423
▁センス	-10.4233
▁らぶ	-10.4241
▁かなしい	-10.4255
▁中学	-10.4259
▁今月	-10.4261
▁保存	-10.4261
▁自由	-10.4268
▁兄	-10.4271
▁オレ	-10.4275
▁多く	-10.4281
▁順	-10.4283
▁押し	-10.4285
▁ねんね	-10.43
▁バイバイ	-10.43
▁短い	-10.4302
ナ	-10.4302
▁肩	-10.4304
▁ぐ	-10.4307
▁集ま	-10.431
▁癒し	-10.4321
▁無くな	-10.4328
える	-10.4329
不足	-10.4329
▁取ら	-10.433
▁入	-10.4332
▁履	-10.4345
▁なんでやねん	-10.4359
▁ぶり	-10.436
▁水曜	-10.4369
マン	-10.4375
▁甘い	-10.4386
マ	-10.4391
▁研修	-10.4392
▁希望	-10.4392
▁ありがたい	-10.4397
▁キモ	-10.4397
院	-10.4415
キ	-10.4418
▁みれ	-10.4418
▁案	-10.4421
▁シャツ	-10.4427
▁残	-10.4429
します	-10.4433
▁量	-10.4434
▁反省	-10.4434
返し	-10.4442
▁寄	-10.4457
▁すけ	-10.4459
▁美	-10.4461
▁キレ	-10.4462
▁鍋	-10.4472
▁派	-10.4473
▁財布	-10.4485
▁おそい	-10.4487
▁血	-10.4499
▁仲	-10.4503
▁振	-10.4509
万	-10.451
回目	-10.4516
▁オフ	-10.4518
▁チュー	-10.4518
▁にくい	-10.4523
▁文	-10.4525
たのしん	-10.4526
▁状態	-10.4528
▁欲しか	-10.453
▁満足	-10.4536
てぇ	-10.4549
▁太っ	-10.4576
💨	-10.4578
なら	-10.4581
▁喜	-10.4591
▁みゆ	-10.4595
▁ドラマ	-10.4596
▁進	-10.4596
▁メール	-10.4599
▁情報	-10.4599
▁ほほ	-10.4602
あげよ	-10.4609
▁見つか	-10.461
▁漫画	-10.4615
▁文字	-10.4618
▁ゅき	-10.4621
▁上手	-10.4625
▁ンゴ	-10.463
▁マスク	-10.463
▁歯磨き	-10.4636
▁帰	-10.4638
▁認め	-10.464
▁うちら	-10.465
▁忙し	-10.4651
▁意識	-10.4653
▁タピオカ	-10.4654
▁コーヒー	-10.4655
なのかな	-10.4657
▁間違	-10.4657
って	-10.4665
▁渡し	-10.4668
▁失礼	-10.4678
▁汚い	-10.4684
ける	-10.4685
▁インフル	-10.4694
▁全員	-10.4703
▁ゴミ	-10.4717
野	-10.4721
▁歌っ	-10.4726
もはや	-10.4732
▁ミ	-10.4733
おわる	-10.4735
▁ミス	-10.4745
化	-10.4746
▁拗ね	-10.4746
やらかし	-10.4748
▁さやか	-10.4755
▁勝ち	-10.4764
こないだ	-10.4764
▁しんど	-10.4765
-	-10.4767
▁別れる	-10.4767
器	-10.4767
▁予想	-10.4772
▁いっか	-10.4773
題	-10.4779
▁うえ	-10.478
▁給料	-10.4782
▁みさき	-10.4785
▁グループ	-10.4788
▁動か	-10.4793
▁代わり	-10.4796
▁隠し	-10.4809
▁最終	-10.4813
について	-10.4814
▁ちっ	-10.4818
▁卍	-10.4848
▁じゃろ	-10.4851
食	-10.4857
過ごし	-10.4867
なでなで	-10.4875
ド	-10.4887
▁カップル	-10.4895
夜中	-10.4902
▁るな	-10.4902
旦	-10.4904
島	-10.4929
▁納	-10.4944
▁デブ	-10.4944
▁状況	-10.4951
▁公園	-10.4951
年生	-10.4958
▁確実	-10.496
更	-10.4962
▁感動	-10.4963
▁教室	-10.4968
▁具合	-10.4977
▁大会	-10.4985
▁予	-10.4985
▁現実	-10.4987
連休	-10.4992
び	-10.5001
▁ぜー	-10.5002
▁のんびり	-10.5006
▁ずつ	-10.5006
▁ワロタ	-10.502
▁奢	-10.502
▁食い	-10.5024
▁落とし	-10.5036
▁冷め	-10.5046
▁たまたま	-10.5049
場合	-10.505
▁酔っ払	-10.5054
▁常	-10.5061
▁名	-10.5068
▁忙しく	-10.5077
▁上手く	-10.5077
▁まて	-10.5078
▁最強	-10.5079
論	-10.5079
▁皆	-10.5086
▁あったかい	-10.5086
▁お姉ちゃん	-10.5096
▁辛	-10.5102
▁差	-10.5105
▁超え	-10.5108
菜	-10.5115
▁もしかして	-10.5126
おくっ	-10.5134
▁みえ	-10.5138
▁得意	-10.5145
▁たのし	-10.515
▁若い	-10.515
▁お茶	-10.5157
こと	-10.5162
地	-10.5162
ゆうちゃん	-10.5168
▁きん	-10.5168
おいしかっ	-10.5169
▁おーい	-10.5175
▁被	-10.5177
▁繋が	-10.5178
▁面	-10.5185
けん	-10.5193
▁第	-10.5193
▁あう	-10.5196
来	-10.52
▁画面	-10.5202
▁ゆうか	-10.5202
科	-10.5203
▁全て	-10.5203
バ	-10.5209
休み	-10.5214
▁天	-10.5216
▁会議	-10.5232
▁若	-10.5252
▁まかせ	-10.5256
▁載せ	-10.5265
による	-10.5275
▁バスケ	-10.5276
▁染め	-10.5276
▁図書館	-10.5294
名	-10.5303
▁話しかけ	-10.5306
▁いとこ	-10.5312
▁襲	-10.5315
始まる	-10.5318
▁体育	-10.5325
▁待て	-10.5332
🔥	-10.5339
🌟	-10.5343
▁送り	-10.5346
🙊	-10.5348
▁冷たい	-10.5348
▁表	-10.5353
▁奥	-10.5358
▁お客さ	-10.5361
▁画像	-10.5363
秒	-10.5364
▁び	-10.5372
町	-10.5372
たー	-10.5373
▁向い	-10.5376
▁悲し	-10.538
▁かんな	-10.5382
ってか	-10.5388
ぅ	-10.539
s	-10.5402
▁まんま	-10.5412
▁⭐	-10.5421
▁梅田	-10.5423
味	-10.5424
▁マッサージ	-10.5434
▁どちら	-10.5445
たい	-10.5452
▁同	-10.5453
手	-10.5455
▁ワンチャン	-10.5459
▁もも	-10.5463
ひ	-10.5465
にしてんの	-10.5467
▁野菜	-10.5472
▁笑顔	-10.5478
しょ	-10.5478
▁さあ	-10.5482
▁確定	-10.5483
るかな	-10.5495
▁音楽	-10.5499
▁ゼミ	-10.5511
▁激	-10.5515
▁魚	-10.5523
▁寂し	-10.5532
▁真似	-10.5545
▁タイム	-10.5558
▁韓国	-10.5558
▁合流	-10.5559
▁有名	-10.5568
▁あめ	-10.557
▁つぎ	-10.5573
件	-10.5579
▁りこ	-10.5585
一	-10.5586
▁いちばん	-10.5591
▁じゅん	-10.5607
まぁまぁ	-10.5609
▁サイズ	-10.5616
▁まーく	-10.562
代	-10.5627
▁キロ	-10.5657
▁はじめ	-10.5666
なん	-10.5667
▁為	-10.5667
▁重	-10.5668
▁都合	-10.5671
▁来月	-10.5675
▁ファミマ	-10.5692
▁ちな	-10.5697
▁くれれ	-10.57
▁お迎え	-10.571
市	-10.5719
▁🥳	-10.5721
類	-10.5726
▁ウケ	-10.5728
▁~~~~	-10.5736
▁ぉぉ	-10.5737
▁マシ	-10.5739
▁期間	-10.5747
▁水曜日	-10.5754
▁向かい	-10.5756
▁同期	-10.5777
▁成長	-10.5779
▁あざ	-10.5781
たのしかっ	-10.5787
▁自己	-10.5791
▁マン	-10.5807
てらっ	-10.5812
休	-10.5823
動	-10.5825
オ	-10.5827
▁胃	-10.583
▁懐かしい	-10.5864
▁ちと	-10.5868
▁赤ちゃん	-10.5882
▁最低	-10.5897
つけ	-10.5902
いったん	-10.5915
▁直し	-10.5916
▁秒	-10.5933
▁欲しく	-10.5935
一緒	-10.5937
▁体力	-10.5947
▁沖縄	-10.595
▁恋	-10.5957
▁ないと	-10.5957
どう	-10.5958
▁そろ	-10.5964
▁あたりまえ	-10.5971
とっても	-10.5985
▁研究	-10.6
▁那	-10.6002
▁好きだ	-10.6003
▁すね	-10.6005
▁ピンク	-10.6011
▁青	-10.6017
▁ですか	-10.6022
▁日本語	-10.6024
▁きゃー	-10.6029
▁到着	-10.6035
▁読み	-10.6038
▁安定	-10.604
▁感情	-10.6042
がんばろう	-10.6043
▁和	-10.6045
▁残り	-10.6048
いいよん	-10.6052
とか	-10.6055
▁みほ	-10.6058
▁職場	-10.6059
▁いただき	-10.606
▁あわ	-10.6065
じゃぁ	-10.6066
出さ	-10.6067
▁光	-10.6068
▁かよ	-10.6069
▁ほお	-10.6079
▁ほうほう	-10.608
入り	-10.6083
▁きく	-10.6085
号	-10.6089
▁低い	-10.6095
▁毛	-10.6097
おじいちゃん	-10.61
▁かかり	-10.6103
▁尻	-10.6108
▁お肉	-10.611
▁取	-10.6125
▁読め	-10.6126
▁たいへん	-10.613
▁上が	-10.6131
▁まつ	-10.6139
▁しゃ	-10.614
分かん	-10.6142
▁ふむ	-10.6144
k	-10.6145
▁限	-10.6146
▁両方	-10.6155
▁セット	-10.6162
▁!?!?	-10.6164
▁後悔	-10.6165
▁覚め	-10.6171
▁台	-10.6171
▁惚れ	-10.6174
▁きき	-10.6175
▁ランチ	-10.6177
ツ	-10.6179
▁上げ	-10.6184
▁経験	-10.6184
合っ	-10.6185
▁あゆ	-10.6185
▁発表	-10.6192
ゆな	-10.6194
やん	-10.6195
▁向こう	-10.6206
▁つくる	-10.6212
▁サボ	-10.6219
だしね	-10.6224
▁ァ	-10.6233
日間	-10.6233
▁👋	-10.6237
杯	-10.624
▁定期	-10.6241
▁つつ	-10.6241
▁交換	-10.6244
🌞	-10.6249
▁みな	-10.6255
▁吐き	-10.6262
▁まちがえ	-10.6264
▁自撮り	-10.6278
▁にな	-10.6282
▁遠く	-10.6292
▁求め	-10.6294
▁こよ	-10.63
▁高く	-10.6313
▁...。	-10.633
▁ころ	-10.6342
▁あざす	-10.6346
▁ハグ	-10.6353
ノ	-10.6354
▁ふたり	-10.6357
▁ふと	-10.6371
▁タノピョン	-10.6373
▁ヤバい	-10.6376
▁貸し	-10.6379
男	-10.6385
費	-10.6391
もぉ	-10.6401
▁思い出	-10.6409
▁?☺	-10.6411
▁しも	-10.6421
▁怪我	-10.6424
話さ	-10.6429
げ	-10.6437
▁塩	-10.6445
▁ぷ	-10.645
💞	-10.6461
▁うけ	-10.6469
▁ぜひ	-10.647
袖	-10.647
▁メガネ	-10.6474
▁地元	-10.6478
じゃん	-10.6481
▁~~!	-10.6492
▁眠れ	-10.6495
▁見よ	-10.6509
▁おおお	-10.6516
▁あんた	-10.6517
して	-10.652
▁トーク	-10.6524
やめろ	-10.6528
▁るか	-10.6531
ミ	-10.654
なくなる	-10.6544
▁西	-10.6563
▁どうも	-10.6574
▁当て	-10.6585
▁おなじ	-10.659
▁ぱい	-10.6591
▁リアル	-10.6594
学生	-10.6605
▁カード	-10.6605
▁さや	-10.6605
によって	-10.6606
▁メンヘラ	-10.6613
▁ノリ	-10.6615
▁室	-10.6623
▁人気	-10.6624
▁手伝	-10.6624
女	-10.663
▁撮り	-10.6634
師	-10.6634
はるちゃん	-10.6642
▁ねむく	-10.6652
▁じょー	-10.6655
🐷	-10.6662
▁ついで	-10.667
▁泣か	-10.6671
▁キラキラ	-10.6674
▁持ち	-10.6675
▁バイク	-10.6679
▁未	-10.6682
▁あいり	-10.6688
▁制服	-10.6692
そのうち	-10.6694
なんだろう	-10.6698
校	-10.6703
▁夢見	-10.6703
けれ	-10.6711
!!	-10.6713
ネ	-10.6725
▁ヤバイ	-10.6733
🐥	-10.6747
▁ふざけ	-10.6749
もともと	-10.6753
▁正	-10.6757
▁d	-10.6759
ぴえん	-10.6761
ジ	-10.6762
まる	-10.6764
▁ふう	-10.677
▁なぞ	-10.677
▁テニス	-10.678
出かけ	-10.6783
▁にゃん	-10.6787
▁パスタ	-10.6794
▁ベット	-10.6797
▁空	-10.6805
品	-10.6809
▁~。	-10.6811
ニ	-10.6815
緒	-10.6827
▁ぷん	-10.6834
あるかな	-10.6834
▁なんとも	-10.6836
▁男の子	-10.6837
▁おし	-10.6847
▁壊	-10.6851
▁パターン	-10.6852
▁目指	-10.6858
▁返せ	-10.6858
▁カメラ	-10.6863
▁仲良し	-10.6875
医者	-10.6877
▁~??	-10.6877
▁仲良い	-10.6879
▁禁止	-10.6881
▁例え	-10.6881
▁全力	-10.6897
▁ドライブ	-10.6901
😈	-10.6903
▁イチャイチャ	-10.6905
▁南	-10.6926
▁👶	-10.6936
▁みち	-10.6936
▁英	-10.6952
▁限界	-10.6963
▁面白か	-10.6972
文	-10.6974
▁臭い	-10.6975
▁自慢	-10.699
▁!☺	-10.6992
▁しね	-10.6996
▁もて	-10.7002
▁合宿	-10.701
▁そー	-10.7012
▁おもた	-10.7016
いいよっ	-10.7034
コン	-10.7038
▁弱	-10.704
▁美味しく	-10.704
▁ダンス	-10.7041
▁あおい	-10.7047
▁ぼ	-10.7048
モ	-10.705
▁に対し	-10.7061
▁作業	-10.7064
▁福岡	-10.7064
▁ニヤニヤ	-10.7066
▁焼	-10.7068
無	-10.7073
用	-10.7077
金	-10.7083
▁いん	-10.7086
▁拓	-10.7087
▁機会	-10.7087
▁さっ	-10.7089
▁ローソン	-10.7092
▁萌	-10.7096
▁目標	-10.7097
▁田舎	-10.71
▁翔	-10.7101
▁貰え	-10.7107
▁線	-10.7119
▁おおい	-10.7124
▁げんき	-10.7125
▁貯め	-10.7131
▁感覚	-10.7135
▁いて	-10.7144
▁了	-10.7147
▁なっちゃん	-10.7152
▁再	-10.7154
▁座れ	-10.7157
▁とらん	-10.7159
▁🥰🥰	-10.7166
▁ポケモン	-10.7171
▁死な	-10.718
▁練	-10.7183
▁週	-10.7185
▁おにぎり	-10.7187
▁追加	-10.7197
ちゃ	-10.7198
▁紹介	-10.7199
▁解決	-10.72
▁げん	-10.7206
.	-10.7217
▁即	-10.7224
▁出せ	-10.723
▁ほの	-10.7259
▁後半	-10.7262
▁えみ	-10.7267
っこ	-10.7273
▁どうし	-10.7276
▁みく	-10.728
▁かまっ	-10.7288
▁たんか	-10.729
▁速	-10.7292
席	-10.7296
読む	-10.7312
▁とにかく	-10.7322
▁つよい	-10.7326
▁減	-10.7332
▁身長	-10.7336
ぁ	-10.7342
ふ	-10.7343
眠	-10.7354
▁短	-10.7362
▁おば	-10.7368
▁送れ	-10.7369
▁電気	-10.7379
▁会いたかった	-10.7387
▁☝	-10.7389
あえる	-10.739
▁信用	-10.7398
▁病気	-10.7398
▁比べ	-10.7411
▁スクショ	-10.7413
▁チーズ	-10.7419
▁北海道	-10.7419
堂	-10.7421
庫	-10.7421
▁外出	-10.7424
▁まとめ	-10.7427
ロ	-10.7431
▁木	-10.7433
▁いちご	-10.7436
▁やさしい	-10.7438
▁jr	-10.7438
御	-10.7439
やり	-10.7442
よう	-10.7442
▁努力	-10.7444
🤧	-10.7444
▁祈	-10.7444
▁歳	-10.7444
▁嬉しく	-10.7449
▁🤷	-10.745
▁あらー	-10.7461
▁写メ	-10.7461
▁お兄ちゃん	-10.7462
▁アニメ	-10.7464
▁ぜんぶ	-10.7474
▁ぱー	-10.7484
▁営業	-10.7487
▁失敗	-10.749
▁紙	-10.7491
▁へえ	-10.7496
▁原因	-10.7501
▁ならい	-10.7504
▁いみ	-10.7508
▁シンプル	-10.7514
▁にも	-10.7518
🐻	-10.7523
▁凄	-10.7528
▁ヤバ	-10.753
▁イベント	-10.7531
▁きつ	-10.7534
▁ながい	-10.7541
▁居酒屋	-10.7544
▁イヤホン	-10.7547
▁溜ま	-10.7551
おすすめ	-10.7553
達	-10.7559
▁まあまあ	-10.7564
▁一つ	-10.7571
▁切り	-10.7576
▁過去	-10.7577
▁餃子	-10.7586
▁特別	-10.7594
▁悪か	-10.7596
▁旅	-10.7606
▁twitter	-10.7608
▁稼	-10.7613
日目	-10.7614
▁参加	-10.7615
▁支	-10.7621
▁あっち	-10.7621
元	-10.7622
▁知り合	-10.7622
😬	-10.7624
▁スっ	-10.7625
▁ひひ	-10.7626
▁思いつ	-10.7626
▁ケータイ	-10.7632
▁スー	-10.7638
▁高校生	-10.7642
▁おと	-10.7646
おこっ	-10.7654
▁かれ	-10.7667
▁もったいない	-10.7677
なんとかなる	-10.7679
▁昼間	-10.7696
▁モテ	-10.77
▁大体	-10.7701
湯	-10.7706
▁こうか	-10.7712
▁ヨシヨシ	-10.7724
▁自然	-10.7728
▁たった	-10.7733
▁忙しか	-10.7736
▁千葉	-10.7738
▁推し	-10.7741
シ	-10.7747
▁🥺🥺🥺	-10.7758
サ	-10.7771
▁おか	-10.7773
げる	-10.7773
▁すず	-10.7775
▁眠気	-10.7777
ぼちぼち	-10.7786
なるべく	-10.7786
声	-10.7786
学	-10.7789
▁どる	-10.7795
▁北	-10.7796
▁こない	-10.7801
▁就活	-10.7805
▁艸	-10.7806
▁主	-10.7808
😲	-10.7811
▁きゃ	-10.7813
▁ピザ	-10.7821
▁悩み	-10.7831
▁学生	-10.7841
▁うれし	-10.7845
▁不思議	-10.7849
▁りさ	-10.7849
▁漢字	-10.7864
▁プール	-10.7865
▁無く	-10.7867
すきや	-10.7877
▁咳	-10.7892
▁値段	-10.7896
▁メンタル	-10.7897
真ん中	-10.7901
▁上手い	-10.7906
▁豚	-10.7907
▁あな	-10.791
▁アルバム	-10.7912
頃	-10.792
▁パ	-10.7923
ばかり	-10.7929
▁二度	-10.7933
干	-10.7948
▁食べ物	-10.7949
▁寝ぼけ	-10.7956
▁コース	-10.7968
▁無料	-10.7968
▁ないか	-10.7977
ぇ	-10.798
▁肌	-10.7983
😕	-10.7992
▁ひる	-10.801
🌸	-10.8013
▁ダイエット	-10.8013
フ	-10.8029
▁ちゃー	-10.803
っきり	-10.8047
ちょうだい	-10.8056
▁者	-10.8059
▁見た目	-10.8067
▁きり	-10.8071
理	-10.8071
▁録画	-10.8076
▁おくれ	-10.8076
▁みお	-10.8081
通り	-10.8089
▁夜更	-10.8105
▁撮れ	-10.8106
▁泊	-10.8106
▁卵	-10.8107
▁そば	-10.811
食う	-10.8111
▁立て	-10.8113
▁手紙	-10.8119
▁地獄	-10.8119
▁無し	-10.8132
炎	-10.8133
▁イ	-10.8141
▁突然	-10.8143
🤫	-10.8145
てんねん	-10.8151
▁存在	-10.8158
▁看	-10.8161
▁選択	-10.8164
剤	-10.8168
▁你	-10.8176
▁階段	-10.818
▁ゎ	-10.8182
▁メンバー	-10.8197
▁去	-10.82
▁浴衣	-10.8204
▁構	-10.8208
番号	-10.821
▁ぁぁぁ	-10.8215
▁せめて	-10.8216
いたしまして	-10.823
▁着る	-10.8233
🤨	-10.8239
▁きのう	-10.8239
▁ないや	-10.824
▁まずい	-10.824
▁大きく	-10.8242
▁えん	-10.8252
▁えり	-10.826
▁単純	-10.8265
▁すみ	-10.8267
▁ちっちゃい	-10.8273
▁おもろ	-10.8273
▁補	-10.8275
▁本人	-10.8276
▁効	-10.8278
▁キツ	-10.828
▁走る	-10.8284
▁死	-10.8284
▁ポイント	-10.8285
字	-10.8288
▁やや	-10.8289
聴い	-10.8299
▁楽しめ	-10.8303
▁免許	-10.8303
▁らしく	-10.8305
とったん	-10.8312
▁すかー	-10.8314
▁プロ	-10.8319
よっしゃ	-10.832
薬	-10.8331
弁	-10.8331
そうじゃない	-10.8336
😹	-10.8336
▁素	-10.8344
つき	-10.8345
▁件	-10.8359
▁終了	-10.8361
▁川	-10.8361
▁女性	-10.837
▁安く	-10.8384
▁気に入	-10.8393
▁字	-10.8395
▁ひとつ	-10.8402
▁触れ	-10.8403
▁語	-10.8412
▁l	-10.8415
▁写	-10.8419
▁しまい	-10.8422
ボ	-10.8422
▁セリフ	-10.8428
談	-10.8428
旅行	-10.8431
▁寮	-10.8433
うふふ	-10.8437
▁限り	-10.8451
▁ハンバーグ	-10.8452
🌙	-10.8468
やめる	-10.847
▁優先	-10.8479
▁ちゃお	-10.8479
▁頭痛	-10.8488
いくよ	-10.8489
▁戻り	-10.849
▁可愛か	-10.8491
悟	-10.8492
▁卒	-10.8492
▁しゅー	-10.8506
▁落ち込	-10.851
▁否定	-10.8514
▁おんなじ	-10.8516
▁もうい	-10.852
▁カッコ	-10.8526
部屋	-10.8528
▁呼ぶ	-10.8536
きくん	-10.8543
▁👊	-10.8556
▁あんなに	-10.8557
▁めんどく	-10.8559
▁静か	-10.8563
足	-10.8565
▁動き	-10.8565
▁はるな	-10.8583
▁メイク	-10.8584
▁ノート	-10.8589
▁当た	-10.859
▁オ	-10.8591
▁塗	-10.8604
▁びびっ	-10.8606
😮	-10.8607
原	-10.8608
▁進ん	-10.8609
▁スッキリ	-10.861
身	-10.8615
▁るる	-10.8621
▁恥ずかしく	-10.8629
▁かま	-10.8633
▁ちんこ	-10.8636
▁さら	-10.8638
▁ン	-10.8638
▁鳥	-10.864
まん	-10.8642
▁はじめて	-10.8647
らいん	-10.865
▁秋	-10.8653
▁火	-10.8666
▁いも	-10.867
輪	-10.8672
▁引っ越	-10.8677
▁ユニバ	-10.8684
▁種	-10.8686
さらに	-10.869
▁すっごい	-10.869
▁二次	-10.8694
▁メッセージ	-10.8702
▁くさ	-10.8704
▁彼	-10.8707
▁旦那	-10.8708
▁さくら	-10.8709
▁すこ	-10.8714
▁森	-10.8716
▁最	-10.8719
▁ぇい	-10.8721
▁打ち	-10.8721
▁ドンキ	-10.8722
▁週末	-10.8723
意味	-10.8726
▁きよ	-10.8727
質	-10.8734
💋	-10.8739
メ	-10.8739
▁設定	-10.874
▁祭り	-10.8741
にとって	-10.8742
▁仲間	-10.8752
▁ワン	-10.8756
▁貼	-10.8756
▁七	-10.8756
員	-10.8765
▁きゅー	-10.8767
▁受験	-10.8769
かん	-10.877
▁連続	-10.8788
▁❔	-10.8791
ーと	-10.8791
🤥	-10.8794
▁効果	-10.8794
▁広島	-10.8794
▁影響	-10.8796
▁明け	-10.8808
▁暑く	-10.8821
ほん	-10.8827
▁ゆめ	-10.8829
▁だらけ	-10.884
▁かっこよく	-10.8841
ワ	-10.8846
▁ぎ	-10.8848
▁かっこ	-10.8855
▁格好	-10.8856
▁場	-10.8857
▁おそく	-10.8858
先	-10.8861
▁面倒	-10.887
▁✊	-10.8871
👏🏻	-10.8875
▁バック	-10.8877
すぎ	-10.8887
▁良さ	-10.889
▁!✨	-10.8895
▁さよなら	-10.8904
▁ブロック	-10.8913
▁事実	-10.8918
▁趣味	-10.8921
▁余	-10.8924
好きだから	-10.8935
▁嗯	-10.8936
入	-10.8938
▁まみ	-10.8941
チ	-10.8944
▁死ね	-10.8948
▁体重	-10.8952
もう	-10.8954
▁まほ	-10.8954
▁将来	-10.8957
▁ねむたい	-10.8957
▁えぐ	-10.8959
▁街	-10.8979
店	-10.8979
😽	-10.8982
▁投稿	-10.8988
▁バレー	-10.8991
▁飲	-10.8995
▁深夜	-10.8998
▁やはり	-10.8998
▁おはよ	-10.9002
速	-10.9017
▁単位	-10.9021
▁面白く	-10.9022
せん	-10.9024
▁ふく	-10.9035
起き	-10.9036
▁歩	-10.9042
▁まくり	-10.9043
ーえ	-10.9047
まくる	-10.905
汁	-10.9054
▁呼び	-10.9055
▁変更	-10.907
▁文化	-10.9075
ゲーム	-10.9075
▁身	-10.9076
ウ	-10.9081
▁勝負	-10.9082
▁登録	-10.9082
▁動け	-10.9083
▁ホンマ	-10.9084
▁真剣	-10.9087
▁仮	-10.9103
▁注意	-10.9107
ダ	-10.9116
谷	-10.9119
奈	-10.9126
ヤ	-10.9136
▁当	-10.9139
しとっ	-10.9146
▁敬	-10.9152
台	-10.9153
▁かわいー	-10.9157
▁可	-10.9167
よん	-10.9168
▁らいい	-10.9169
▁くじ	-10.9171
▁窓	-10.9171
いじっ	-10.9173
▁対応	-10.9174
▁感想	-10.9189
▁投げ	-10.9193
▁がまん	-10.9194
▁iphone	-10.9196
▁気付	-10.9201
▁一言	-10.9204
▁位	-10.9204
▁コンタクト	-10.9209
司	-10.9211
より	-10.9232
▁痛み	-10.9233
▁おもしろ	-10.9241
▁いし	-10.9269
しかた	-10.9269
▁おぼえ	-10.928
社	-10.9288
😻	-10.9297
▁虫	-10.93
▁サークル	-10.93
▁裸	-10.9302
井	-10.9313
▁計画	-10.9319
▁結婚式	-10.9325
▁神戸	-10.9331
状	-10.9336
▁花粉	-10.9336
▁両	-10.9342
▁⤵	-10.9351
▁電波	-10.9356
▁さま	-10.9356
▁ほし	-10.9357
▁形	-10.9361
実	-10.9362
▁秘密	-10.9365
▁大き	-10.9367
倍	-10.9368
▁国	-10.9372
▁雑	-10.9373
▁ちんちん	-10.9374
▁おしゃれ	-10.9383
▁ばす	-10.9383
▁遊べ	-10.9384
村	-10.9388
習	-10.9391
▁ざんねん	-10.9413
▁わざと	-10.9432
▁相変わら	-10.9443
▁いたいー	-10.9445
▁立	-10.945
▁涼しい	-10.9458
▁プリント	-10.9462
▁緑	-10.9476
▁しや	-10.9485
▁地震	-10.9489
▁!、	-10.9492
なんだかんだ	-10.9498
▁平和	-10.95
▁いおん	-10.9501
▁少なく	-10.9509
▁原	-10.9511
▁穴	-10.9514
▁失	-10.952
▁珍しく	-10.9522
服	-10.9525
▁引く	-10.953
▁おも	-10.9534
▁アウト	-10.9535
▁パー	-10.9539
▁祝	-10.9541
好み	-10.9544
▁広い	-10.9546
▁ななみ	-10.9553
▁父	-10.9554
▁みう	-10.9554
▁頂	-10.9559
▁続き	-10.9569
遊べる	-10.9574
▁当日	-10.9576
▁そいつ	-10.9577
▁年末	-10.9579
▁よって	-10.9591
▁しゃい	-10.9603
▁捕ま	-10.9606
プレ	-10.962
▁キャンセル	-10.9622
告白	-10.9623
▁どうにか	-10.9626
▁ダッシュ	-10.9626
かな	-10.9629
▁ス	-10.963
▁お気	-10.9635
🤮	-10.9635
▁一年	-10.9657
▁うお	-10.9658
▁じょ	-10.9659
▁ラブラブ	-10.9659
▁難し	-10.9662
▁ワイ	-10.9662
▁範囲	-10.9662
箱	-10.9665
▁扱	-10.9669
▁詳しく	-10.967
▁釣り	-10.9678
ケ	-10.9678
▁🙅	-10.9679
▁方向	-10.9682
▁會	-10.9683
▁h	-10.9687
▁ボケ	-10.9693
太郎	-10.9697
▁褒	-10.97
リー	-10.9701
▁文句	-10.9707
▁いたし	-10.9708
▁あし	-10.971
▁チキン	-10.9715
▁うって	-10.9715
▁空気	-10.9716
▁地味	-10.9717
▁くさい	-10.9734
▁もえ	-10.9736
▁もと	-10.9737
▁セーフ	-10.9737
▁ひで	-10.9739
▁けけ	-10.974
▁i	-10.9747
▁ゼロ	-10.9748
▁大学生	-10.9749
▁真っ	-10.9752
▁甘	-10.9757
▁おっさん	-10.9769
▁電	-10.9775
▁帰り道	-10.9776
▁触ら	-10.9782
▁わん	-10.9785
▁定時	-10.9793
▁書き	-10.9795
然	-10.9795
▁雷	-10.9799
▁プリン	-10.9805
▁ほめ	-10.9807
▁休日	-10.9807
▁明	-10.9814
▁桜	-10.9815
▁怖か	-10.9816
▁ねえねえ	-10.9816
レ	-10.9828
血	-10.983
▁ギリ	-10.9832
▁まや	-10.9847
▁開	-10.9852
▁ひど	-10.9867
▁掛け	-10.9871
▁膝	-10.9875
▁お気に	-10.9875
▁上の	-10.9877
▁愚痴	-10.9883
▁机	-10.9883
▁八	-10.9887
d	-10.9889
▁みなみ	-10.9898
▁シ	-10.9898
▁腹立	-10.9899
▁関わ	-10.9899
▁動く	-10.99
▁潰れ	-10.9902
発	-10.9908
▁デ	-10.9908
▁喋り	-10.9909
▁覚	-10.991
▁くら	-10.9914
▁半年	-10.9915
額	-10.9917
立っ	-10.9925
▁ロ	-10.9926
▁バー	-10.9926
▁臭	-10.9928
▁白い	-10.9937
▁尊敬	-10.9937
プ	-10.994
▁配	-10.9946
態度	-10.9955
▁かんがえ	-10.9956
明	-10.9971
▁実験	-10.9977
▁枚	-10.998
▁ずい	-10.9983
せる	-10.9991
引か	-10.9995
▁サラダ	-10.9999
▁スルー	-11.0002
▁計算	-11.0007
▁深い	-11.0009
▁壁	-11.001
いじわる	-11.0014
▁ノー	-11.0014
大会	-11.0014
▁こえ	-11.0015
エ	-11.0016
▁話題	-11.0022
▁しんどく	-11.0025
▁きゅう	-11.0034
▁味噌	-11.0035
▁待機	-11.004
素	-11.0041
▁しみ	-11.0051
▁あかね	-11.0051
▁スタイル	-11.0064
▁しそう	-11.007
降る	-11.0073
▁くみ	-11.0073
かまちょ	-11.0075
▁くるま	-11.0077
▁てらー	-11.0091
▁v	-11.0093
▁変わり	-11.0097
▁中身	-11.0097
▁ファン	-11.0103
▁決定	-11.0116
病	-11.0117
▁わり	-11.0118
▁流	-11.0123
ほんまそれ	-11.0123
▁同じく	-11.0124
丼	-11.0125
▁ゴメン	-11.0134
▁ぬー	-11.0146
▁むかっ	-11.0151
ブ	-11.0153
▁いと	-11.0155
▁背	-11.0158
太	-11.0161
練	-11.0163
▁戦	-11.0167
▁ズボン	-11.0172
▁mm	-11.0181
▁ムカ	-11.0184
かい	-11.0197
▁プラス	-11.021
▁だいじょ	-11.021
▁づらい	-11.0213
▁~✨	-11.0216
勢	-11.022
ビ	-11.0232
▁抑え	-11.0234
殺す	-11.0236
▁也	-11.0241
▁傷つ	-11.0242
▁きが	-11.0243
▁姉	-11.0244
▁殺さ	-11.0246
▁ナイス	-11.0247
▁勤務	-11.0248
パ	-11.0251
▁乗せ	-11.0254
▁友	-11.0255
▁なんし	-11.0255
▁絶	-11.0256
試	-11.0256
もらわ	-11.0262
▁空港	-11.0262
▁遠慮	-11.027
▁復活	-11.0273
▁ちゃーん	-11.0283
ーン	-11.0293
▁生まれ	-11.0297
▁p	-11.03
▁香	-11.0307
▁そと	-11.0308
いたん	-11.0312
▁勘	-11.0314
▁唐揚げ	-11.032
スト	-11.0321
▁あらあら	-11.0324
▁あっという間	-11.0331
▁検査	-11.0333
をつけ	-11.0349
▁ハイ	-11.035
ター	-11.0352
▁なつ	-11.0352
▁びー	-11.0353
▁反対	-11.0354
▁リビング	-11.0356
▁イン	-11.0363
▁吐	-11.0366
いやぁ	-11.0367
▁悔しい	-11.0374
▁トー	-11.0374
▁ありさ	-11.0381
▁安全	-11.0382
▁めい	-11.0382
▁タオル	-11.0386
ット	-11.0387
▁みぃ	-11.0387
▁陽	-11.0388
▁必死	-11.0396
▁ラッキー	-11.0397
▁わな	-11.0412
▁からいい	-11.0412
▁ネ	-11.0413
▁酔	-11.0417
▁悲しく	-11.0418
あやちゃん	-11.0428
▁まり	-11.0432
▁かみ	-11.0436
おばさん	-11.044
▁治ら	-11.0442
▁教科書	-11.0462
▁ぴょん	-11.0464
▁十	-11.0465
▁どい	-11.0465
ちゃえ	-11.0473
▁べたー	-11.0475
▁問	-11.0476
▁様子	-11.0482
ほしかっ	-11.0482
重	-11.0488
▁放置	-11.0491
▁バタバタ	-11.0502
▁国語	-11.0514
量	-11.0516
樹	-11.0522
▁チェック	-11.0531
▁狙	-11.0532
▁仙台	-11.0534
▁かく	-11.0547
友	-11.0549
▁貴	-11.0556
▁負ける	-11.0557
海	-11.056
ありません	-11.0562
▁さいこう	-11.0564
▁検索	-11.0569
▁ぷー	-11.0576
▁ハード	-11.0576
ぎて	-11.0585
▁散	-11.0588
▁ゃあ	-11.0594
▁未来	-11.0598
▁どっ	-11.0607
▁つよ	-11.0607
▁るぅ	-11.0609
▁冷蔵	-11.061
▁心臓	-11.061
🙌🏻	-11.061
くっつい	-11.0617
▁完了	-11.0622
▁かわ	-11.0623
▁むぎゅ	-11.0623
▁伸ば	-11.0625
キャ	-11.0627
▁お待ち	-11.0631
▁にやにや	-11.0632
▁危険	-11.0632
▁しおり	-11.0638
▁つっ	-11.064
▁冷え	-11.0641
▁えら	-11.0642
▁引き	-11.0643
▁売れ	-11.0645
▁しゃん	-11.0645
▁田中	-11.0651
▁かや	-11.0652
▁うふ	-11.0652
▁働き	-11.066
▁あまた	-11.066
▁まけ	-11.0663
▁高速	-11.0667
▁届け	-11.0669
▁深	-11.0672
▁回復	-11.0683
▁社長	-11.0685
ていいん	-11.0685
ひろくん	-11.069
じゃない	-11.0698
▁今夜	-11.0706
▁一気	-11.071
▁悪口	-11.0725
▁オムライス	-11.0729
▁スカート	-11.0744
▁牛	-11.0751
▁爆発	-11.0754
▁眉	-11.0754
▁人数	-11.0765
▁姿	-11.0776
▁放	-11.0779
▁f	-11.0779
😯	-11.0782
不	-11.079
▁かすみ	-11.079
▁気合	-11.0792
▁腫れ	-11.0794
▁むむ	-11.0794
▁プリ	-11.08
路	-11.0806
▁ぶち	-11.0807
▁ハ	-11.0807
▁食事	-11.0814
▁低	-11.0815
▁警察	-11.0818
▁米	-11.082
ピ	-11.0827
▁揺れ	-11.0828
▁入ろ	-11.0843
▁全体	-11.0848
▁水分	-11.0849
w	-11.0851
▁前日	-11.0853
▁ミーティング	-11.0857
講	-11.086
▁メモ	-11.0861
▁対	-11.0863
▁いいねぇ	-11.0868
▁意見	-11.087
テ	-11.0881
▁部分	-11.0888
かけ	-11.0888
▁はな	-11.0889
▁触り	-11.0891
▁つん	-11.0894
▁盛れ	-11.0904
▁アイコン	-11.0904
▁まき	-11.0905
▁退	-11.0908
▁リ	-11.0908
▁地下鉄	-11.092
🧐	-11.0923
むむむ	-11.0928
▁またせ	-11.0928
▁働く	-11.0932
▁さむ	-11.0933
パン	-11.094
▁背中	-11.0948
攻	-11.0959
▁合格	-11.0965
▁ほしく	-11.0971
こうちゃん	-11.0977
▁りゅう	-11.0981
▁健	-11.0984
める	-11.0989
▁連休	-11.0992
祝い	-11.0993
▁綾	-11.0994
▁らし	-11.0995
みずき	-11.0997
▁済	-11.1001
▁受け取	-11.1002
▁乾	-11.1008
▁n	-11.101
▁ぺ	-11.101
▁どーぞ	-11.1011
▁事務所	-11.1017
▁遅延	-11.102
▁ツイッター	-11.102
▁トプ	-11.102
▁腹筋	-11.102
▁嫁	-11.1023
▁喔	-11.1024
▁うるさ	-11.1025
▁ひかり	-11.1026
尾	-11.103
▁子ども	-11.1035
▁むかえ	-11.1036
▁抜い	-11.1036
▁客	-11.104
▁ゆず	-11.1047
▁還	-11.1055
▁上野	-11.1062
▁きち	-11.1062
▁ふり	-11.1065
▁発言	-11.1066
ちまっ	-11.1074
▁さす	-11.1074
▁まった	-11.1077
▁流し	-11.1079
g	-11.1082
▁騙	-11.1083
▁もんじゃ	-11.1088
▁酔い	-11.1094
わらう	-11.1099
▁盛り上が	-11.111
▁ラブ	-11.1114
▁個人	-11.1115
布	-11.1117
▁かいな	-11.1119
種	-11.1123
息	-11.1126
▁たかい	-11.1134
っちゃん	-11.1139
▁取り消	-11.1146
かわいかっ	-11.1149
▁すく	-11.1151
▁理想	-11.1155
▁いいいい	-11.1158
▁遊ば	-11.116
▁二日酔	-11.1163
▁軽い	-11.1164
▁さて	-11.1165
▁抱きしめ	-11.1173
▁時計	-11.1174
▁しま	-11.1174
焼き	-11.1176
▁かしこま	-11.1191
▁ケース	-11.1196
しながら	-11.12
温	-11.1202
まずは	-11.1204
つまり	-11.1204
▁ぼー	-11.1206
▁コート	-11.1209
ゞ	-11.1212
▁海外	-11.1213
バス	-11.1223
▁ょぶ	-11.1228
▁らく	-11.123
高	-11.1237
▁倍	-11.1239
▁に関し	-11.1245
🚗	-11.1247
むふむ	-11.1259
▁ヨ	-11.1263
▁袋	-11.1264
へそ	-11.1269
▁責任	-11.1271
にち	-11.1274
▁ビックリ	-11.1275
▁モード	-11.1278
▁精神	-11.1279
▁過	-11.1282
▁疑	-11.129
報	-11.129
せよ	-11.1293
▁おもい	-11.1302
▁加工	-11.1307
タン	-11.1308
きいた	-11.1317
くそ	-11.1318
▁方法	-11.1322
▁小学校	-11.1325
▁玉	-11.1325
▁ちっち	-11.1347
▁にやけ	-11.1348
ぅぅ	-11.1357
▁酷い	-11.1358
🐰	-11.1359
かずま	-11.1362
▁便	-11.1368
▁うううう	-11.1368
史	-11.137
死	-11.1374
▁しあわせ	-11.1391
▁社会	-11.1392
▁dvd	-11.1399
▁パーカー	-11.1403
▁石	-11.1409
▁ひたすら	-11.1411
▁ひく	-11.1415
▁れい	-11.1418
▁呑	-11.1423
▁移	-11.1429
🐗	-11.1435
頭	-11.1436
▁ちの	-11.1437
▁ちゅん	-11.1438
▁ピアノ	-11.1442
▁ぁぁぁぁ	-11.1447
▁短く	-11.1449
▁ふえ	-11.1449
成	-11.145
▁ぶす	-11.1451
▁レジ	-11.1455
▁現場	-11.1455
▁むし	-11.146
▁やき	-11.1461
楽	-11.1461
れんく	-11.1465
系	-11.1466
▁決まり	-11.1468
▁ア	-11.1468
▁減ら	-11.1473
▁就職	-11.1476
▁分け	-11.1477
▁百	-11.1479
▁貯金	-11.148
▁綺	-11.1482
▁だいじょうぶ	-11.1483
▁なぎ	-11.1486
▁なんだか	-11.1487
▁暖かい	-11.1492
▁パワー	-11.1495
▁町田	-11.1497
こそこ	-11.1498
▁話し合	-11.1501
▁今すぐ	-11.1504
▁多少	-11.1504
▁うさぎ	-11.1507
▁はずかしい	-11.1512
▁カイト	-11.1513
過ぎ	-11.1518
▁班	-11.1524
合い	-11.1533
▁それそれ	-11.1534
▁まね	-11.1538
▁!❤	-11.1557
▁大人しく	-11.1558
▁お世話	-11.156
むかう	-11.1561
▁美人	-11.1561
▁盛	-11.1564
▁切ら	-11.1569
▁フル	-11.157
▁暖か	-11.157
橋	-11.1582
▁ニュース	-11.1585
▁喋れ	-11.1586
ついに	-11.1587
まっ	-11.1588
もの	-11.1606
▁崩	-11.1608
そうして	-11.1611
でも	-11.1617
▁センター	-11.1617
▁決ま	-11.162
▁あいて	-11.1621
▁担当	-11.1623
▁付き	-11.1624
花	-11.1625
▁くま	-11.1626
ごろごろ	-11.1628
▁ぽよ	-11.1628
▁まーじ	-11.1633
ほ	-11.1638
▁冷静	-11.164
▁ひとりで	-11.1642
▁こりゃ	-11.1647
▁おいおい	-11.1652
▁🏃	-11.1655
▁試し	-11.1657
▁勇気	-11.1659
▁わくわく	-11.1664
▁しほ	-11.1666
▁在	-11.1671
なんだ	-11.1672
▁落と	-11.1673
熱	-11.1679
▁整理	-11.1681
▁ごい	-11.1681
▁全身	-11.1681
ぐっすり	-11.1689
▁大宮	-11.169
▁ハゲ	-11.1691
▁ウ	-11.1692
▁桃	-11.1692
▁ょう	-11.1692
座	-11.1693
▁置	-11.1694
もん	-11.17
麺	-11.1702
端	-11.1713
▁眠たく	-11.1718
▁やせ	-11.1719
▁ねこ	-11.1725
▁模	-11.1734
▁つまんない	-11.1734
▁はげ	-11.1735
▁純粋	-11.1739
だし	-11.1741
▁気持ちよく	-11.1742
▁願	-11.1748
すごかっ	-11.1752
▁すり	-11.1755
▁?、	-11.1757
▁ジュース	-11.1761
▁支え	-11.1763
ーす	-11.1765
▁洋	-11.1766
▁彩	-11.1773
▁仲直	-11.1777
を	-11.1779
ハ	-11.1783
▁軽	-11.1792
▁役	-11.1799
▁オシャレ	-11.18
▁いす	-11.1801
▁っぽく	-11.1806
▁美味	-11.1809
▁時代	-11.181
▁みに	-11.1813
▁あゆみ	-11.1816
▁おかん	-11.1824
▁酷	-11.1829
▁gw	-11.1829
▁殺し	-11.184
木	-11.1847
▁目覚まし	-11.1848
▁すっぴん	-11.1861
▁よぉー	-11.1862
しゅ	-11.187
▁県	-11.1874
▁娘	-11.1877
▁背景	-11.1878
だまれ	-11.1879
▁しゅう	-11.1881
▁咲	-11.1882
🏽	-11.1882
▁自覚	-11.1882
のんちゃん	-11.1883
▁許可	-11.189
あほや	-11.1893
▁いたく	-11.1893
▁暖	-11.1894
▁溢れ	-11.1895
士	-11.1896
そこら	-11.1897
▁向け	-11.1897
▁抱	-11.1903
▁優奈	-11.1903
こう	-11.1909
▁チーム	-11.1911
▁欠	-11.1913
▁ゴム	-11.192
▁很	-11.1922
ガ	-11.1935
うつっ	-11.1936
▁たけん	-11.1938
▁怪しい	-11.1939
▁化	-11.1941
▁ちゅっ	-11.195
べ	-11.1951
しません	-11.1953
そこで	-11.1957
▁空け	-11.1963
🙋🏻	-11.1965
▁ブラック	-11.1965
▁おしり	-11.1966
▁極	-11.1966
▁?❤	-11.1973
▁アラーム	-11.1979
▁隠れ	-11.1988
▁沒	-11.1988
▁るい	-11.2
りょうくん	-11.2001
▁知	-11.2006
▁👼	-11.2015
▁あすか	-11.2016
よちよち	-11.2018
▁かれん	-11.2025
▁地	-11.2026
▁下着	-11.203
▁むずい	-11.2033
▁信じる	-11.2037
てん	-11.2039
寺	-11.2041
▁きこえ	-11.2043
▁教習	-11.2044
▁乃	-11.2074
▁眠か	-11.208
▁取って	-11.2082
▁折れ	-11.2083
▁巻	-11.2084
▁つめ	-11.2086
あがる	-11.2087
▁しらべ	-11.2087
料	-11.2089
▁杏	-11.209
▁打つ	-11.2097
わー	-11.2103
▁ワクワク	-11.2104
▁勢い	-11.2104
▁えと	-11.2105
▁察し	-11.211
▁ろっか	-11.2113
▁違和	-11.2117
▁住み	-11.2117
放	-11.2119
▁品川	-11.2121
ぴったり	-11.2121
検	-11.2125
▁奇跡	-11.2125
▁走り	-11.2131
ポ	-11.2134
▁うぇーい	-11.2139
▁ちぃ	-11.2145
やだね	-11.2149
p	-11.2151
▁何故	-11.2152
▁ももか	-11.2158
▁増や	-11.218
▁みさ	-11.2182
きゃ	-11.2182
▁てきな	-11.2193
▁➰	-11.2198
fi	-11.2198
😧	-11.2204
▁箱	-11.2209
▁記念日	-11.2211
だけど	-11.2214
▁他人	-11.2222
▁渋滞	-11.2222
意識	-11.2222
▁ガン	-11.2223
b	-11.2224
試合	-11.2226
▁ワンピース	-11.223
▁くるみ	-11.2234
みっちゃん	-11.2235
▁あったかく	-11.2239
袋	-11.2244
▁やすく	-11.2248
▁社員	-11.225
▁氏	-11.2251
▁欲し	-11.2253
ちがい	-11.226
▁冷凍	-11.2261
▁歩いて	-11.2262
▁同棲	-11.2266
▁焦ら	-11.2269
▁下ネタ	-11.2274
▁むっちゃ	-11.2275
▁フリー	-11.2275
▁避け	-11.2276
つかっ	-11.2278
鍋	-11.2282
じゃ	-11.2283
▁最寄り	-11.2283
観	-11.2284
▁便利	-11.2291
▁部長	-11.2292
▁リュック	-11.2296
▁🥴	-11.2301
👻	-11.2309
▁うまかっ	-11.231
▁うな	-11.231
▁ぱん	-11.2311
▁同士	-11.2312
▁什麼	-11.2314
▁控え	-11.2317
▁妄想	-11.2318
散	-11.232
▁充	-11.232
▁教科	-11.2327
▁観光	-11.2327
▁どころ	-11.2333
▁だお	-11.234
きって	-11.234
▁休ま	-11.2345
いく	-11.2345
▁裕	-11.2352
▁ふみ	-11.2353
▁ばて	-11.2355
便	-11.2356
▁繋い	-11.2361
▁カバン	-11.2371
▁チャラ	-11.2374
▁誕	-11.2376
あそぶ	-11.2376
末	-11.2379
次	-11.2383
▁辛く	-11.2384
介	-11.2393
▁含め	-11.2393
▁ゆるし	-11.2395
▁加	-11.2397
▁意地悪	-11.2407
▁黒い	-11.2408
▁まく	-11.2411
▁詰め	-11.2411
▁改め	-11.2414
▁納豆	-11.2415
▁パジャマ	-11.2415
▁だいち	-11.2415
▁たつ	-11.2423
▁ah	-11.2425
▁叫	-11.2429
静	-11.2434
▁洗い	-11.2434
▁妊娠	-11.2437
▁ばる	-11.2438
▁あやの	-11.2441
▁一本	-11.2442
▁オススメ	-11.2442
▁焼き	-11.2448
▁くい	-11.2449
▁告	-11.2451
▁シー	-11.2451
寿司	-11.2457
れな	-11.2459
🙏🏻	-11.2462
グ	-11.2463
▁ぴよ	-11.2469
▁なみ	-11.2475
できれ	-11.248
▁タイ	-11.2486
▁かずき	-11.2489
▁セックス	-11.2495
▁空き	-11.2511
▁水着	-11.2512
▁候補	-11.2515
▁むぅ	-11.252
▁床	-11.2522
▁交通	-11.2522
いちゃいちゃ	-11.2523
▁しかし	-11.2528
▁濃い	-11.2529
▁驚	-11.2539
▁說	-11.2542
ぴ	-11.2543
▁出張	-11.2546
▁冷たく	-11.2547
▁オープン	-11.2553
▁だれか	-11.2554
定	-11.2559
▁ちかい	-11.2561
▁ブラ	-11.2562
▁古	-11.2562
▁ダサ	-11.2567
▁ベスト	-11.2567
▁生え	-11.2567
▁クズ	-11.2569
おこら	-11.2569
▁アカウント	-11.2569
▁つや	-11.2571
つい	-11.2573
むかつく	-11.2573
万円	-11.2576
▁さく	-11.2579
▁スタート	-11.2582
▁wi	-11.2582
▁文章	-11.2582
▁舞	-11.2583
▁不足	-11.2586
😟	-11.2586
▁荒野	-11.2586
▁降ら	-11.259
▁嗎	-11.2593
▁寂しか	-11.2595
▁スケジュール	-11.2595
▁かわり	-11.2596
▁はっきり	-11.2604
▁信号	-11.2604
▁みり	-11.2606
▁g	-11.2607
▁匹	-11.2617
▁ホラー	-11.2618
業	-11.2618
▁化学	-11.2621
▁成人	-11.2622
▁いつの間に	-11.2623
カノ	-11.2625
▁末	-11.2628
▁めし	-11.2634
直し	-11.2641
里	-11.2646
▁ぼーっ	-11.2649
やか	-11.265
▁申し訳	-11.2653
▁おっきい	-11.2656
▁誉	-11.2657
れん	-11.2657
▁荒れ	-11.2676
▁赤い	-11.2677
▁閉め	-11.2688
▁事件	-11.2688
🤯	-11.2691
▁重要	-11.2691
いや	-11.2692
▁あお	-11.2692
▁日帰り	-11.2698
▁運命	-11.2699
▁りか	-11.27
▁でぶ	-11.2707
▁ポジティブ	-11.271
▁罰	-11.2716
しんどかっ	-11.2727
▁変換	-11.2737
▁割れ	-11.2739
▁ダラダラ	-11.2746
▁完	-11.2748
▁かつ	-11.2753
▁わず	-11.2764
▁まどか	-11.2771
給	-11.2775
▁トマト	-11.2787
▁判断	-11.2788
▁お盆	-11.2793
▁少な	-11.2796
▁クラブ	-11.2801
かずく	-11.2802
▁食え	-11.2803
▁刺さ	-11.2807
▁生物	-11.2807
取り	-11.2809
公園	-11.2811
▁限定	-11.2811
房	-11.282
▁社会人	-11.2824
かぶっ	-11.2825
▁ちび	-11.2828
▁がり	-11.2832
▁サ	-11.2833
▁めんどくさく	-11.2837
▁紫	-11.2839
▁ぱぱ	-11.284
▁天使	-11.2842
▁眠り	-11.2846
▁立ち	-11.285
の子	-11.285
勝	-11.2853
▁つまら	-11.2855
▁純	-11.2856
▁完成	-11.2858
どうしても	-11.2862
喫	-11.2862
▁怒り	-11.2863
▁偉	-11.2868
▁みつけ	-11.287
だい	-11.2871
▁川崎	-11.2872
▁生徒	-11.288
▁履歴	-11.2882
だけ	-11.2882
▁中止	-11.2883
▁価値	-11.2884
▁はいり	-11.2886
▁残る	-11.289
切り	-11.289
▁抱きつ	-11.2893
▁参	-11.2896
▁期	-11.2898
▁コマ	-11.2899
▁水族館	-11.2903
▁印象	-11.2904
▁インターン	-11.2904
岡	-11.2907
▁福	-11.2908
真	-11.2908
▁帽子	-11.291
▁動物	-11.2918
▁あぶない	-11.2921
▁ぼっち	-11.2924
ゆう	-11.2927
▁e	-11.293
▁ござる	-11.2931
▁スープ	-11.2934
▁じゃあね	-11.2935
▁知れ	-11.2941
▁飛ば	-11.2942
いてる	-11.2943
▁ページ	-11.2945
なー	-11.2948
いれる	-11.2951
退	-11.2952
▁外し	-11.2953
セ	-11.2954
▁うちに	-11.2959
▁あえて	-11.296
デ	-11.296
▁ワイン	-11.2965
▁アリ	-11.2968
ほんで	-11.2969
▁ヤ	-11.2971
形	-11.2972
風	-11.2972
▁ゆく	-11.2976
▁テキ	-11.299
収	-11.2993
▁狭い	-11.2994
▁マ	-11.2998
▁だり	-11.3
▁専門	-11.3003
▁ドライヤー	-11.3003
▁覺	-11.3009
だから	-11.301
▁むずかしい	-11.3013
はなちゃん	-11.3013
すでに	-11.3016
▁根	-11.3016
▁におい	-11.3017
▁講	-11.302
▁まとも	-11.3021
▁ショート	-11.3022
▁関	-11.3027
▁ゆうじ	-11.3031
▁魅力	-11.3046
▁一般	-11.3049
▁マイ	-11.3051
▁歩け	-11.3052
志	-11.3056
▁うつ	-11.3056
▁お姉さん	-11.3056
▁といれ	-11.3059
▁出口	-11.3062
▁-.。	-11.3065
通	-11.3065
案	-11.3074
合	-11.3078
▁証拠	-11.3079
▁枕	-11.308
▁もつ	-11.3082
▁ぼけ	-11.3083
▁おかし	-11.3086
▁ピアス	-11.3088
▁家庭	-11.309
▁恥	-11.3092
葉	-11.3098
風呂	-11.3101
▁ゅう	-11.3108
▁サン	-11.311
▁ガキ	-11.3119
▁だす	-11.312
▁!!?	-11.3124
▁大分	-11.3127
▁憧れ	-11.3131
▁うぇい	-11.3133
▁ゴルフ	-11.3136
▁突っ込	-11.3136
▁🥶	-11.3139
▁書け	-11.3141
▁中央	-11.3147
▁言い訳	-11.3151
▁山田	-11.3158
▁細い	-11.3158
▁よいい	-11.3161
▁ほなみ	-11.3172
がっつり	-11.3179
▁ナ	-11.3182
▁寒いね	-11.3188
▁こたつ	-11.3189
▁止	-11.319
▁あきら	-11.3192
▁現	-11.3203
▁コミュ	-11.3203
▁非	-11.3203
茶	-11.3215
▁ちく	-11.3217
▁静岡	-11.3222
▁札幌	-11.3223
▁付き合え	-11.3223
▁~!!!	-11.3227
▁本音	-11.3227
▁進め	-11.3246
こんばんは	-11.3247
ヨ	-11.3247
▁チャンス	-11.3252
▁明るい	-11.3257
▁近づ	-11.3266
▁ツイート	-11.3268
▁モテる	-11.3273
▁どお	-11.3273
昨日	-11.3279
ゴ	-11.3284
▁r	-11.3286
きょうは	-11.3289
てへん	-11.329
▁k	-11.3294
▁麻	-11.3295
▁測	-11.3296
▁とめ	-11.3297
▁一週間	-11.3298
▁激しい	-11.3301
えりな	-11.3304
▁おわら	-11.3308
▁但	-11.3314
▁はやっ	-11.3314
▁鍛え	-11.3315
崎	-11.3318
▁優勝	-11.3322
あり	-11.3325
▁ヤンキー	-11.3325
▁巻き	-11.3328
▁更新	-11.3328
🎉	-11.333
▁先週	-11.3335
▁係	-11.3338
たく	-11.3339
▁書か	-11.3341
▁ヤツ	-11.3342
▁うらやましい	-11.3344
▁ゴリラ	-11.3345
それや	-11.3345
▁むつ	-11.3349
▁スポーツ	-11.335
▁まんこ	-11.335
▁ポテト	-11.3352
▁抜	-11.3354
▁きか	-11.3359
▁コメント	-11.3369
減	-11.3369
▁メイン	-11.337
▁永遠	-11.3374
愛	-11.3376
▁u	-11.338
▁ドア	-11.3382
▁みか	-11.3383
▁フッ	-11.3396
▁いたーい	-11.3397
いんじゃ	-11.3397
▁ちち	-11.3403
▁薄	-11.3406
▁愛情	-11.3409
あい	-11.3409
▁おくる	-11.3413
▁式	-11.3413
▁ハロウィン	-11.3415
▁好か	-11.3418
▁きつく	-11.3428
▁暗い	-11.343
できるかな	-11.3433
▁頻	-11.3433
ック	-11.3436
っぱなし	-11.3438
▁じゅり	-11.3443
▁あがり	-11.3448
▁泣かない	-11.3451
揃い	-11.3459
▁ょかい	-11.3462
▁うの	-11.3463
▁ゆうな	-11.3464
▁勝つ	-11.3464
イン	-11.3465
▁なさ	-11.3471
▁攻め	-11.3472
▁頼り	-11.3472
▁アメリカ	-11.3472
魔	-11.3473
▁けし	-11.3484
黙っ	-11.3485
▁こく	-11.3487
▁いたー	-11.3492
▁バンド	-11.3496
▁ラブホ	-11.3497
あそん	-11.35
🌼	-11.3517
▁ちえ	-11.3517
ェ	-11.3526
バー	-11.3528
▁とぉ	-11.353
▁智	-11.3532
▁~❤	-11.354
▁マイナス	-11.3547
▁愛さ	-11.3559
▁登	-11.3559
帳	-11.3562
▁レ	-11.3563
予報	-11.3565
▁保	-11.3566
の日	-11.3567
▁プリクラ	-11.3567
▁たこ焼き	-11.3587
だして	-11.3591
▁コ	-11.3595
さっぱり	-11.3596
券	-11.3596
▁キツイ	-11.3599
y	-11.3602
▁汚	-11.3607
▁ゆの	-11.361
▁倒	-11.3612
▁よけれ	-11.3612
園	-11.3612
▁ただい	-11.3613
▁通じ	-11.3615
▁いそ	-11.3618
▁欲	-11.3619
▁スイッチ	-11.3624
▁もーた	-11.3633
▁アップ	-11.3634
▁方面	-11.3635
▁くう	-11.3639
▁捕まえ	-11.3642
▁りんご	-11.3645
続ける	-11.365
自	-11.3654
まえ	-11.3655
▁たくま	-11.3657
センチ	-11.3657
▁洋服	-11.3657
いちいち	-11.366
▁拾	-11.3666
▁日本人	-11.3667
▁参考	-11.3667
ゝ	-11.3672
😿	-11.3677
▁看護	-11.3678
▁ちよ	-11.3687
込み	-11.3692
▁痛か	-11.3695
▁かえれ	-11.3695
▁中学生	-11.3695
▁ネイル	-11.3697
▁雄	-11.37
▁あつ	-11.3703
▁皿	-11.3705
ちなつ	-11.3708
🙁	-11.3708
▁ほえ	-11.3708
ばあちゃん	-11.3709
▁へいき	-11.3709
級	-11.3712
▁レア	-11.3713
▁したら	-11.3729
▁環境	-11.3733
▁副	-11.3736
▁私服	-11.3737
▁撮影	-11.374
▁難	-11.3743
▁こま	-11.3759
▁なつみ	-11.3766
▁流行	-11.3768
▁異	-11.3771
▁いじら	-11.3773
▁めろ	-11.3774
▁そぼ	-11.3776
▁よろ	-11.378
作	-11.3781
▁クラ	-11.3785
▁トレーニング	-11.3788
▁だらだら	-11.3794
▁ばん	-11.3798
▁焼け	-11.3802
朝	-11.3803
▁締め	-11.3811
歌詞	-11.3812
▁浮か	-11.3817
▁ずる	-11.3822
▁パチンコ	-11.3825
▁アル	-11.3837
▁お祭り	-11.3838
▁ピ	-11.3841
近	-11.3842
▁さし	-11.3842
▁開始	-11.3845
▁物理	-11.3851
んと	-11.3855
▁〰	-11.3855
▁拒否	-11.3864
▁バ	-11.3864
▁椅子	-11.3873
料理	-11.3873
▁書類	-11.3878
▁せな	-11.3878
▁ゆーか	-11.388
▁大量	-11.3885
▁回し	-11.3886
へん	-11.3891
▁エアコン	-11.3892
区	-11.3903
▁私たち	-11.3905
▁苦笑	-11.3907
▁アウトレット	-11.391
▁丁	-11.3911
▁華	-11.3916
▁閉じ	-11.392
▁楓	-11.3922
▁びみょ	-11.3928
▁爪	-11.394
▁嵐	-11.3941
▁過ご	-11.3944
▁バス停	-11.3944
▁わぁー	-11.3946
▁おこし	-11.3948
説	-11.3949
▁とおい	-11.395
▁前回	-11.3952
▁佑	-11.3954
▁抹茶	-11.3955
▁恐怖	-11.3958
▁サイゼ	-11.3965
▁めぐ	-11.3977
▁みや	-11.398
できないよ	-11.3981
国	-11.399
ーけー	-11.3993
もうつい	-11.4004
莉	-11.4006
晩	-11.4007
▁転	-11.4008
またあした	-11.4009
受ける	-11.4013
吉	-11.4013
▁贅沢	-11.4017
曲	-11.4018
▁かたー	-11.4019
▁お礼	-11.4021
噂	-11.4022
▁くろ	-11.4024
▁陸	-11.4029
▁単	-11.4029
▁y	-11.403
▁土	-11.4033
▁銀行	-11.4034
▁たんたん	-11.4035
▁泣ける	-11.4041
▁ツンデレ	-11.4043
なんにも	-11.4046
▁まじめ	-11.4048
▁🥰🥰🥰	-11.4052
▁むい	-11.4058
▁地下	-11.4059
▁岡山	-11.4074
ソ	-11.4074
▁忘年	-11.4075
ーたん	-11.4076
▁敵	-11.4079
▁くし	-11.4081
アップ	-11.4085
▁保険	-11.4086
▁おしっこ	-11.4091
▁鳴	-11.4099
▁寒か	-11.4102
▁豊	-11.4103
▁歌う	-11.4105
丸	-11.4106
▁依存	-11.4113
▁是非	-11.4114
▁会場	-11.4115
遅く	-11.4122
▁玄関	-11.4122
にも	-11.4127
▁閉ま	-11.4129
▁許せ	-11.4131
▁ふうか	-11.4137
森	-11.4143
▁靴下	-11.4144
▁牛乳	-11.4145
▁評価	-11.4153
▁銀座	-11.4164
▁コナン	-11.417
縛	-11.4172
▁切り替え	-11.4175
▁湯	-11.4175
▁たまら	-11.4176
▁埼玉	-11.4176
▁中村	-11.4178
キロ	-11.4178
▁校	-11.418
▁たらしい	-11.4182
▁熱中	-11.4184
▁干し	-11.4187
▁立川	-11.4193
▁べつ	-11.4198
▁ぎゅーっ	-11.4199
▁新潟	-11.4199
▁潰し	-11.42
法	-11.4201
▁🤙	-11.4203
▁必ず	-11.4207
さいあく	-11.4213
りゃ	-11.4218
▁イイ	-11.4218
😦	-11.4223
▁目的	-11.4226
▁繰り返	-11.4228
まぁー	-11.423
▁dm	-11.423
🐱	-11.4234
▁ピン	-11.4241
らし	-11.4241
▁のせ	-11.4246
▁本番	-11.425
▁こころ	-11.4251
▁こち	-11.4255
▁パック	-11.4258
とかいう	-11.4259
▁來	-11.4264
▁こし	-11.427
▁繋	-11.4275
▁強制	-11.4277
▁パンパン	-11.4283
▁笑え	-11.4284
▁節約	-11.4287
▁充実	-11.4288
▁薄い	-11.4288
▁浮	-11.4295
連勤	-11.4304
したい	-11.4304
▁起	-11.4309
▁ふわふわ	-11.4314
▁乾燥	-11.432
考えよ	-11.432
▁まこ	-11.4324
😷	-11.4325
▁束	-11.433
▁甘やか	-11.4331
▁ギター	-11.4331
▁メニュー	-11.4334
▁バナナ	-11.4336
▁うらやま	-11.4336
▁迷い	-11.4337
れれ	-11.4338
▁さめ	-11.4344
▁泊り	-11.4353
▁パンダ	-11.4354
ゥ	-11.4354
這樣	-11.4357
▁ぜん	-11.4361
まったり	-11.4362
たくみ	-11.4365
▁不満	-11.4371
▁思	-11.4371
▁りほ	-11.4371
▁のち	-11.4372
▁息子	-11.4381
▁年上	-11.4381
哈哈	-11.4385
▁ドン	-11.4395
▁機能	-11.4396
答	-11.4397
▁麺	-11.44
▁tt	-11.44
▁クッキー	-11.4403
乃	-11.4405
▁かき	-11.4406
▁ほっぺ	-11.4415
▁カップ	-11.4424
▁表現	-11.4432
▁カラー	-11.4435
がい	-11.4436
▁かわら	-11.4437
▁再来	-11.444
ゆるす	-11.4441
▁うるさく	-11.4443
▁ボーリング	-11.445
これだけ	-11.4453
▁苦	-11.4454
▁ツボ	-11.4456
▁🤘	-11.4462
▁ばば	-11.4465
▁寄り	-11.4467
▁ひえ	-11.4469
▁くす	-11.4469
そういや	-11.4469
▁ちょん	-11.4469
▁ひどく	-11.4471
▁コーラ	-11.4472
▁ゆーや	-11.4476
▁せやねん	-11.4477
▁けち	-11.4479
▁引退	-11.4479
▁....?	-11.448
▁バリ	-11.4481
▁滑	-11.4481
▁関西	-11.4483
▁つれ	-11.4484
▁図	-11.4485
▁終	-11.4493
▁ほしー	-11.4495
泊	-11.45
▁偏	-11.4502
▁制	-11.4503
はいらん	-11.4503
浴	-11.4508
▁抱き	-11.4513
▁誤	-11.452
▁えろ	-11.4521
▁くち	-11.4522
▁すごーい	-11.4524
▁ほれ	-11.4527
タイム	-11.4532
▁だんだん	-11.4539
▁駅前	-11.4542
▁のど	-11.4545
▁もって	-11.4553
▁クロ	-11.4553
▁ボール	-11.4555
みえる	-11.4557
▁ださーい	-11.4557
▁一時	-11.4561
▁アレ	-11.4565
▁クーラー	-11.4565
▁イカ	-11.4568
▁くり	-11.457
👶🏻	-11.4576
▁ちみ	-11.4578
難	-11.4578
▁ガソリン	-11.4582
▁生きる	-11.4584
▁オレンジ	-11.4589
ザ	-11.4591
ーど	-11.4591
▁集め	-11.4592
▁ギャップ	-11.4593
輔	-11.4593
🍚	-11.4593
▁?!?!	-11.4603
▁マネージャー	-11.4604
▁お好み焼き	-11.4604
ぉ	-11.4609
店員	-11.461
▁マフラー	-11.4615
▁埋ま	-11.4615
▁思い出す	-11.4616
▁もそー	-11.4616
▁打	-11.4617
▁こうた	-11.4617
枕	-11.4619
つく	-11.462
▁管理	-11.4624
▁おんな	-11.4624
▁波	-11.4625
▁橋	-11.4627
▁ほのか	-11.4632
▁住所	-11.4633
貴	-11.4634
▁逃げる	-11.4635
▁ニート	-11.4637
▁指定	-11.4638
▁陰	-11.4638
▁季節	-11.4648
知	-11.4653
▁チラッ	-11.4656
▁負担	-11.466
ももちゃん	-11.466
惑	-11.4664
▁おしい	-11.467
材	-11.467
よゆう	-11.4671
ティ	-11.4671
▁入院	-11.4672
▁例	-11.4673
▁体育館	-11.4677
▁朱	-11.4678
▁やく	-11.4683
▁こんにちは	-11.4693
▁あえ	-11.4698
▁プラン	-11.4701
かじゃ	-11.4708
▁重く	-11.471
▁ビデオ	-11.4714
▁六	-11.4722
▁おでん	-11.4723
▁こね	-11.4727
▁息	-11.4727
▁ゅん	-11.4728
▁🥺🥺🥺🥺	-11.4733
▁体験	-11.4736
▁ェ	-11.4737
▁信頼	-11.4738
▁とっく	-11.4741
▁ポ	-11.4742
▁男性	-11.4744
証	-11.4755
▁たまー	-11.4755
▁ぐー	-11.4761
ぶり	-11.4763
ちょっとまってて	-11.4766
▁龍	-11.4771
年間	-11.4773
乳	-11.4775
▁成功	-11.4779
っ子	-11.478
っくん	-11.4781
▁都会	-11.4781
▁店舗	-11.4783
▁調整	-11.4785
ざ	-11.4787
▁黙	-11.4792
▁焼き鳥	-11.4795
▁うて	-11.4795
▁むら	-11.4796
とう	-11.4799
解	-11.4799
▁すし	-11.48
▁不安定	-11.4801
まりな	-11.4803
細	-11.4805
なつき	-11.4806
💪🏻	-11.4808
▁持た	-11.4812
勉強	-11.4813
▁柏	-11.4815
▁cm	-11.4816
▁デカ	-11.4821
▁レッスン	-11.4828
読	-11.4833
▁科	-11.4834
▁単語	-11.4837
▁あそび	-11.4841
▁ろう	-11.4843
とん	-11.4861
▁バレンタイン	-11.4861
▁把	-11.487
▁聞こ	-11.4872
▁パーマ	-11.4872
▁きまっ	-11.4872
▁本間	-11.4873
▁みつ	-11.4874
▁たすけ	-11.4875
能	-11.4875
ぷ	-11.4879
▁打ち上げ	-11.488
▁現地	-11.488
▁契約	-11.4883
▁位置	-11.4889
ィ	-11.489
はー	-11.4893
▁みかん	-11.4895
そうだ	-11.4897
▁かって	-11.4898
▁狂	-11.4901
▁苦しい	-11.4901
▁ざー	-11.4902
ええねん	-11.4907
▁ハッピー	-11.491
像	-11.4911
馬	-11.4912
それぞれ	-11.4914
▁たーん	-11.4918
▁異常	-11.492
▁致し	-11.492
▁急が	-11.4925
付け	-11.4927
▁要ら	-11.4928
▁王子	-11.493
肢	-11.4931
▁暴れ	-11.4933
▁犯	-11.4933
ション	-11.4934
▁ホ	-11.4937
▁申し込	-11.4942
▁データ	-11.4945
均	-11.4947
ール	-11.4949
握	-11.4954
▁博多	-11.4956
▁潰	-11.4963
▁出会	-11.4964
👌🏻	-11.4973
まっすぐ	-11.4973
ないねん	-11.4974
▁乗り越え	-11.4977
っち	-11.4979
▁もうで	-11.498
▁ゆうの	-11.4987
💜	-11.4989
▁ギャル	-11.4995
った	-11.4995
▁かじ	-11.4998
▁冷やし	-11.4999
▁上がれ	-11.5012
▁震え	-11.5016
▁備え	-11.5019
▁ナンパ	-11.5022
傷	-11.5023
▁命	-11.5027
▁バーベキュー	-11.5029
▁ゃい	-11.503
▁暗く	-11.504
星	-11.504
▁里	-11.504
▁御	-11.5048
▁尚	-11.5048
▁宿	-11.5051
▁キッチン	-11.5052
▁おそらく	-11.5052
▁修学	-11.5052
▁ラン	-11.5053
▁ぎゃ	-11.5054
▁日付	-11.5056
▁叩	-11.5057
▁ぐっ	-11.5057
▁船	-11.5057
▁おやつ	-11.5058
▁復	-11.5061
▁ちゃり	-11.5062
うそうそ	-11.5065
▁おもんない	-11.5067
▁☔	-11.5067
▁サービス	-11.5072
▁ゆうや	-11.5074
▁吉祥寺	-11.5075
▁誠	-11.508
▁さよ	-11.5082
▁いゆ	-11.5086
▁夢み	-11.5086
▁念	-11.5102
辺	-11.5109
かっこよかっ	-11.511
情	-11.5118
やばみ	-11.512
▁恋人	-11.5122
▁ギュー	-11.5138
▁電池	-11.514
▁加藤	-11.514
▁飼	-11.514
もどる	-11.515
とこ	-11.5154
n	-11.5157
のぞみ	-11.5158
▁ユニクロ	-11.5163
▁さいこ	-11.5167
▁いこい	-11.5168
澤	-11.5179
草	-11.5181
付	-11.5184
▁希	-11.5185
▁活動	-11.5185
▁複雑	-11.5187
▁イラ	-11.5188
▁まか	-11.5192
ええんや	-11.5192
▁慰め	-11.5192
▁エ	-11.5193
▁オタク	-11.5198
わら	-11.5198
▁茶色	-11.5198
活	-11.5198
▁服装	-11.5199
▁すっきり	-11.5199
▁とんでも	-11.5202
▁ダブル	-11.5203
▁詐欺	-11.5207
ぞ	-11.5209
▁門	-11.5213
▁...!!	-11.5217
率	-11.5219
相	-11.5225
▁嫌が	-11.5226
▁あやね	-11.5229
▁気味	-11.5232
▁やばー	-11.5232
姿	-11.5232
▁新し	-11.5235
望	-11.5246
▁チュッ	-11.5247
▁傷	-11.5247
▁ホール	-11.525
始	-11.525
▁高橋	-11.5253
▁高め	-11.5257
▁めめ	-11.5262
▁しゃあない	-11.5263
🤓	-11.5275
▁青春	-11.5281
▁ことー	-11.5284
障	-11.5298
腹	-11.5301
意	-11.5303
▁繋げ	-11.5308
▁応募	-11.5311
▁責め	-11.5314
▁損	-11.5318
▁こわく	-11.532
▁太陽	-11.5328
たのむ	-11.5332
▁いがい	-11.5335
ぬ	-11.5338
▁サイト	-11.534
腹痛	-11.534
▁着け	-11.5341
▁wifi	-11.5341
▁ロング	-11.5344
▁油	-11.5347
▁た方	-11.5353
▁健太	-11.5354
▁いっこ	-11.5356
▁同時	-11.5359
あさって	-11.536
▁ぐち	-11.5362
▁放課後	-11.5365
▁おちゃ	-11.5367
▁延	-11.5369
▁天神	-11.5375
しとん	-11.5378
▁カロリー	-11.5379
▁食わ	-11.5379
▁振り	-11.5391
▁翼	-11.5391
▁然	-11.5392
▁溶け	-11.5395
白	-11.5399
▁本日	-11.54
▁弾	-11.5404
おもろかっ	-11.5406
カード	-11.5409
▁宮	-11.5412
▁成績	-11.5413
▁ロック	-11.5414
▁ソファ	-11.5415
🙇	-11.5425
▁マネ	-11.5435
どこら	-11.5436
▁クマ	-11.5437
らん	-11.5445
▁むか	-11.5454
▁育て	-11.5456
▁むね	-11.5456
▁よろし	-11.5466
▁あぶ	-11.5468
今	-11.5471
▁衝撃	-11.5485
▁てぃー	-11.549
e	-11.5495
▁島	-11.5502
▁任	-11.5511
▁世の	-11.5517
▁カット	-11.5518
▁印刷	-11.5521
▁ゴールデンウィーク	-11.5528
▁ありがた	-11.553
▁栄	-11.5534
▁ゆうり	-11.5536
▁ねたい	-11.5538
▁何度	-11.5538
▁ぎゅっ	-11.554
▁ぇす	-11.554
▁ぎりぎり	-11.5546
▁ぶつけ	-11.5547
▁かち	-11.555
▁おとこ	-11.555
つかう	-11.5554
▁平均	-11.5559
▁到	-11.5562
良けれ	-11.5567
▁まちがい	-11.5569
🍀	-11.5576
▁おもわ	-11.5577
▁注文	-11.5578
おん	-11.5579
電	-11.5579
▁置き	-11.558
▁ムラムラ	-11.5582
▁わらい	-11.5587
▁だったん	-11.5589
▁傷つけ	-11.5591
▁整	-11.5591
▁なおし	-11.5593
▁売り	-11.5599
▁栄養	-11.5601
▁チャーハン	-11.5607
▁親戚	-11.5607
保	-11.5607
▁聴き	-11.5609
▁キャンプ	-11.5611
▁モデル	-11.5613
▁ジャージ	-11.5613
▁野郎	-11.5618
ふんふん	-11.5621
▁抜き	-11.5625
こうへい	-11.5627
▁かっこよ	-11.5627
▁幼稚園	-11.5631
▁天然	-11.5632
▁マーク	-11.5634
▁おかず	-11.5639
▁将	-11.564
▁おじ	-11.564
a	-11.564
▁当たり	-11.5648
ベ	-11.5648
カレ	-11.5649
▁うとうと	-11.565
▁むりむり	-11.565
▁受け止め	-11.5652
▁しゃべっ	-11.5653
りー	-11.5654
▁うぇ	-11.5659
▁デレデレ	-11.5662
▁棒	-11.5669
▁みい	-11.5675
▁卓球	-11.5675
▁鏡	-11.5676
肉	-11.5677
▁天王寺	-11.5681
とまら	-11.5681
▁好き好き	-11.5683
▁カ	-11.5684
▁爽	-11.5688
▁資料	-11.5689
ァ	-11.5689
▁しば	-11.5691
▁ダル	-11.5693
側	-11.5694
▁ストーカー	-11.5697
▁羽	-11.5701
こもっ	-11.5705
▁ヒント	-11.5706
城	-11.5707
▁泊まれ	-11.5707
突	-11.5708
けい	-11.5709
▁そっくり	-11.571
神	-11.5711
▁りの	-11.5717
▁外れ	-11.5718
▁👐	-11.572
▁乳首	-11.5724
▁脳	-11.5726
▁かわいいー	-11.5726
▁病み	-11.5728
▁ロッカー	-11.573
▁品	-11.5732
▁ゆうま	-11.5736
🙆	-11.5736
▁琴	-11.5742
すっごく	-11.5742
▁手前	-11.5748
▁どす	-11.5748
和	-11.5752
▁顔面	-11.5761
▁初め	-11.5768
教	-11.5773
▁なほ	-11.5778
▁有難	-11.5779
▁ちゅちゅ	-11.5781
▁~...	-11.5783
賞	-11.5783
将	-11.5794
もどっ	-11.5796
つか	-11.58
っきー	-11.5806
▁マンション	-11.5807
▁あいた	-11.5815
話し	-11.5816
▁祝日	-11.5817
▁どく	-11.582
▁ふる	-11.5822
▁とまっ	-11.5824
▁広	-11.583
▁茶	-11.5832
▁寝過ご	-11.5832
▁記念	-11.5835
▁選手	-11.5843
もも	-11.5846
▁守っ	-11.5846
▁イヤ	-11.5847
▁優秀	-11.5849
▁事務	-11.5851
▁hearts	-11.5855
▁らら	-11.5857
▁グレー	-11.5873
なんだい	-11.5874
▁エレベーター	-11.5874
▁破	-11.5874
▁寝かせ	-11.5876
さきちゃん	-11.5879
▁あて	-11.588
隠す	-11.5883
▁ほり	-11.5883
まいちゃん	-11.5885
▁ステーキ	-11.5885
▁年齢	-11.5897
▁ウチ	-11.5897
▁さみし	-11.5909
▁さと	-11.5915
▁反	-11.5923
ひろき	-11.5929
▁ガスト	-11.5931
▁停め	-11.5933
沢	-11.5937
▁初日	-11.5939
ゆるさ	-11.5941
おもしろかっ	-11.5941
▁もうあ	-11.5942
半端	-11.5953
脱毛	-11.5953
▁試	-11.5954
▁アレルギー	-11.5958
▁電源	-11.5963
とき	-11.5965
ななちゃん	-11.5966
▁まっと	-11.5973
▁ドンマイ	-11.5976
きつかっ	-11.5977
▁黄色	-11.5978
▁はやと	-11.598
▁中途	-11.598
▁かのん	-11.5981
▁デレ	-11.5982
▁けんか	-11.5987
途	-11.5988
▁有給	-11.5989
▁共有	-11.599
▁なんぼ	-11.5995
制	-11.5999
▁前半	-11.5999
▁金沢	-11.6002
ラーメン	-11.6002
▁たび	-11.6006
▁自習	-11.6008
🏾	-11.6014
▁受け入れ	-11.6014
▁唐	-11.6017
💫	-11.602
▁アイ	-11.6023
▁始発	-11.6027
▁メンツ	-11.6027
▁っし	-11.6031
始める	-11.6032
うかな	-11.6035
🐚	-11.6039
はなそ	-11.6048
ディ	-11.6049
石	-11.6052
たべよ	-11.6053
▁葉	-11.6053
▁坊主	-11.6057
かわっ	-11.6059
手伝い	-11.6062
▁出席	-11.6062
除	-11.6067
▁こは	-11.6071
▁確率	-11.6073
▁気遣	-11.6078
▁法	-11.6084
骨	-11.6084
哉	-11.6084
しんちゃん	-11.6086
▁スキー	-11.6088
▁しめ	-11.6095
▁x	-11.6097
なし	-11.6099
▁うに	-11.6108
描い	-11.6108
増し	-11.611
▁ぁい	-11.6112
▁美味い	-11.6115
▁長野	-11.6115
伝わら	-11.6116
▁撫で	-11.6116
▁アピール	-11.6118
▁jk	-11.6121
いてき	-11.6122
▁闇	-11.6124
辞	-11.6125
▁ペース	-11.6128
▁ムリ	-11.6137
▁はなす	-11.6137
▁症	-11.6139
▁夜行	-11.614
天	-11.614
▁ちや	-11.6141
💛	-11.6142
てき	-11.6151
▁啊	-11.6155
🍺	-11.6155
▁本屋	-11.6157
おかね	-11.6158
▁ラ	-11.616
チャン	-11.6167
ふとん	-11.6179
▁コピー	-11.6181
▁飛ぶ	-11.6182
▁個人的	-11.6183
▁アイドル	-11.6183
▁タ	-11.6184
▁ペン	-11.6193
▁うめ	-11.6194
▁まさや	-11.6202
▁佐藤	-11.6213
▁考	-11.6215
▁表情	-11.6221
▁講義	-11.6222
▁ミリ	-11.6224
▁ガンバ	-11.6225
▁かゆい	-11.6226
いいじゃない	-11.6227
ひかる	-11.6234
▁中間	-11.6236
▁母親	-11.624
務	-11.6243
▁ゆー	-11.6248
▁送信	-11.6249
▁こけ	-11.6251
t	-11.6252
▁岐阜	-11.6253
▁神様	-11.6255
▁対策	-11.626
ちょ	-11.626
▁吉田	-11.6261
▁バグ	-11.6261
▁泣け	-11.6263
けいすけ	-11.627
▁記録	-11.6275
▁かぜ	-11.6276
▁ょん	-11.6277
わり	-11.6278
▁映	-11.628
輝	-11.628
欠	-11.6281
構わ	-11.6281
いらいら	-11.6281
とくに	-11.6281
▁中華	-11.6282
▁ひっ	-11.6286
津	-11.6292
▁進化	-11.6293
▁づ	-11.6295
▁ダウンロード	-11.6299
吐く	-11.6302
▁なろ	-11.6303
そちら	-11.6305
▁揚げ	-11.6308
▁ネガティブ	-11.6312
▁シャンプー	-11.6312
▁揉	-11.6316
▁デー	-11.6317
▁講習	-11.6319
いびき	-11.6323
▁ウム	-11.6329
💔	-11.6332
▁打ち合わせ	-11.6332
ゃ	-11.6333
いやあ	-11.6335
▁垢	-11.6336
まかせる	-11.6338
▁わるく	-11.6341
ありゃりゃ	-11.6341
▁今日も一日	-11.6345
▁とぅー	-11.6352
歌	-11.6352
▁手術	-11.6353
▁今朝	-11.6361
▁坂	-11.6366
▁パンケーキ	-11.6366
▁ども	-11.637
▁往復	-11.6371
となく	-11.6374
▁下ろ	-11.6378
▁通信	-11.6378
ラー	-11.638
▁むりや	-11.6382
▁厳し	-11.6388
▁みどり	-11.6391
▁勤	-11.6399
▁かわか	-11.64
もしくは	-11.6405
▁おす	-11.6406
▁真由	-11.6409
▁ばった	-11.6414
▁機	-11.6414
▁ルール	-11.6415
▁りぃ	-11.6419
▁出会い	-11.6421
らな	-11.6422
衣	-11.6428
立	-11.6436
▁ーウ	-11.644
▁鎌倉	-11.6444
ぶん	-11.6446
▁抜か	-11.6448
▁湿	-11.6448
さい	-11.6452
韻	-11.6458
▁笑わせ	-11.6459
やってき	-11.6462
▁ちかく	-11.6463
▁パーティー	-11.6463
▁飛ばし	-11.6471
▁頼み	-11.6472
▁打て	-11.6474
▁前後	-11.6481
▁みす	-11.6486
▁ボタン	-11.6491
🍻	-11.6491
念	-11.6499
▁発見	-11.6501
▁端	-11.6502
▁率	-11.6508
▁はいい	-11.6511
▁なんかい	-11.6512
こん	-11.6521
▁比較	-11.6525
▁?✨	-11.6528
加	-11.6543
こまる	-11.6546
▁出掛け	-11.6547
ーすけ	-11.6548
▁合え	-11.6556
診断	-11.6561
▁うしろ	-11.6561
▁となり	-11.6566
▁ろん	-11.6567
z	-11.6567
▁みみ	-11.6571
▁自宅	-11.6572
▁シリーズ	-11.658
治	-11.6583
まさに	-11.6591
▁勝	-11.6595
▁サッカー部	-11.6595
u	-11.6596
▁削	-11.6598
🤬	-11.6599
▁フリ	-11.66
▁まさき	-11.661
主	-11.6611
▁バージョン	-11.6614
學	-11.6619
リング	-11.6631
▁ふら	-11.6631
瀬	-11.6631
▁浅草	-11.6633
▁ティッシュ	-11.6634
▁ワ	-11.6638
ホ	-11.6639
▁満員	-11.6641
▁骨	-11.6646
▁ハードル	-11.6648
▁基準	-11.6652
▁松	-11.6652
▁日本史	-11.6654
▁なべ	-11.6657
抗	-11.666
近所	-11.666
▁積も	-11.6666
▁さがし	-11.6671
▁ぎり	-11.6674
▁さけ	-11.6685
🐜	-11.6694
▁帰省	-11.6694
▁ラグビー	-11.6701
▁奪	-11.6702
▁馬	-11.6704
▁いつのまに	-11.6708
▁かんと	-11.6712
▁すで	-11.6715
▁学年	-11.6718
▁ストレート	-11.6722
▁ちょう	-11.6724
▁av	-11.673
っちー	-11.6731
▁逃し	-11.6738
すてき	-11.6741
▁剃	-11.6741
段	-11.6743
▁王	-11.6746
▁汚れ	-11.6747
🐣	-11.6749
▁春休	-11.6751
▁デザート	-11.6756
▁台湾	-11.6756
さっさと	-11.6756
:	-11.6756
れぇ	-11.6758
▁ゅる	-11.6762
▁暑か	-11.6764
▁プレゼン	-11.6769
▁脱	-11.6769
▁アラジン	-11.677
はじまっ	-11.6774
藤	-11.6777
▁ソ	-11.6777
▁たまっ	-11.6778
▁日焼け	-11.6778
▁受付	-11.6779
ニー	-11.678
▁クリ	-11.6792
▁ファ	-11.6794
▁あきらめ	-11.6794
▁🕺	-11.6794
ともき	-11.6795
▁ういー	-11.6796
▁古典	-11.6797
▁氷	-11.6798
巻	-11.68
▁あさみ	-11.68
▁ぃぃ	-11.6801
▁世界一	-11.6806
▁二つ	-11.6806
r	-11.6808
▁アン	-11.681
▁詰ま	-11.681
こっそり	-11.6821
▁凍	-11.6823
▁なるー	-11.6823
暗	-11.6835
▁ゲロ	-11.6838
▁型	-11.6839
▁彩華	-11.6839
▁しんじ	-11.6842
▁替え	-11.6844
▁片	-11.6846
▁詳しい	-11.6848
▁枠	-11.6853
▁ぼっ	-11.6854
▁なるか	-11.686
なおさら	-11.6864
▁鉄	-11.6864
▁いり	-11.6864
ろう	-11.6865
▁甘える	-11.6875
にゃ	-11.6875
▁銀	-11.688
▁唇	-11.6881
ないで	-11.6881
▁会計	-11.6883
▁追	-11.6888
南	-11.6893
▁葵	-11.6895
▁西口	-11.6898
▁おしゃべり	-11.6898
門	-11.6898
▁あたっ	-11.69
脱い	-11.69
▁きゅん	-11.69
▁証明	-11.6902
▁サプライズ	-11.6903
▁あっくん	-11.6905
▁奈	-11.6906
▁りき	-11.6906
▁絶望	-11.6909
世	-11.691
▁🤲	-11.6913
▁オナニー	-11.6916
▁ずれ	-11.6917
▁漏れ	-11.6921
▁炊い	-11.6925
▁避難	-11.693
▁とお	-11.6936
▁そだねー	-11.6938
▁景	-11.6945
ちげ	-11.6949
▁偶然	-11.6951
▁いっち	-11.6957
▁うれしー	-11.6957
▁らーめん	-11.6958
民	-11.6964
▁曇り	-11.6965
▁はまっ	-11.6969
ゲ	-11.6971
▁脚	-11.6973
▁ろか	-11.6974
▁はち	-11.6975
▁語彙	-11.6979
▁総	-11.6983
▁可愛さ	-11.6992
みづき	-11.6999
▁岩	-11.7004
▁サンタ	-11.7006
▁顎	-11.7008
初耳	-11.7009
▁豆	-11.7019
▁ちゃんこ	-11.7023
▁古い	-11.7024
▁外食	-11.7026
▁ほっ	-11.7027
まかせろ	-11.7027
▁年下	-11.7031
ペ	-11.7037
▁案内	-11.7039
▁ひよ	-11.7043
▁いお	-11.7046
わらわら	-11.7055
▁長引	-11.7059
穂	-11.7063
たら	-11.7068
▁晴	-11.707
▁道具	-11.7073
カフェ	-11.7073
▁小さく	-11.7075
▁りさん	-11.7076
▁...??	-11.7082
▁はみ	-11.7083
▁bbq	-11.7085
▁キレイ	-11.7095
▁しつこい	-11.7095
かす	-11.7099
▁公開	-11.7099
▁ヨーグルト	-11.7099
▁けっ	-11.71
▁約	-11.7101
▁ダウン	-11.7105
▁こちゃ	-11.711
▁誕生	-11.7111
命	-11.7113
▁悲しみ	-11.7113
滅	-11.7118
▁兄弟	-11.7118
▁済ませ	-11.7119
▁豪華	-11.712
▁ゲット	-11.7122
▁ぴっ	-11.7129
です	-11.7129
▁山口	-11.7132
▁コン	-11.7145
んでだろう	-11.7148
▁制限	-11.7149
▁少	-11.7158
ゆいな	-11.716
▁みろ	-11.7161
▁相性	-11.7166
▁指導	-11.7167
▁さよう	-11.7167
▁仲良	-11.717
織	-11.7177
▁徹夜	-11.7178
棒	-11.7178
▁それに	-11.7179
▁モンスター	-11.7186
▁山本	-11.7187
▁ふじ	-11.7189
それなり	-11.7191
▁成田	-11.7193
▁ニヤ	-11.7194
▁正しい	-11.7195
ギ	-11.7195
二	-11.7197
▁論	-11.7201
▁宅	-11.7204
▁タノ	-11.7204
▁まわり	-11.7204
▁熱い	-11.7205
▁載っ	-11.7205
▁かなし	-11.7206
▁人見知	-11.7206
▁定	-11.721
▁吸い	-11.7211
▁どうか	-11.7213
▁ぴい	-11.7214
▁村	-11.7214
▁チン	-11.722
んおん	-11.7221
▁疲労	-11.7222
▁いくつ	-11.7223
▁渡せ	-11.7227
▁夢の中	-11.7228
言葉	-11.7233
提	-11.7235
▁喜び	-11.7236
▁つる	-11.7237
りゅうちゃん	-11.7239
集	-11.7241
▁オンライン	-11.7242
▁歌い	-11.7249
▁遠距離	-11.725
できるだけ	-11.7255
▁新人	-11.7255
▁クリーム	-11.7256
▁岡田	-11.7258
▁梅	-11.7258
▁ゆえ	-11.7258
▁みた	-11.7259
▁激しく	-11.726
るんるん	-11.7263
列	-11.7263
電話	-11.7264
▁へんし	-11.7266
▁難波	-11.727
▁稼げ	-11.7271
粉	-11.7271
▁何それ	-11.7272
▁もろ	-11.7272
▁いざ	-11.7276
▁マクド	-11.7279
くっつき	-11.7281
▁かど	-11.729
倉	-11.7291
▁現在	-11.7293
だよん	-11.7295
▁一切	-11.7296
▁賢い	-11.7299
▁フラ	-11.7307
▁どきどき	-11.7308
▁熊本	-11.7309
▁めぐみ	-11.7311
▁すて	-11.7315
🚃	-11.7315
▁伊藤	-11.7315
▁舌	-11.7319
ちゅ	-11.7327
▁ビビっ	-11.7332
▁懐かし	-11.7342
ばー	-11.7343
▁エビ	-11.7347
▁賢	-11.7349
指	-11.7351
パー	-11.7351
▁同級生	-11.7351
▁不知	-11.7352
▁にゃんこ	-11.7357
🌈	-11.7359
▁整形	-11.7359
▁ボーナス	-11.7362
▁ブランド	-11.7367
だね	-11.737
▁留	-11.7375
雨	-11.7376
▁気まずい	-11.7381
▁シーン	-11.7384
▁焼きそば	-11.7387
首	-11.7388
▁確	-11.739
▁セ	-11.7391
▁祐	-11.7392
▁磨	-11.7392
▁名駅	-11.7393
込	-11.7396
▁~~!!	-11.74
ろっと	-11.7402
▁溜め	-11.7403
▁はまじ	-11.7403
▁危なか	-11.7406
▁かこ	-11.7407
▁くわ	-11.7407
▁牛丼	-11.741
▁数え	-11.7415
▁デザイン	-11.7417
ックス	-11.7434
▁二重	-11.7435
好き	-11.744
▁守る	-11.7442
▁歓迎	-11.7447
▁ぃん	-11.7448
まじまじ	-11.7448
おしまい	-11.7449
▁あだ	-11.7451
うやく	-11.7453
▁恥ず	-11.7454
▁あさ	-11.7455
▁がんばら	-11.7461
っぱ	-11.7461
▁もうし	-11.7461
▁飛び	-11.7463
▁すべて	-11.7463
▁のむ	-11.7465
▁はじ	-11.7466
▁ねむいー	-11.7469
▁ぶじ	-11.7472
リン	-11.7484
雅	-11.7485
▁おろし	-11.7488
▁同い	-11.7491
ハウス	-11.7491
▁揃	-11.7493
▁奥さ	-11.7494
▁メ	-11.7509
▁家事	-11.7511
坂	-11.7514
▁新年	-11.7516
めて	-11.7518
▁じゅんじゅ	-11.7518
ほいほい	-11.7521
当たり	-11.7527
▁こども	-11.7528
▁うさ	-11.753
▁多め	-11.7531
▁ゆうこ	-11.7531
開	-11.7533
🌀	-11.7536
東	-11.7541
▁モヤモヤ	-11.7543
▁終え	-11.755
大学	-11.7557
柄	-11.7557
▁q	-11.7562
ラン	-11.7565
▁ハワイ	-11.7565
やぱ	-11.7566
▁スピード	-11.7568
▁丼	-11.7569
▁空く	-11.7571
▁盗撮	-11.758
ぽん	-11.7582
▁願っ	-11.7582
かさ	-11.7584
らち	-11.759
▁悲	-11.7591
具	-11.7595
街	-11.7596
▁カス	-11.7598
球	-11.76
▁やわー	-11.7604
▁下げ	-11.7609
▁ちあき	-11.7611
▁煮	-11.7614
▁橋本	-11.7614
▁ゃんと	-11.7615
権	-11.7617
▁協力	-11.7618
んません	-11.762
▁時給	-11.762
ぱ	-11.762
賛	-11.7621
▁ランド	-11.7622
▁引っかか	-11.7627
▁ごみ	-11.7628
帆	-11.7632
▁工	-11.7633
土	-11.7636
▁ソフト	-11.7638
▁童貞	-11.764
▁共感	-11.7641
▁次回	-11.7641
違い	-11.7642
▁猿	-11.7642
▁育	-11.7642
▁くれー	-11.7645
所以	-11.7646
いじり	-11.7649
▁ひなの	-11.7656
🐸	-11.7663
▁材料	-11.7663
▁変化	-11.7665
▁選べ	-11.7666
まにあう	-11.7673
▁こうき	-11.7677
▁鈴木	-11.7678
覚	-11.7682
宮	-11.7684
江	-11.7684
▁びっ	-11.7684
すき	-11.7687
余っ	-11.7687
▁🖕	-11.7688
▁アイロン	-11.7693
▁ドヤ	-11.7693
▁もったい	-11.7698
▁号	-11.7702
カー	-11.7705
ぺろ	-11.7709
▁ピーク	-11.7724
▁快	-11.7729
▁めんど	-11.773
紀	-11.7731
▁はむ	-11.7733
ぶらぶら	-11.7734
▁パッ	-11.7734
🐒	-11.7738
▁とゆ	-11.7742
▁治り	-11.7742
▁公	-11.7742
松	-11.7742
▁宇宙	-11.7747
通る	-11.7749
▁ペット	-11.7751
▁ともだち	-11.7755
吹い	-11.7756
のため	-11.7757
▁ざわ	-11.7757
▁豆腐	-11.7764
▁ひとみ	-11.7774
せい	-11.7778
▁ヒ	-11.7782
▁券	-11.7782
▁ぽー	-11.7782
▁メルカリ	-11.7783
▁どぉ	-11.7788
▁じゅう	-11.7791
▁じい	-11.7792
▁親子	-11.7796
▁各	-11.7796
チャ	-11.7802
▁コード	-11.7807
▁めた	-11.7811
▁ザ	-11.7813
下痢	-11.7815
▁派遣	-11.7821
▁我が	-11.7822
▁しゃぶしゃぶ	-11.7822
▁ご苦労	-11.7823
▁処理	-11.783
▁企画	-11.783
▁親父	-11.783
▁クリア	-11.7834
▁男女	-11.7835
おうおう	-11.7837
▁満た	-11.7839
まり	-11.7839
▁ごちそうさ	-11.784
▁こーい	-11.7842
▁くぅ	-11.7845
▁アナウンス	-11.7845
▁なんば	-11.7846
▁髭	-11.7848
ちん	-11.7848
▁j	-11.7852
▁ストレッチ	-11.7853
▁海鮮	-11.7861
▁具体	-11.7861
はやかっ	-11.7864
▁ナン	-11.7865
▁はやー	-11.7866
▁ライト	-11.787
▁キ	-11.7875
▁機械	-11.7876
旬	-11.7876
▁習	-11.7877
▁洗車	-11.7878
▁美術	-11.7882
▁z	-11.7884
なにより	-11.7886
▁嘘つき	-11.7888
▁助	-11.7889
▁貸	-11.7894
▁川越	-11.7896
停電	-11.7899
▁ごま	-11.7901
▁どーも	-11.7906
▁つま	-11.7906
▁リップ	-11.7909
▁チャレンジ	-11.791
▁翔太	-11.7911
▁深く	-11.7912
▁かれー	-11.7915
やろ	-11.7921
▁乗り切	-11.7922
▁曜日	-11.7924
▁神社	-11.7935
▁能力	-11.7937
▁輝	-11.7937
離	-11.7938
▁喘	-11.7943
▁埋め	-11.7945
▁ドラえもん	-11.7945
続き	-11.7946
だち	-11.7946
▁バランス	-11.7949
▁ポスト	-11.7953
▁走れ	-11.7961
痴	-11.7961
詣	-11.7961
走	-11.7963
▁以下	-11.7964
絵	-11.7968
▁苦し	-11.7977
▁意地	-11.7986
▁言い過ぎ	-11.7988
▁ビ	-11.7992
▁明るく	-11.7995
▁売り切れ	-11.8001
▁砂	-11.8002
▁気付か	-11.8003
▁もえか	-11.8004
🍼	-11.8008
▁食べれ	-11.8009
▁攻撃	-11.8015
赤	-11.8016
▁支払い	-11.802
▁シート	-11.8022
▁申請	-11.8023
🏠	-11.8031
▁セフレ	-11.8031
▁原宿	-11.8031
▁ツッコミ	-11.8034
紙	-11.8037
やねん	-11.8037
▁へや	-11.804
▁危な	-11.8045
▁恵	-11.8048
年後	-11.8049
▁何処	-11.8057
▁スノボ	-11.8058
▁こまっ	-11.8062
▁招待	-11.8062
▁カニ	-11.8063
入れ	-11.8069
優	-11.8072
▁キュン	-11.8075
げん	-11.8076
▁願い	-11.8078
▁鹿	-11.8083
かえろ	-11.8084
▁脇	-11.8086
▁あやめ	-11.8087
▁トップ	-11.8089
▁容	-11.8091
▁にこにこ	-11.8094
🐈	-11.8102
▁因	-11.8103
▁九	-11.8107
▁みっ	-11.8109
ナー	-11.8109
▁唯一	-11.8109
▁圧倒	-11.811
▁令和	-11.811
▁罪悪	-11.811
▁課金	-11.811
▁中野	-11.8113
▁バイ	-11.8119
▁越し	-11.8124
▁非常	-11.8127
▁ふぁー	-11.8133
▁gu	-11.8133
▁ゆる	-11.8133
▁さな	-11.8135
▁一方	-11.8139
▁さいき	-11.8144
めん	-11.8148
りん	-11.8149
▁元彼	-11.8149
▁スシロー	-11.8157
🏿	-11.8157
▁もやし	-11.8161
阿	-11.8163
▁阪急	-11.8165
▁祭	-11.8165
▁ごく	-11.8166
▁喫煙	-11.8173
▁セクシー	-11.8173
▁だるく	-11.8173
▁あぶな	-11.8173
▁動物園	-11.8177
▁マスター	-11.818
▁やれる	-11.818
▁愛彩	-11.8189
▁麻衣	-11.819
▁大きな	-11.8199
▁聴	-11.8203
▁館	-11.8208
▁🤞	-11.8209
▁徒歩	-11.8212
▁カッコイイ	-11.8213
さら	-11.8213
▁ベンチ	-11.822
▁ヨガ	-11.8221
▁才能	-11.8228
▁長崎	-11.823
爆笑	-11.8232
▁バラ	-11.8233
そのままで	-11.8234
▁犯罪	-11.8236
▁追いつ	-11.8244
▁理系	-11.8246
▁ぺろぺろ	-11.8252
▁ゆりな	-11.8253
▁乳	-11.8262
ワン	-11.8264
いよいよ	-11.8264
食い	-11.8268
▁思い出せ	-11.8271
▁たまご	-11.8277
▁林	-11.8284
いこ	-11.8287
▁角	-11.8291
らいいん	-11.8292
▁もしも	-11.8296
▁呑み	-11.8302
矢	-11.8308
▁ゆた	-11.8309
▁ペア	-11.831
▁浸か	-11.8312
夜	-11.8313
じろう	-11.8317
▁🤟	-11.8323
▁むう	-11.8326
▁オー	-11.8329
▁ボ	-11.833
ゆいたん	-11.833
▁エスカレーター	-11.8333
▁課	-11.8333
▁宜しく	-11.8333
▁体温	-11.8335
▁しんぱい	-11.8335
ゆちゃ	-11.8338
▁釣	-11.8341
▁二階	-11.8341
▁吧	-11.8345
▁ギュッ	-11.8355
スタ	-11.8357
▁ワラ	-11.8359
▁グッズ	-11.836
▁会いたくて	-11.8365
▁わんわん	-11.8365
んぜん	-11.8372
▁ミルク	-11.8374
▁ましゅ	-11.8375
計	-11.8375
▁コレ	-11.8376
▁教	-11.8382
▁越え	-11.8382
▁日々	-11.8386
▁どき	-11.8387
▁ポン	-11.8389
▁ミニ	-11.839
▁薬局	-11.8393
利	-11.8393
役	-11.8406
情緒	-11.8407
▁始まり	-11.8409
いただい	-11.8416
▁合い	-11.8417
▁条件	-11.8417
▁バリバリ	-11.8422
▁自主	-11.8422
▁与え	-11.8422
▁ひみつ	-11.8422
装	-11.8427
使	-11.8427
たかっ	-11.8432
▁チ	-11.8433
▁いで	-11.8436
▁引越し	-11.8443
▁基本的	-11.8444
▁清水	-11.8445
▁解放	-11.8447
▁們	-11.8447
▁あいら	-11.8448
こうすけ	-11.8448
歩	-11.8453
▁つた	-11.8454
📞	-11.8454
▁業務	-11.8454
測	-11.8455
▁ソファー	-11.8459
まひろ	-11.8463
▁松本	-11.8465
▁知識	-11.8467
したこと	-11.847
むり	-11.847
▁入学	-11.8471
▁amazon	-11.8479
▁社	-11.848
▁恐ろしい	-11.8484
▁ネックレス	-11.8487
▁見学	-11.8488
▁こす	-11.8491
▁意思	-11.8495
▁配信	-11.8497
のこ	-11.851
サン	-11.8517
▁ちま	-11.852
▁ゃっ	-11.8522
▁呆れ	-11.8528
▁ショー	-11.8529
ーき	-11.8531
あいちゃん	-11.8534
▁誘い	-11.8538
玉	-11.8541
▁ぴん	-11.8541
▁思考	-11.8547
▁もみ	-11.8553
▁ちょろい	-11.8558
▁驚き	-11.8558
▁怪し	-11.8559
▁縛	-11.856
▁突	-11.8561
▁全国	-11.8561
替え	-11.8567
▁モー	-11.8576
▁かいり	-11.8576
▁基礎	-11.8577
▁捉え	-11.8577
張っ	-11.8579
▁野	-11.8581
▁公式	-11.8586
▁ぺー	-11.859
▁資格	-11.8592
直	-11.8593
▁岩盤	-11.8594
せいや	-11.8596
▁占い	-11.8598
▁佳	-11.8598
ねん	-11.8598
▁商品	-11.8602
ぷんぷん	-11.8602
▁戻れ	-11.8604
▁絡	-11.8605
▁ランニング	-11.861
▁離れる	-11.8615
しかして	-11.8615
▁福島	-11.8619
▁中山	-11.8622
シー	-11.8626
▁快適	-11.8627
▁蕎麦	-11.8627
▁高級	-11.8628
▁精神的	-11.8629
害	-11.8635
▁われ	-11.8637
▁りり	-11.864
▁無限	-11.8647
▁飼い	-11.8647
▁細	-11.8647
▁💁	-11.8649
炊	-11.8652
狂	-11.8654
▁釣れ	-11.866
▁大雨	-11.8663
▁けつ	-11.8666
▁夫婦	-11.8666
▁五分	-11.8667
ほんなら	-11.8669
▁せき	-11.8671
▁--。	-11.8673
かつや	-11.8674
ップ	-11.8675
▁まお	-11.8677
▁本格	-11.8678
ところで	-11.8678
▁お米	-11.868
▁通勤	-11.868
▁あま	-11.8682
▁奈良	-11.8684
▁イエス	-11.8685
▁木村	-11.8686
▁♨	-11.869
ホテル	-11.8691
なう	-11.8691
周	-11.8692
▁延長	-11.8695
▁オケ	-11.8699
へ	-11.8706
▁新鮮	-11.871
ちょいちょい	-11.871
やすん	-11.8713
▁治療	-11.8717
あれれ	-11.8718
▁あつし	-11.8719
▁想	-11.8721
▁曲が	-11.8724
▁宮崎	-11.8727
ナイ	-11.8728
▁かゆー	-11.873
▁ぬいぐるみ	-11.8735
▁ニキビ	-11.8735
▁あじ	-11.8736
▁あんが	-11.8737
サー	-11.8739
▁承知	-11.8744
▁温め	-11.8749
北	-11.8749
▁みよー	-11.875
札	-11.8752
▁レンタカー	-11.8752
▁いほ	-11.8756
チョ	-11.8757
▁ボク	-11.8758
▁かいー	-11.8759
▁アルコール	-11.8761
▁フェラ	-11.8761
▁冷や	-11.8768
済み	-11.8768
ちがっ	-11.8774
▁急ぎ	-11.8775
▁お花	-11.8781
電車	-11.8781
みち	-11.8783
はなして	-11.8786
▁お台場	-11.8786
うねる	-11.8788
▁あわせ	-11.8789
ぜん	-11.879
▁りんか	-11.8791
うどん	-11.8794
▁医者	-11.8796
▁ころす	-11.8798
▁まぢか	-11.8798
▁閉店	-11.8803
のこと	-11.8805
▁おかけ	-11.8805
びびる	-11.8806
▁ゆみ	-11.8807
鬱	-11.8808
▁よだれ	-11.8809
ておいで	-11.8811
▁引きこも	-11.8811
▁グッ	-11.8817
▁かえし	-11.8822
▁わや	-11.8823
▁いっと	-11.8826
▁刺激	-11.8828
▁死亡	-11.8828
▁おそろい	-11.8828
光	-11.8828
引き	-11.8831
▁さわ	-11.8832
▁げき	-11.8836
シャ	-11.8837
▁ぽっぽ	-11.8839
c	-11.8842
週末	-11.8844
▁握	-11.8846
▁茉	-11.8851
▁八王子	-11.8853
▁修理	-11.8854
▁ブルー	-11.8854
▁なつかしい	-11.8859
▁こみ	-11.886
▁アカン	-11.8863
▁秀	-11.8863
▁みの	-11.8869
▁千円	-11.887
▁番組	-11.8875
▁お水	-11.8876
▁救急	-11.8879
▁するする	-11.8887
▁さび	-11.8888
ことは	-11.8889
ある	-11.889
ボール	-11.8891
▁神奈川	-11.8891
よっぽど	-11.8896
郎	-11.8897
はちょっと	-11.8899
▁芸人	-11.8901
▁ワーク	-11.8904
▁お姫様	-11.8904
▁てへ	-11.8906
ヌ	-11.8908
▁盛り	-11.8908
▁照	-11.8909
まゆか	-11.8911
礼	-11.892
約	-11.8921
▁by	-11.8921
▁バッチリ	-11.8922
▁ニット	-11.8922
▁階	-11.8924
▁🤚	-11.8925
いじる	-11.8925
探さ	-11.8928
▁絡み	-11.8931
▁ふたつ	-11.8933
だっ	-11.8933
ちひろ	-11.8935
はじまる	-11.8936
▁リーダー	-11.8938
▁いつまでも	-11.8939
▁みん	-11.8944
▁眠た	-11.8947
▁じょう	-11.8947
▁消費	-11.8948
▁サンキュー	-11.8949
▁カバー	-11.895
▁パス	-11.8955
▁ざま	-11.8962
丁目	-11.8969
らか	-11.8969
ショ	-11.8972
▁駄目	-11.8973
決	-11.8973
▁楽天	-11.8979
▁萌え	-11.8981
▁言い出し	-11.8981
パーセント	-11.8982
▁関東	-11.8982
▁選び	-11.8983
▁回数	-11.8985
▁保育園	-11.899
▁ガス	-11.8995
▁ぺん	-11.8996
▁暗	-11.9
▁ルー	-11.9004
▁びい	-11.9009
▁いつや	-11.9009
▁泣かせ	-11.901
▁教育	-11.9011
くじ	-11.9012
▁かおり	-11.9014
かり	-11.9018
▁戦い	-11.9021
嶋	-11.9023
▁クール	-11.9025
▁せこい	-11.9025
▁ガ	-11.9027
▁日中	-11.9028
斗	-11.9029
むりし	-11.9037
▁通し	-11.9037
▁大好	-11.904
離さ	-11.9041
▁ダーツ	-11.9042
すっかり	-11.9049
▁アパート	-11.905
▁ひゃ	-11.9052
▁あす	-11.9052
▁解け	-11.9054
▁長さ	-11.9058
▁キュンキュン	-11.9059
▁パリピ	-11.906
▁厚	-11.9061
絶	-11.9062
ちょこっと	-11.9062
▁ログイン	-11.9068
▁インド	-11.9071
▁登校	-11.9072
消	-11.9075
▁企業	-11.9077
▁マミー	-11.908
▁コスプレ	-11.9085
▁弱く	-11.9089
王	-11.9089
🐼	-11.9094
▁魔法	-11.9094
▁患	-11.9095
たとえば	-11.9098
▁パスワード	-11.9103
▁転職	-11.9103
カレー	-11.9105
吾	-11.9111
▁まにあっ	-11.9113
▁吉	-11.9113
夢	-11.9113
▁幸	-11.9118
▁はてな	-11.9118
工	-11.9118
▁ガチャ	-11.912
▁呼べ	-11.9121
▁お母	-11.9121
▁日和	-11.9121
▁留学	-11.9122
▁もこ	-11.9126
▁缶	-11.9131
▁細かい	-11.9133
💘	-11.9137
張	-11.9138
▁スタッフ	-11.9143
▁働け	-11.9145
▁罪	-11.9146
▁安全運転	-11.9146
▁反抗	-11.9146
▁にゅー	-11.9156
ティー	-11.9163
▁時差	-11.9172
▁探せ	-11.9173
▁ゆったり	-11.9173
▁こめ	-11.9177
▁ニトリ	-11.9181
▁振り回	-11.9184
▁暇つぶし	-11.919
立つ	-11.919
先生	-11.9191
▁タコ	-11.9192
▁引っ張	-11.9193
▁ふい	-11.9201
▁ひさ	-11.9204
▁~✌	-11.9214
▁ふざけん	-11.9214
🐟	-11.9216
▁産	-11.922
▁棚	-11.9221
▁検討	-11.9222
▁姫路	-11.9225
▁通常	-11.9225
▁ご馳走	-11.9233
しばく	-11.9233
🤡	-11.9234
▁うみ	-11.9238
ぽ	-11.9241
▁新歓	-11.9243
▁箱根	-11.9244
▁パート	-11.9244
親	-11.9246
永	-11.9246
▁難しく	-11.9251
▁イチゴ	-11.9252
▁最大	-11.9253
▁すばらしい	-11.9256
▁みゆき	-11.9256
なに	-11.926
写真	-11.9266
ライン	-11.9269
でしょう	-11.9272
進	-11.9273
▁期限	-11.9276
符	-11.9278
▁号泣	-11.9278
▁油断	-11.9278
▁響	-11.928
三	-11.9283
▁騒	-11.9283
▁わき	-11.9283
選ば	-11.9288
我	-11.9292
▁ビル	-11.93
▁出会え	-11.9305
f	-11.9305
▁乙女	-11.9306
らぶらぶ	-11.9311
▁ポーズ	-11.9312
際	-11.9312
▁ボロボロ	-11.9316
都	-11.9317
▁ダ	-11.9317
▁pc	-11.9318
▁ちゃあ	-11.9322
▁じん	-11.9322
▁けた	-11.9326
▁げーむ	-11.9331
▁くすり	-11.9332
▁憂	-11.9334
デート	-11.9336
▁ヘルプ	-11.934
▁美女	-11.9341
▁うつし	-11.9345
▁こいい	-11.9346
▁めずらしい	-11.9346
▁お世	-11.9348
▁へんねん	-11.9348
▁離婚	-11.9349
▁きえ	-11.9349
▁さち	-11.9351
▁わた	-11.9351
▁ゾ	-11.9354
▁ハム	-11.9354
テスト	-11.9355
かんねん	-11.9355
▁あせ	-11.9361
▁むりだ	-11.9362
▁演技	-11.9366
遽	-11.9367
▁パフェ	-11.9367
ッと	-11.938
▁宣	-11.9382
▁そよ	-11.9382
創	-11.9385
▁チャージ	-11.9392
▁料金	-11.9394
格	-11.9402
▁展開	-11.9403
そば	-11.9403
▁らす	-11.9403
うれしかっ	-11.9404
▁追いかけ	-11.9407
🤒	-11.9412
▁荷	-11.9412
たっくん	-11.9424
なり	-11.9425
▁崩れ	-11.9426
だく	-11.9427
▁市	-11.9429
▁ポンコツ	-11.943
メン	-11.9431
▁いかが	-11.9431
▁あやか	-11.9432
▁時間帯	-11.9433
筋	-11.944
▁内定	-11.944
しぃ	-11.9443
ロン	-11.9444
▁寄る	-11.9447
▁丁寧	-11.9448
▁べんき	-11.9448
▁事前	-11.9452
▁デビュー	-11.9458
▁ゆきな	-11.9458
でかく	-11.946
ったん	-11.9464
▁ヤダ	-11.9472
▁なげ	-11.9475
▁あらそ	-11.9476
之	-11.9478
▁ゆら	-11.9478
ピー	-11.9478
▁ミスド	-11.9483
▁冷	-11.9488
▁揃え	-11.9491
▁おいしく	-11.9493
▁増	-11.9496
連	-11.9496
▁過ごせ	-11.9497
呼	-11.95
▁キャベツ	-11.9503
▁あいち	-11.9503
▁ディ	-11.9503
▁cd	-11.9504
▁たばこ	-11.9511
▁チャン	-11.9516
▁ハーフ	-11.9517
▁さみしく	-11.952
年目	-11.952
なの	-11.9523
▁めんどくさ	-11.9524
▁一部	-11.9525
ばん	-11.9529
▁聖	-11.953
▁あいこ	-11.9535
▁カツ	-11.9542
▁おせ	-11.9544
▁追い	-11.9545
西	-11.9546
▁みそ	-11.9547
▁サイコパス	-11.9548
父さん	-11.9551
▁浸	-11.9552
事故	-11.9555
▁スニーカー	-11.9556
▁スヌーピー	-11.9556
▁テーブル	-11.9556
セン	-11.9557
▁欲求	-11.956
宿	-11.9563
林	-11.9564
おごっ	-11.9566
▁せろ	-11.9567
▁開か	-11.9571
不良	-11.9576
▁ぶた	-11.9577
▁極め	-11.9579
▁やたら	-11.9579
たのん	-11.958
▁甘く	-11.9582
▁つくろ	-11.9584
▁手作り	-11.9584
検定	-11.9585
▁奏	-11.9589
▁ツムツム	-11.9589
▁!!、	-11.9589
▁譲	-11.9592
▁ニコニコ	-11.9593
▁久	-11.9594
▁バド	-11.9598
▁じき	-11.961
全	-11.9611
安	-11.9615
▁つむ	-11.9617
那	-11.9622
▁熟	-11.9624
▁直ぐ	-11.9636
▁又	-11.9637
▁タイヤ	-11.9638
▁姫	-11.9639
▁青木	-11.9641
臭	-11.9644
▁スタ	-11.965
餅	-11.9655
▁無言	-11.9656
▁詰	-11.9658
▁つかい	-11.9661
▁太り	-11.9662
▁技	-11.9663
▁リベンジ	-11.9667
▁柄	-11.9667
▁絡ま	-11.967
職	-11.9673
ぬくぬく	-11.9675
モン	-11.9677
わけ	-11.9678
▁知る	-11.9678
▁挟	-11.9684
▁ぶっちゃけ	-11.9685
オン	-11.9685
▁利用	-11.9685
▁南口	-11.9691
▁重症	-11.9695
つきあっ	-11.9705
▁青い	-11.9707
▁レモン	-11.9708
▁テ	-11.9711
▁ょっと	-11.9712
▁ピル	-11.9713
▁竹	-11.9717
▁段階	-11.9722
▁中国	-11.9723
▁サブ	-11.9723
勝手	-11.9726
▁折	-11.9726
上がら	-11.9727
▁採用	-11.9728
▁ヘア	-11.9734
▁ちら	-11.9735
▁消化	-11.9742
▁you	-11.9743
▁ベース	-11.9744
▁香り	-11.9749
▁抵	-11.975
▁寺	-11.9751
▁塊	-11.9752
根	-11.9753
▁愛知	-11.9759
▁おばけ	-11.9761
▁皮	-11.9765
願	-11.9766
ォ	-11.9767
ガー	-11.9767
▁お化け	-11.9773
▁乱	-11.9773
▁麻友	-11.9778
ヒ	-11.9778
▁タダ	-11.9778
リア	-11.978
▁家賃	-11.9781
▁ゼリー	-11.9782
▁辛か	-11.9782
筒	-11.9787
▁大野	-11.9787
なぁ	-11.979
▁梨	-11.9793
▁あいだ	-11.9795
▁きたない	-11.9795
▁キムチ	-11.9803
▁マンガ	-11.9804
▁玉ねぎ	-11.9805
▁怖が	-11.9806
▁一杯	-11.9807
▁平成	-11.9808
▁発想	-11.9809
▁くんち	-11.9809
▁はいれ	-11.9809
断	-11.9813
▁ディス	-11.9816
▁くださ	-11.9818
▁あいあい	-11.9818
かあ	-11.9819
▁湯船	-11.9824
▁井上	-11.9824
ばっちり	-11.9827
▁トレ	-11.983
▁断れ	-11.9832
▁鹿児島	-11.9833
▁眼科	-11.9833
▁オーラ	-11.9839
▁セクハラ	-11.9843
▁注射	-11.9843
▁しゅみ	-11.9843
▁パイ	-11.9845
🍑	-11.9847
▁マックス	-11.985
▁強が	-11.9851
▁くちゃ	-11.9854
▁預け	-11.9854
▁船橋	-11.9862
▁すぅ	-11.9862
児	-11.9865
▁ぎる	-11.9865
▁わかれ	-11.9868
▁ゃない	-11.9868
新	-11.9874
▁はるき	-11.9878
▁すれ違	-11.988
づい	-11.9881
▁いただけ	-11.9885
歯	-11.9887
きたん	-11.9888
▁中学校	-11.9889
▁けんじ	-11.9892
旅	-11.9897
▁ケンカ	-11.9899
まだ	-11.99
▁グル	-11.9901
かねちゃん	-11.9903
▁ボイス	-11.9904
▁きけ	-11.9905
▁体操	-11.9905
犬	-11.9906
▁苦労	-11.9909
▁きのこ	-11.9911
▁池田	-11.9911
▁亡くな	-11.9918
▁ぶかつ	-11.9919
▁技術	-11.992
▁ペ	-11.9926
つらたん	-11.9928
▁no	-11.9929
きゅー	-11.9929
滴	-11.9931
掃除	-11.9938
▁タメ	-11.9938
▁ちから	-11.994
問	-11.9946
▁世間	-11.9947
▁見習	-11.9951
▁コロコロ	-11.9956
▁りくと	-11.9956
▁くしゃみ	-11.9956
なくなり	-11.9959
v	-11.9965
▁蚊	-11.9967
▁未だ	-11.9967
▁ぁぁあ	-11.9968
▁股	-11.997
ーね	-11.9971
別	-11.9972
▁惚気	-11.9975
▁つくり	-11.9979
▁ゃぁ	-11.9981
▁縁	-11.9981
▁石川	-11.9982
▁矢	-11.9983
嫌い	-11.9983
▁イルミネーション	-11.9984
▁支店	-11.9985
▁ガッツリ	-11.9985
▁映え	-11.9989
▁きの	-11.9992
🍜	-11.9994
▁濃	-11.9994
▁むちゃ	-11.9997
▁事情	-12.0004
▁結論	-12.0011
▁まつり	-12.0011
▁たくろ	-12.0016
▁車両	-12.0017
▁具	-12.0018
▁九州	-12.0022
修	-12.0025
▁グ	-12.0028
▁ワガママ	-12.0032
▁独占	-12.0032
環	-12.004
ぜ	-12.0046
▁バタ	-12.0048
▁濃厚	-12.0051
▁共	-12.0051
▁道路	-12.0052
▁人少	-12.0053
▁吃	-12.0056
結	-12.0059
▁なっち	-12.0059
かえで	-12.0059
▁あやち	-12.0062
▁ひめ	-12.007
▁眺め	-12.007
ヾ	-12.0073
こだわり	-12.008
▁紅葉	-12.008
▁発生	-12.0083
▁キリ	-12.0086
▁ゴキブリ	-12.0089
▁バカップル	-12.0089
あけおめ	-12.009
▁追い込	-12.0097
ただただ	-12.0099
繁	-12.0112
▁収ま	-12.0114
▁理科	-12.0115
▁まに	-12.0126
時代	-12.0127
上げ	-12.0128
撃	-12.0134
▁つかわ	-12.0138
ないしょ	-12.0138
▁それと	-12.0141
持ち	-12.0141
▁周辺	-12.0148
▁アドバイス	-12.0157
▁汁	-12.0159
▁ざく	-12.0164
▁京橋	-12.0166
▁課長	-12.0167
▁録	-12.0171
半身	-12.0176
、	-12.0183
▁民	-12.0184
▁みわ	-12.0186
▁ぎん	-12.0186
▁飴	-12.0187
▁うは	-12.019
▁やま	-12.0195
▁謝り	-12.0196
▁自粛	-12.0196
▁ほた	-12.0197
▁~~?	-12.0198
▁アンパンマン	-12.0205
▁跟	-12.0206
▁いんす	-12.0214
▁需要	-12.0215
▁かき氷	-12.0215
あいつら	-12.0222
▁ウンウン	-12.0225
▁グロ	-12.0228
▁監督	-12.023
▁診察	-12.0234
▁ホット	-12.0236
▁厳	-12.0237
ーズ	-12.0238
▁ゃんも	-12.0241
▁金髪	-12.0241
▁google	-12.0244
▁ぇあ	-12.0247
▁片方	-12.0249
あったまっ	-12.0255
帰り	-12.0256
▁チーズケーキ	-12.0257
ます	-12.0259
▁ほんの	-12.026
▁清	-12.0261
▁抱い	-12.0262
▁ウザ	-12.0263
▁ネギ	-12.0266
▁包	-12.0266
▁トモ	-12.0267
じじい	-12.0271
▁消せ	-12.0272
▁おもしろく	-12.0273
▁池	-12.0274
▁ぶら	-12.0282
ざます	-12.0286
▁リア充	-12.0293
▁ジャ	-12.0295
とる	-12.0295
イチ	-12.03
▁🥵	-12.0301
▁ブ	-12.0302
釈	-12.0303
戸	-12.0309
心地	-12.031
▁🛀	-12.0315
意気	-12.0316
▁芋	-12.0316
▁がんば	-12.0317
▁ネクタイ	-12.032
▁りし	-12.0321
遇	-12.0322
▁ジ	-12.0322
いずれ	-12.0324
▁ライフ	-12.0326
▁値	-12.033
▁北千住	-12.0332
▁エグ	-12.0335
▁ゆいの	-12.0337
▁フルーツ	-12.0345
▁麗	-12.0351
▁両親	-12.0352
赤く	-12.0354
▁ここに	-12.0355
ジー	-12.0357
▁ブサイク	-12.0358
▁しゃし	-12.0358
▁海老名	-12.0362
▁ほしいー	-12.0362
▁学習	-12.0365
さわっ	-12.0366
▁奇	-12.0371
たっぷり	-12.0376
よてい	-12.0381
▁フットサル	-12.0381
▁全裸	-12.0382
應該	-12.0382
存	-12.0382
極み	-12.0382
脳	-12.0385
ゆたん	-12.0385
▁年越し	-12.0385
▁購入	-12.0391
知らせ	-12.0392
▁涼しく	-12.0394
▁はいろ	-12.0396
▁ペンギン	-12.0401
▁確信	-12.0401
▁父親	-12.0401
▁吹	-12.0402
▁化粧品	-12.0402
引	-12.0404
▁等	-12.0407
通し	-12.0409
えん	-12.0412
▁シーズン	-12.0416
▁亀	-12.0417
▁かいし	-12.0419
▁保健	-12.0421
▁扇風機	-12.0421
▁伊勢	-12.0422
▁室内	-12.0423
▁ぎー	-12.0426
きづい	-12.0429
かわる	-12.0429
▁ピンポン	-12.0431
▁なおる	-12.0434
切れる	-12.0436
送迎	-12.0441
▁挑戦	-12.0441
▁竜	-12.0442
送	-12.0442
▁説得	-12.0444
知道	-12.0446
▁あったら	-12.0446
パス	-12.0448
▁只	-12.045
本社	-12.0452
レット	-12.0453
カン	-12.0455
▁っぽ	-12.0461
▁メンズ	-12.0461
▁惜しい	-12.0465
▁ぱり	-12.0466
▁会員	-12.0469
ちょくちょく	-12.0471
やつ	-12.0471
▁いぬ	-12.0471
▁郵便局	-12.0476
▁コストコ	-12.0481
戻ら	-12.0486
角	-12.0488
ッツ	-12.049
▁成	-12.0493
▁後期	-12.0497
ミー	-12.0497
検査	-12.0505
▁サイン	-12.0509
🛁	-12.0511
▁当直	-12.0511
▁モチベ	-12.0516
▁まなみ	-12.0519
▁慶	-12.0522
▁振り込	-12.0523
▁.。	-12.0527
流	-12.0527
▁ご機嫌	-12.0528
▁睡	-12.0529
転換	-12.0531
▁保証	-12.0531
ジャ	-12.0532
まわっ	-12.0532
▁歌え	-12.0535
▁マイク	-12.0536
▁抽選	-12.0541
▁セミナー	-12.0541
▁パーティ	-12.0546
してやる	-12.0548
q	-12.0549
▁必須	-12.0551
▁鶏肉	-12.0551
▁ガンガン	-12.0551
▁キー	-12.0557
▁診断	-12.0557
▁ソロ	-12.0559
🦍	-12.0561
おっきく	-12.0561
▁カー	-12.0563
▁夜景	-12.0565
▁❄	-12.0566
ほど	-12.0567
▁塗り	-12.0568
弥	-12.057
▁スイーツ	-12.0571
▁昨	-12.058
▁過去問	-12.0584
▁ロー	-12.0589
▁工事	-12.0591
▁日向	-12.0594
▁鬱	-12.0595
▁現れ	-12.0595
▁ゃう	-12.0596
▁オン	-12.0597
季	-12.0598
▁監視	-12.0601
まよっ	-12.0607
▁拭	-12.0608
▁干	-12.061
▁ちゃわ	-12.0613
▁畳	-12.0619
あげれ	-12.0631
易	-12.0631
▁カレンダー	-12.0632
▁ベタ	-12.0632
信	-12.0632
ばい	-12.0635
ート	-12.0642
みさと	-12.0642
▁ふれ	-12.0643
▁もっか	-12.0643
▁むく	-12.0644
▁いそがしい	-12.0645
やってくる	-12.065
▁マー	-12.0654
cm	-12.0655
▁ひき	-12.0656
▁モ	-12.0661
じゅ	-12.0661
▁ダメージ	-12.0661
▁もふもふ	-12.0662
▁くね	-12.0671
みつき	-12.0671
🐤	-12.0672
🙀	-12.0672
▁日常	-12.0673
▁登場	-12.0674
▁なまえ	-12.0675
▁フ	-12.0676
がいいん	-12.0676
▁るり	-12.0679
▁巻き込	-12.068
▁表参道	-12.0683
良	-12.0683
▁京	-12.0685
こわかっ	-12.0688
▁神経	-12.0688
▁けんす	-12.069
▁トラウマ	-12.0693
▁むず	-12.0694
義	-12.0696
▁プレイ	-12.0699
時計	-12.07
▁列	-12.07
▁ホワイト	-12.0701
▁ぎょ	-12.0701
▁あそぼ	-12.0702
▁派手	-12.0704
▁アー	-12.0712
揮	-12.0713
あん	-12.0714
梨	-12.0722
▁脂肪	-12.0723
▁餌	-12.0724
▁プーさん	-12.0725
▁くるくる	-12.0729
▁いな	-12.0729
▁あざっす	-12.0729
値	-12.0735
▁じゅー	-12.0738
▁🥱	-12.074
▁リハ	-12.0744
▁かちゃん	-12.0748
▁ヘ	-12.0748
▁ォ	-12.0749
▁忘れないで	-12.075
▁リラックス	-12.0754
▁温度	-12.0756
▁表示	-12.0756
▁じじ	-12.0757
▁払わ	-12.0757
▁やさし	-12.0759
aya	-12.0764
▁厳しく	-12.0764
▁なおき	-12.0764
板	-12.0765
センター	-12.0765
▁ちょこちょこ	-12.0766
縁	-12.0768
▁熊	-12.077
▁ありえ	-12.0772
▁履修	-12.0775
会社	-12.0775
▁べし	-12.078
▁みのり	-12.078
図	-12.0782
▁きら	-12.0782
o	-12.0784
▁プライベート	-12.0785
▁ニヒヒ	-12.0785
▁新橋	-12.0786
がっ	-12.0789
尋	-12.0791
▁ほんとうに	-12.0791
めよ	-12.0795
▁つんつん	-12.0795
▁コメダ	-12.0796
てすと	-12.0798
▁きは	-12.0806
▁汚く	-12.0808
▁不明	-12.0809
ランド	-12.0817
ッシュ	-12.0821
診	-12.0823
▁牡蠣	-12.0826
💯	-12.0826
▁正常	-12.0826
▁飾	-12.0827
▁メン	-12.0829
▁編集	-12.0832
▁いっそ	-12.0833
▁ヒロ	-12.0833
▁!??	-12.0834
▁小さ	-12.0834
▁ちお	-12.0836
▁羽田	-12.0837
▁雲	-12.0843
▁さびしい	-12.0845
▁守	-12.0847
▁恵比寿	-12.0847
また	-12.0849
▁志望	-12.0857
▁えみり	-12.0862
▁ケチ	-12.0866
しとら	-12.0866
▁ハンバーガー	-12.0868
▁ぽんぽん	-12.087
▁独	-12.0875
▁なゆ	-12.0879
ッチ	-12.0881
▁コーチ	-12.0883
いへい	-12.0883
▁細く	-12.0887
よね	-12.0888
▁割り	-12.089
書き	-12.0894
▁いた	-12.0895
官	-12.0898
▁衣装	-12.0899
まよう	-12.09
▁けんさ	-12.0902
▁スペース	-12.0905
合わせ	-12.0907
んてこった	-12.0909
▁村上	-12.091
▁航	-12.0912
組	-12.0913
モード	-12.0915
▁ドーナツ	-12.0916
もっともっと	-12.0919
▁版	-12.092
▁ワシ	-12.0921
ゲー	-12.0921
沒有	-12.0922
▁毒	-12.0922
▁ルーム	-12.0926
スター	-12.0929
▁藁	-12.094
▁ゴ	-12.0942
健全	-12.0943
▁ボー	-12.0945
▁児	-12.0945
▁おはな	-12.0949
▁ドトール	-12.0951
▁固定	-12.0951
▁醤油	-12.0955
▁黒髪	-12.0956
▁謙	-12.0958
君	-12.0959
▁おまかせ	-12.0961
▁ふた	-12.0963
▁座り	-12.0964
▁つばさ	-12.0965
▁はずかし	-12.097
▁チェックイン	-12.0972
じん	-12.0975
▁放送	-12.0975
▁風邪引	-12.0976
▁けさ	-12.098
▁かしこ	-12.0981
💙	-12.0982
▁認識	-12.0982
には	-12.0983
差	-12.0985
ゆうせい	-12.099
いた	-12.0991
▁炒め	-12.0991
🍣	-12.0993
▁けれど	-12.0994
ちゅう	-12.0995
▁乙	-12.0997
婚	-12.1002
▁スマブラ	-12.1003
▁ちう	-12.1004
▁でっかい	-12.1005
▁くだ	-12.1008
▁ばかー	-12.101
っぷ	-12.1011
▁キャリー	-12.1014
▁富山	-12.1015
▁軒	-12.1017
▁ホルモン	-12.102
▁廊	-12.1021
尽くし	-12.1021
▁自殺	-12.1025
▁ちかっ	-12.1025
しく	-12.1029
▁ニ	-12.1029
▁とまり	-12.1032
▁ワード	-12.1034
じいちゃん	-12.1035
▁寿	-12.1035
▁落ち着け	-12.1039
▁恋しい	-12.1041
ビー	-12.1042
▁却	-12.1042
▁ダイソー	-12.1046
帯	-12.1047
急	-12.1048
有	-12.1048
リズム	-12.1048
▁亜	-12.105
あやまる	-12.1052
▁卑	-12.1053
他	-12.1054
▁とおり	-12.1056
▁プレッシャー	-12.1056
▁すす	-12.1057
▁リスト	-12.1063
▁眼鏡	-12.1065
▁ふらふら	-12.1067
▁老け	-12.1073
▁働か	-12.1075
▁たいよ	-12.1076
▁冊	-12.1077
策	-12.1077
ええ	-12.1077
▁チビ	-12.1078
▁低く	-12.1085
▁ウソ	-12.1086
▁混ざ	-12.1088
▁からあげ	-12.1089
変	-12.1091
▁ケツ	-12.1093
▁おかあさん	-12.1095
▁ゃんは	-12.1095
切れ	-12.1097
ひろ	-12.1098
▁すき焼き	-12.1102
▁羨まし	-12.1106
🤦	-12.1107
てきとう	-12.1111
▁プラ	-12.1111
▁ばら	-12.1113
どおり	-12.1115
▁ぴょ	-12.1118
▁慌て	-12.112
正月	-12.1121
▁名言	-12.1122
▁整え	-12.1122
署	-12.113
▁ラジオ	-12.1131
▁バレバレ	-12.1131
▁混ぜ	-12.1132
▁暴	-12.1135
▁🧸	-12.1138
▁スタジオ	-12.114
💮	-12.1141
隠さ	-12.1141
▁ぁあ	-12.1142
▁殺	-12.1142
▁シチュー	-12.1145
▁ナス	-12.115
▁通過	-12.1152
▁けっこ	-12.1154
▁計	-12.1155
▁りそう	-12.1155
▁隊	-12.1155
▁はま	-12.1158
尽	-12.1159
産	-12.1161
億	-12.1163
▁リクエスト	-12.1163
▁ビビ	-12.1163
▁おもちゃ	-12.1163
▁庭	-12.1164
▁かんし	-12.1173
▁涼	-12.1174
▁治安	-12.1175
▁不機嫌	-12.1178
▁ホッ	-12.1178
▁工場	-12.1185
▁研	-12.119
▁ぇな	-12.1193
▁ツンツン	-12.1195
▁アップデート	-12.1195
▁検	-12.1196
かおりん	-12.1198
ろー	-12.1199
▁マース	-12.1204
▁宮城	-12.1206
▁ドレス	-12.1215
▁一生懸命	-12.1216
🍓	-12.1216
▁ズレ	-12.1217
▁ぺい	-12.1217
なおす	-12.1218
栄	-12.1221
▁こも	-12.1221
▁再開	-12.1223
▁札	-12.1225
▁今や	-12.1227
▁サングラス	-12.1227
▁黒く	-12.1232
液	-12.1233
▁シュール	-12.1238
▁暗記	-12.1248
▁越	-12.1249
かわいい	-12.1258
▁清楚	-12.1259
▁藤原	-12.1259
▁熱海	-12.1262
央	-12.1263
▁じゃま	-12.1266
▁交代	-12.1268
x	-12.1268
▁ほっと	-12.1269
征	-12.127
▁ふぅー	-12.1271
好	-12.1272
あるけん	-12.1273
おこる	-12.1277
▁ずら	-12.1278
▁かぶる	-12.128
▁先行	-12.1282
▁バター	-12.1286
▁見守	-12.1292
▁おでかけ	-12.1292
▁削除	-12.1292
▁正月	-12.1294
富	-12.1302
上がり	-12.1305
半端ない	-12.1309
▁サンダル	-12.1313
▁ふか	-12.1314
セット	-12.1316
▁花見	-12.1317
▁日間	-12.1318
▁ベル	-12.1323
▁バッグ	-12.1324
▁コタツ	-12.1324
▁いつの	-12.1325
▁募集	-12.1326
和美	-12.1332
▁筋	-12.1333
▁被害	-12.1333
火	-12.1338
▁影	-12.134
みれる	-12.1341
▁しょっ	-12.1342
▁たより	-12.1342
▁お見舞	-12.1346
▁接客	-12.1346
▁ワックス	-12.1346
▁散らか	-12.135
んだ	-12.1353
▁いじけ	-12.1356
▁エステ	-12.1364
▁ディナー	-12.1368
▁貧血	-12.1368
▁ぬけ	-12.1371
▁回り	-12.1372
▁クッソ	-12.1379
▁まちゃ	-12.1388
▁代表	-12.139
わかな	-12.1391
▁荒	-12.1393
あなあ	-12.1396
▁粉	-12.14
▁ぼう	-12.1402
押す	-12.1402
▁すごー	-12.1404
▁カーテン	-12.1412
おれ	-12.1422
▁ミッキー	-12.1423
▁阿	-12.1424
▁ポテチ	-12.1426
▁さいて	-12.1427
▁申し訳なく	-12.1428
▁魔	-12.143
▁もやもや	-12.1433
別会	-12.1437
▁初期	-12.1437
ロー	-12.1441
▁寛	-12.1441
▁みー	-12.1442
▁逆転	-12.1445
▁甘えん	-12.1446
春	-12.1446
▁ドリンク	-12.1455
▁大家	-12.1456
▁串	-12.1465
パーク	-12.1466
▁ゲーセン	-12.1466
▁テーマ	-12.1466
▁危機	-12.1467
▁レストラン	-12.1471
とまる	-12.1474
▁比	-12.1474
▁つう	-12.1474
▁武	-12.1476
▁フレ	-12.1477
▁ガリガリ	-12.1477
▁ドタキャン	-12.1477
▁皮膚科	-12.1478
画	-12.1479
▁くつ	-12.148
▁やかましい	-12.1483
こっ	-12.1485
▁鳴ら	-12.1488
吏	-12.1488
▁レンタル	-12.1488
▁エモ	-12.1491
▁にこ	-12.1495
🦁	-12.15
▁パスポート	-12.15
▁胃腸	-12.1501
▁剛	-12.1504
▁禁	-12.1505
▁明太	-12.1509
▁凹	-12.1509
マイ	-12.151
さがす	-12.151
▁うら	-12.1513
▁だいしゅ	-12.1521
▁感染	-12.1521
▁チャ	-12.1529
去	-12.1531
▁板	-12.154
▁くず	-12.1541
ッタ	-12.1543
😺	-12.1544
いまさら	-12.1545
▁ぱっ	-12.1545
▁きらー	-12.1545
▁裏切ら	-12.1546
▁実質	-12.1547
▁ク	-12.1549
鳥	-12.1551
ヘ	-12.1554
▁山梨	-12.1554
▁作成	-12.1557
▁そーと	-12.1557
▁手袋	-12.156
▁ひなこ	-12.156
▁しげ	-12.1561
▁人身	-12.1562
クリーム	-12.1562
▁略	-12.1566
▁共通	-12.1566
i	-12.1569
▁栃木	-12.157
▁うそつき	-12.1574
▁👨	-12.1579
飲み	-12.1579
ごくん	-12.1579
▁オーバー	-12.158
▁〇	-12.158
アン	-12.1582
▁実物	-12.1583
▁さそ	-12.1588
▁佐々木	-12.1588
▁改	-12.1593
ゾ	-12.1597
浜	-12.1598
▁昭和	-12.16
アル	-12.16
▁決勝	-12.16
打	-12.16
▁紗	-12.16
▁ちんぽ	-12.1601
▁大根	-12.1606
▁プチ	-12.1607
▁拳	-12.1612
▁金井	-12.1614
▁見送り	-12.162
▁明石	-12.1622
撮り	-12.1626
▁お手伝い	-12.1627
ステ	-12.1631
▁滋賀	-12.164
▁走ら	-12.164
▁くも	-12.1641
久	-12.1644
l	-12.1644
就	-12.1647
▁パンチ	-12.1648
▁👦	-12.1648
載	-12.1649
猫	-12.1649
▁トレーナー	-12.1651
トン	-12.1654
🌱	-12.1656
🐧	-12.1656
▁クローズ	-12.1656
▁ジャンプ	-12.1656
▁スイカ	-12.1657
▁払え	-12.1658
▁ぷり	-12.1659
▁気持ちよ	-12.1662
▁描	-12.1667
▁銭	-12.1672
▁ずっ	-12.1672
ブラシ	-12.1675
▁飛	-12.1678
▁焼き肉	-12.1678
▁梅雨	-12.1688
▁訂正	-12.1689
▁システム	-12.1692
▁ねむーい	-12.1694
▁おつかれ	-12.1701
▁ネコ	-12.1701
▁她	-12.1703
▁うす	-12.1703
▁かるー	-12.1706
中毒	-12.1706
▁~!!!!	-12.1709
勉	-12.171
姫	-12.1711
▁真っ黒	-12.1712
北口	-12.1713
ドル	-12.1715
いちおう	-12.1716
▁手洗い	-12.1718
▁ベランダ	-12.1723
▁新作	-12.1724
▁活	-12.1726
▁ウン	-12.1731
▁コラボ	-12.1732
▁off	-12.1734
▁疑問	-12.1735
まゆこ	-12.1741
▁いまいち	-12.1743
▁後日	-12.1743
▁芸能	-12.1746
▁不要	-12.1747
▁かなえ	-12.1751
▁ぶさ	-12.1752
▁従	-12.1755
▁きがえ	-12.1758
あっさり	-12.1761
▁徐々	-12.1768
▁超絶	-12.1769
▁慎	-12.1774
じっくり	-12.1779
▁コイン	-12.1779
▁常識	-12.1779
▁トイストーリー	-12.178
場所	-12.178
▁市役所	-12.1783
算	-12.1783
▁點	-12.1789
▁かけよ	-12.1791
▁打た	-12.1794
ファ	-12.1797
▁ナイト	-12.1797
えりか	-12.1797
▁マグロ	-12.1803
▁🥺💕	-12.1803
越	-12.1804
バック	-12.1805
▁転が	-12.1805
▁小林	-12.1808
▁りゅー	-12.181
ずっと	-12.1812
▁つり	-12.1812
▁最新	-12.1814
▁予算	-12.1814
まちた	-12.1816
▁ざす	-12.1818
ソン	-12.182
▁呼び出	-12.1822
っぽ	-12.1825
▁わたくし	-12.1826
敢え	-12.1826
▁ピカチュウ	-12.1828
じゃが	-12.183
▁きびしい	-12.1834
▁ほっとい	-12.1835
▁地球	-12.1837
あんちゃん	-12.1838
▁ティー	-12.1843
▁太郎	-12.1844
遊	-12.1846
▁ピンチ	-12.1846
▁集	-12.1848
以	-12.1849
▁きゃあ	-12.1854
あたしか	-12.1855
▁かわゆい	-12.1857
マー	-12.1859
▁疑惑	-12.186
▁固ま	-12.1861
▁前向き	-12.1864
▁グリーン	-12.1867
▁さむく	-12.1868
▁ボロ	-12.1868
▁実況	-12.1869
▁総合	-12.1871
おとなしく	-12.1873
要	-12.1876
▁独り	-12.1878
いち	-12.188
▁ショッピング	-12.1882
▁広く	-12.1883
▁込め	-12.1886
レー	-12.1889
🙉	-12.1894
ショップ	-12.1895
んち	-12.19
▁あご	-12.1904
▁雑魚	-12.1906
やりとり	-12.1906
▁信	-12.1907
▁払い	-12.1909
▁特急	-12.1912
▁退院	-12.1918
たからか	-12.1919
▁むっ	-12.1925
▁ポケット	-12.193
▁悔し	-12.1932
特	-12.1933
プラ	-12.1934
▁哲	-12.1937
▁買い出	-12.1941
▁通り過ぎ	-12.1942
かた	-12.1943
▁狙い	-12.1945
▁✈	-12.1946
多	-12.1948
術	-12.1949
まらん	-12.1951
▁ユーチューブ	-12.1952
▁バラバラ	-12.1952
▁ムズ	-12.1953
沼	-12.1956
▁せんせい	-12.1956
▁栗	-12.1962
▁圧	-12.1964
▁きまり	-12.1965
▁方言	-12.1966
▁養	-12.1971
▁イケ	-12.1971
▁らしー	-12.1978
ワーク	-12.198
▁あまりに	-12.1985
▁それにしても	-12.1987
と思った	-12.1989
▁個性	-12.199
▁ラップ	-12.199
たまえ	-12.1994
▁滝	-12.1995
▁師	-12.1997
▁バッ	-12.1998
▁イッ	-12.1998
▁不可	-12.2
▁セール	-12.2006
▁誒	-12.2008
チン	-12.201
▁切符	-12.201
▁に対	-12.2011
ばいいん	-12.2011
▁負	-12.2015
▁☺?	-12.2019
▁だせ	-12.202
▁市内	-12.2022
▁無印	-12.2023
▁紺	-12.2029
▁囲	-12.2032
▁炭酸	-12.2033
▁矛盾	-12.2033
▁駐輪	-12.2033
▁金山	-12.2036
止	-12.2036
気力	-12.2037
▁ルート	-12.2039
▁つまんな	-12.204
▁にげ	-12.2042
▁プロポーズ	-12.2045
怎麼	-12.2045
はい	-12.2048
ってた	-12.2057
琴	-12.2059
▁びく	-12.206
▁器	-12.206
▁つめたい	-12.2063
▁ハンド	-12.2065
▁狩り	-12.2067
▁広告	-12.2068
▁ヒール	-12.2068
キー	-12.2078
▁ういっ	-12.208
▁請求	-12.208
▁専用	-12.208
▁分かれ	-12.2083
しょう	-12.2086
▁りま	-12.2087
▁恩	-12.2087
▁予防	-12.2092
▁it	-12.2103
▁地理	-12.2104
▁むす	-12.2108
sut	-12.2109
▁まひ	-12.211
▁ゴリ	-12.2111
▁諸	-12.2116
▁ピース	-12.2119
▁経済	-12.2121
▁茨城	-12.2121
ようくん	-12.2123
▁映像	-12.2124
▁踏ん	-12.2126
きらん	-12.2126
▁曖昧	-12.2127
▁ゆかり	-12.2134
発動	-12.2138
🐙	-12.2139
▁介護	-12.2139
▁es	-12.2139
▁青森	-12.2139
▁硬い	-12.2139
▁パンク	-12.2141
▁悪魔	-12.2142
!?	-12.2144
▁けんい	-12.215
▁しろー	-12.2155
造り	-12.2156
▁燃え	-12.216
▁ぽく	-12.2161
過	-12.2161
はしっ	-12.2162
▁🥰🥰🥰🥰	-12.2162
▁はやば	-12.2164
了	-12.2166
▁回答	-12.2167
▁ちり	-12.2168
▁しゅり	-12.2169
▁むかい	-12.2169
▁プロテイン	-12.2171
▁ッ	-12.2172
▁ソース	-12.2173
▁改善	-12.2174
▁あむ	-12.2176
▁待ち遠しい	-12.2177
しらね	-12.2178
▁ぷい	-12.2179
▁かわゆ	-12.2179
▁ピュア	-12.2183
▁新大久保	-12.2186
▁こたえ	-12.2187
わしゃ	-12.2189
つて	-12.2197
おなじく	-12.2198
判	-12.2198
▁回避	-12.2199
▁蓮	-12.2208
紅	-12.221
管	-12.2221
▁スリスリ	-12.2221
🐕	-12.2221
▁ファイル	-12.2222
▁家具	-12.2222
浦	-12.2223
無理	-12.2225
取	-12.2228
▁ビジネス	-12.223
▁あやしい	-12.2233
らさ	-12.2234
きんく	-12.2237
カップ	-12.2238
▁添い	-12.2242
華	-12.2243
蔵	-12.2244
🍛	-12.2245
▁小田急	-12.2245
▁阿部	-12.2246
▁山形	-12.2246
▁フレンド	-12.2246
羽	-12.2247
▁あいか	-12.225
▁モス	-12.225
▁不倫	-12.2251
黒	-12.2252
▁老	-12.2255
▁エヘヘ	-12.2257
担任	-12.226
🙋	-12.2263
▁福井	-12.2264
▁気持ち良	-12.2267
▁年明け	-12.227
▁ng	-12.227
じょ	-12.2272
▁筆	-12.2273
▁ゅく	-12.2276
神社	-12.2276
なのだ	-12.2281
▁錦糸町	-12.2281
▁紅茶	-12.2281
からおけ	-12.2282
▁川口	-12.2283
参	-12.2283
▁口座	-12.2284
▁絢	-12.2286
▁苗	-12.2287
▁キモイ	-12.2288
▁まかし	-12.229
▁論文	-12.2295
▁ぞう	-12.2297
▁気配	-12.2299
▁群馬	-12.2301
▁ぎゃく	-12.2303
▁演奏	-12.2304
▁特殊	-12.2305
▁クレープ	-12.2305
▁解説	-12.2306
▁アツ	-12.2309
ーさ	-12.2311
▁ニュー	-12.2316
😸	-12.2317
▁活躍	-12.2317
▁松田	-12.2318
▁文系	-12.2318
mo	-12.2324
▁オワタ	-12.2328
▁速い	-12.2329
▁ひなた	-12.2334
塚	-12.2336
建物	-12.2337
▁風俗	-12.2341
屋敷	-12.2343
▁ちさ	-12.2345
在	-12.2345
▁個室	-12.2353
止め	-12.2355
▁プ	-12.2356
▁颯	-12.2357
▁誤魔化	-12.2361
▁ぶれ	-12.2363
▁現金	-12.2366
行為	-12.2366
▁無敵	-12.2366
▁仕返	-12.2369
▁ランク	-12.237
▁カイロ	-12.2371
▁小川	-12.2371
▁よっち	-12.2372
うすで	-12.2375
▁はやーい	-12.2376
👅	-12.2377
▁立派	-12.2377
▁半端	-12.2385
なんだけど	-12.2385
ミン	-12.2385
▁団体	-12.239
そん	-12.239
▁せこ	-12.2393
▁見かけ	-12.24
▁落ち着き	-12.24
メートル	-12.2401
🎊	-12.2401
▁ホスト	-12.2402
▁みと	-12.2403
▁無茶	-12.2405
▁go	-12.2406
▁溝	-12.2406
▁きそ	-12.2407
▁👎	-12.2408
▁the	-12.2409
クラ	-12.2409
▁太い	-12.241
▁体型	-12.2411
▁ロス	-12.2411
▁ゅけ	-12.2413
▁ざっ	-12.2414
▁のび	-12.2415
すと	-12.2423
▁踊り	-12.2426
▁貯ま	-12.2426
かも	-12.2428
▁ノシ	-12.2431
わい	-12.2431
牛	-12.2432
▁ハッ	-12.2435
▁町	-12.2436
▁有楽町	-12.2438
▁江ノ島	-12.2438
▁ぐるぐる	-12.2438
▁開き直	-12.2438
▁嬉しいー	-12.2446
▁更	-12.2446
ぼう	-12.2448
▁心理	-12.245
舎	-12.245
▁リフレッシュ	-12.245
go	-12.245
にゃんにゃん	-12.2452
▁めずらし	-12.2453
▁一次	-12.2453
最中	-12.2454
たま	-12.2454
▁外国人	-12.2456
▁ババア	-12.2459
▁やばーい	-12.2461
▁達成	-12.2461
▁困り	-12.2466
ぷにぷに	-12.2474
▁級	-12.2474
▁初心者	-12.2474
人目	-12.2475
景	-12.2478
▁ぼん	-12.2482
協	-12.2486
🚿	-12.2486
▁敏感	-12.2486
▁ばっち	-12.2491
▁玲	-12.2494
ッテ	-12.2495
▁いこー	-12.2495
払い	-12.2497
▁カウンター	-12.2498
▁ジャニーズ	-12.2499
▁着物	-12.25
▁マル	-12.25
ケーキ	-12.251
京	-12.251
▁起こせ	-12.2519
ドン	-12.2521
▁あさか	-12.2522
気に	-12.253
🌷	-12.2535
▁ふて	-12.2537
かしら	-12.2539
制限	-12.254
らい	-12.2544
▁バッテリー	-12.2548
▁堂々	-12.2549
ーふ	-12.2555
郷	-12.2558
▁至	-12.2559
▁源	-12.2561
群	-12.2562
選	-12.2563
▁専	-12.2563
ブル	-12.2564
▁ぱんつ	-12.2567
▁警報	-12.2571
▁大和	-12.2576
垢	-12.2577
▁引きず	-12.2578
▁沿	-12.2578
▁乗り過ご	-12.2583
やすむ	-12.2584
▁ポチ	-12.2584
▁チョイス	-12.2584
▁モンハン	-12.2585
あんしん	-12.2587
▁浅	-12.2589
考	-12.259
神経	-12.259
観察	-12.2591
以前	-12.2591
卵	-12.2591
泣き	-12.2592
▁さぁー	-12.2593
▁オラ	-12.2594
▁ギャグ	-12.2594
▁新大阪	-12.2597
▁オイル	-12.26
▁うっす	-12.2602
▁ノノ	-12.2603
▁つまらない	-12.2604
▁キャッチ	-12.2608
回り	-12.2609
▁詳	-12.2615
▁カエ	-12.2616
▁お先に	-12.2616
落	-12.2616
▁天ぷら	-12.2622
▁自販	-12.2622
▁ぼち	-12.2626
よろこん	-12.2627
▁つかさ	-12.2628
いくらでも	-12.2629
ちさと	-12.2629
▁やり直	-12.263
情報	-12.2631
やら	-12.2631
示	-12.2632
歩か	-12.2634
▁カエル	-12.2635
かえす	-12.2635
▁うなぎ	-12.2635
到	-12.2636
▁業	-12.2639
▁楽器	-12.2642
▁ベタベタ	-12.2646
🍎	-12.2646
停止	-12.2647
▁樣	-12.2653
▁底	-12.2656
ドリ	-12.2657
油	-12.2657
▁いちい	-12.2657
宝	-12.2658
▁緊急	-12.2659
▁ムキムキ	-12.2659
▁ガム	-12.2659
▁ねとっ	-12.2663
▁ノイ	-12.2663
▁エン	-12.2664
▁迫	-12.2666
ザー	-12.267
▁お口	-12.267
▁スキ	-12.267
▁ヤキモチ	-12.2671
▁職員	-12.2671
相手	-12.2671
▁モン	-12.2675
おでこ	-12.2676
▁タピ	-12.2678
▁もりもり	-12.2684
▁すわっ	-12.2684
▁貰い	-12.2685
▁販売	-12.2687
▁山下	-12.2687
▁宇都宮	-12.2696
▁いが	-12.2698
▁ついていけ	-12.27
▁サーモン	-12.2704
こいや	-12.2707
▁パワポ	-12.2708
▁乗り遅れ	-12.2708
▁よっちゃん	-12.2711
とり	-12.2711
ゆうすけ	-12.2711
ゆったら	-12.2713
ード	-12.2714
▁寸	-12.2717
かもしれない	-12.2721
▁me	-12.2725
▁ぬれ	-12.2727
▁えび	-12.2728
▁浜	-12.2729
▁息抜	-12.2732
テン	-12.2733
▁申し訳な	-12.2734
▁精子	-12.2735
展	-12.2737
▁ブー	-12.2737
処	-12.274
おさまっ	-12.2742
▁あまえ	-12.2743
デー	-12.2745
▁正確	-12.2746
しほちゃん	-12.2746
▁しゃぶ	-12.2749
▁衣	-12.275
▁盗	-12.2753
▁なるみ	-12.2756
▁,,,,	-12.2759
▁ウトウト	-12.2759
▁免疫	-12.2759
▁採	-12.2761
▁コー	-12.2762
▁ぎや	-12.2762
▁フランス	-12.2767
たいがく	-12.2768
▁どら	-12.2769
▁ガラガラ	-12.2771
▁でんでん	-12.2774
すけ	-12.2778
ものすごく	-12.2778
▁むん	-12.2778
▁らいこ	-12.2778
夫	-12.2778
▁腐っ	-12.2783
▁広が	-12.2783
伝	-12.2783
▁ガラス	-12.2786
とうとう	-12.2787
▁段	-12.2791
▁アポ	-12.2791
▁あせっ	-12.2794
域	-12.2796
空	-12.2797
まさこ	-12.28
▁再試	-12.2801
ゆいか	-12.2806
▁ともや	-12.2808
▁カオス	-12.2809
▁コーナー	-12.2809
re	-12.281
▁広げ	-12.2811
▁ざる	-12.2812
▁グッド	-12.2821
▁ツーショット	-12.2821
▁質	-12.2825
かえれる	-12.2829
▁哦	-12.2832
▁ひら	-12.2835
ますます	-12.2838
徳	-12.2839
▁そっと	-12.2842
ねむみ	-12.2846
ょ	-12.2846
▁柔軟	-12.2847
版	-12.2847
▁カップラーメン	-12.2847
▁ダメダメ	-12.2848
▁なつかし	-12.2848
▁ちょろ	-12.2853
▁カン	-12.2856
▁交渉	-12.2859
写	-12.2859
▁つかえ	-12.2861
温泉	-12.2861
▁丸い	-12.2869
かかっ	-12.287
▁持て	-12.2871
教授	-12.2872
▁鈍感	-12.2872
▁藤本	-12.2873
かえら	-12.2873
▁着信	-12.2878
▁お天気	-12.2879
▁ツアー	-12.2883
▁疑わ	-12.2884
🦀	-12.2885
▁効率	-12.2885
どころか	-12.2885
▁バン	-12.2887
sj	-12.2888
安心	-12.2889
▁スト	-12.2891
▁あやな	-12.2894
▁すと	-12.2894
▁ジュン	-12.2894
▁フェス	-12.2894
わたす	-12.2895
▁ビビる	-12.2898
技	-12.29
ごわす	-12.29
くっつく	-12.2901
▁つぶ	-12.2907
▁きょうか	-12.2907
凜	-12.291
▁蹴	-12.2911
▁角度	-12.2913
▁菌	-12.2914
▁おごり	-12.2915
わかりみ	-12.2916
▁クセ	-12.2918
▁むに	-12.2919
チャー	-12.2923
▁ケド	-12.2925
なる	-12.2927
芋	-12.2929
▁自動	-12.293
回し	-12.293
▁ジェ	-12.293
▁たわけ	-12.2931
▁口内	-12.2933
▁なかよし	-12.2939
▁富士急	-12.2939
▁ねむた	-12.2939
▁ベ	-12.294
▁器用	-12.2942
▁ぎた	-12.2946
▁緩	-12.2948
▁覚醒	-12.2948
▁シングル	-12.2948
▁酔っぱら	-12.2948
まるまる	-12.2949
▁吉野家	-12.2949
おちつい	-12.2951
er	-12.2954
▁誰だ	-12.2956
虚	-12.2956
隊	-12.2957
▁max	-12.2959
ぐちゃぐちゃ	-12.2961
▁ダンボール	-12.2961
lo	-12.2963
▁金持ち	-12.2964
魚	-12.297
やな	-12.2972
句	-12.2974
忙	-12.2975
抜き	-12.2975
▁love	-12.2976
▁関西弁	-12.2977
▁ピー	-12.2986
▁若く	-12.2986
アウト	-12.2987
だめ	-12.2993
▁城	-12.2996
▁トリ	-12.2999
▁住め	-12.2999
▁カラコン	-12.3
きゅんきゅん	-12.3
▁すむ	-12.3001
▁巡り	-12.3005
▁リズム	-12.3007
▁ちょこ	-12.3008
▁ぇっ	-12.3008
抜け	-12.301
▁くに	-12.301
切	-12.3011
▁真逆	-12.3013
▁在宅	-12.3013
▁~-	-12.3013
ほも	-12.3016
▁撤	-12.3017
どこ	-12.3019
▁仕込	-12.302
▁ツン	-12.3024
▁プライド	-12.3025
晴れる	-12.3027
▁シール	-12.3027
タワー	-12.3027
👧🏻	-12.3032
▁推	-12.3035
▁たげ	-12.3042
姉さん	-12.3047
クル	-12.3049
▁すう	-12.3051
💥	-12.3051
▁懇	-12.3052
▁チョコレート	-12.3058
摘	-12.3058
▁ゆるい	-12.3059
▁ナビ	-12.3063
▁ひーた	-12.3068
分の	-12.3069
▁girl	-12.3076
▁温ま	-12.3077
▁小説	-12.3081
▁畑	-12.3082
▁るみ	-12.3082
かよ	-12.3083
がん	-12.3083
▁羊	-12.3083
明け	-12.3084
▁🧡	-12.3088
ふみか	-12.3088
▁きんの	-12.3089
▁真っ白	-12.309
▁セン	-12.3097
▁ぺこ	-12.3105
学期	-12.3107
▁足ら	-12.311
税	-12.311
ガン	-12.3114
なか	-12.3115
▁恋し	-12.312
▁ふわ	-12.3126
▁一体	-12.3129
▁妥協	-12.3129
▁ハイボール	-12.3129
▁期末	-12.3129
▁弾け	-12.3131
▁甲子園	-12.3133
はやおき	-12.3134
シュ	-12.3136
県	-12.3137
▁ドラ	-12.3138
ジュース	-12.3138
▁穏	-12.3139
ギャ	-12.314
行動	-12.314
▁東大	-12.3141
エル	-12.3141
▁サンドイッチ	-12.3142
さっそく	-12.3142
▁ヒゲ	-12.3142
▁俊	-12.3142
▁交差	-12.3143
▁末期	-12.3143
▁そらそ	-12.3144
フェ	-12.3145
▁芝	-12.3145
▁ビッグ	-12.3146
▁帯	-12.315
▁白く	-12.3156
チュ	-12.3157
▁流行り	-12.3157
荷	-12.3158
▁ランキング	-12.3164
居	-12.3166
がり	-12.3166
▁保育	-12.3168
試験	-12.317
▁作品	-12.3176
求	-12.3179
犯	-12.318
▁デス	-12.318
▁三ノ宮	-12.3181
▁叶え	-12.3181
▁キャプテン	-12.3181
▁スキル	-12.3182
▁ジャケット	-12.3184
▁日記	-12.3191
▁温	-12.3192
▁鶏	-12.3192
▁公務員	-12.3194
▁バンバン	-12.3194
▁パチ	-12.3195
▁たのしー	-12.3204
▁クオリティ	-12.3209
ユ	-12.3212
▁しゃす	-12.3214
詞	-12.3215
▁キャバ	-12.3216
カラ	-12.3216
▁コール	-12.3218
▁あざとい	-12.3219
▁ゃわ	-12.3219
▁こり	-12.322
▁瞑	-12.3221
▁ぴく	-12.3224
▁あくまで	-12.3226
▁ジョイフル	-12.3234
▁組み合わせ	-12.3234
▁みんみん	-12.3234
▁馬場	-12.3236
るほど	-12.3237
▁電子	-12.3241
めえ	-12.3243
惨	-12.3247
▁ネカフェ	-12.3247
▁福山	-12.3249
▁in	-12.325
破	-12.3251
▁ぬう	-12.3256
▁裏切	-12.3257
▁tiktok	-12.326
▁山手線	-12.326
▁遠藤	-12.3261
▁泊め	-12.3265
▁抱え	-12.3269
▁たかし	-12.3272
▁強め	-12.3273
▁当てはま	-12.3273
le	-12.3276
▁からいー	-12.3281
▁ステキ	-12.3286
▁クレーム	-12.3286
▁パルコ	-12.3286
▁園	-12.3288
みん	-12.3289
▁こお	-12.3292
聞	-12.3294
不満	-12.3294
▁歴史	-12.3296
▁むち	-12.3298
▁ロフト	-12.33
▁水泳	-12.33
▁目立	-12.3301
▁かめ	-12.3301
▁桁	-12.3302
▁職	-12.3303
▁七瀬	-12.3305
▁第一	-12.331
▁day	-12.3311
▁どけ	-12.3311
▁うつる	-12.3311
▁チー	-12.3313
▁記事	-12.3314
▁ココア	-12.3314
▁朝食	-12.3316
▁うけい	-12.3317
▁本読	-12.3319
▁まみれ	-12.3319
▁ゆきの	-12.3321
いそぐ	-12.3322
まし	-12.3322
よく	-12.3323
▁ボディ	-12.3324
▁~~☺	-12.3325
▁簿記	-12.3326
▁シャ	-12.3329
▁イキ	-12.3329
眼	-12.3331
▁励ま	-12.3334
くそう	-12.3334
▁漏ら	-12.3335
表	-12.3336
▁なくし	-12.3338
経	-12.334
▁絆	-12.3342
▁ひさし	-12.3344
▁渋い	-12.3345
▁良し	-12.3345
▁ざん	-12.3346
▁にくく	-12.3346
▁巨	-12.335
▁空か	-12.3351
起床	-12.3353
▁音声	-12.3356
▁お客様	-12.3357
▁死にかけ	-12.3361
▁呼び捨	-12.3364
▁新聞	-12.3368
▁隆	-12.3368
▁インキャ	-12.3371
▁あつき	-12.3372
るの	-12.3373
▁or	-12.3375
しょっちゅう	-12.3378
▁岡	-12.3379
▁餅	-12.3382
▁ううー	-12.3383
がら	-12.3385
▁?!?	-12.3388
▁⚡	-12.3391
▁あく	-12.3392
▁モテモテ	-12.3393
学部	-12.3393
▁ネタバレ	-12.3393
▁まめ	-12.3393
▁バナ	-12.3393
きっかけ	-12.3394
▁イタリアン	-12.3395
▁秋田	-12.3396
▁サイコー	-12.3398
なやむ	-12.3402
バン	-12.3402
▁柔らかい	-12.3404
▁地図	-12.3406
▁修行	-12.3406
したね	-12.3407
▁ひよこ	-12.3409
ちまう	-12.3411
▁谷	-12.3417
▁雅	-12.3418
▁まるで	-12.3419
▁六本木	-12.3419
▁千光	-12.342
▁和食	-12.3421
▁眼	-12.3422
▁呼吸	-12.3422
▁経由	-12.3424
▁!、!	-12.3426
▁編	-12.343
▁消防	-12.3433
▁調理	-12.3433
▁助手	-12.3433
▁中国語	-12.3433
▁リア	-12.3435
▁票	-12.3437
▁足し	-12.3441
▁鶴	-12.3442
小	-12.3444
▁ねたー	-12.3444
▁訓練	-12.3444
▁這	-12.3446
▁フラフラ	-12.3446
▁少年	-12.3451
▁同窓	-12.346
▁カタカナ	-12.346
▁梅酒	-12.3461
▁ベルト	-12.3462
▁経営	-12.3467
▁功	-12.3471
▁配達	-12.3473
▁キープ	-12.3473
▁id	-12.3474
しゃべる	-12.3475
ごと	-12.3476
▁しぶ	-12.3478
▁紐	-12.3479
▁兵庫	-12.348
誘い	-12.3483
▁ナデナデ	-12.3484
▁ゼンリー	-12.3487
▁脱出	-12.3488
▁津田沼	-12.3488
▁直行	-12.3492
▁一周	-12.3495
▁浦和	-12.3496
🌃	-12.35
▁阪神	-12.35
ふく	-12.3502
分間	-12.3505
▁けろ	-12.3508
才	-12.3511
▁墓	-12.3512
▁モンスト	-12.3514
▁松屋	-12.3515
やばたん	-12.3515
▁かぎ	-12.3516
▁マリ	-12.3518
▁ビック	-12.3523
▁すぃ	-12.3525
ゆりこ	-12.3526
慮	-12.3527
▁少女	-12.3531
不明	-12.3532
つぶっ	-12.3532
みゆう	-12.3533
波	-12.3536
▁ヒートテック	-12.3541
▁ロータリー	-12.3541
▁止まり	-12.3543
▁模様	-12.3543
ちょう	-12.3543
▁たいけ	-12.3549
▁エア	-12.3552
▁望	-12.3553
▁アメ	-12.3554
告	-12.3554
▁アンケート	-12.3554
▁ボス	-12.3554
▁院	-12.3555
▁ブロ	-12.3555
▁おもんな	-12.356
▁ハニー	-12.3561
▁ぬい	-12.3565
フィ	-12.3567
▁めがね	-12.3569
▁うそ笑	-12.3572
▁ややこしい	-12.3573
▁おお笑	-12.3574
▁チェーン	-12.3582
▁欲張	-12.3582
蘭	-12.3583
あくび	-12.3584
▁眠いー	-12.3584
▁ボランティア	-12.3595
▁ケンタッキー	-12.3595
▁つぼ	-12.3597
▁ゅかれ	-12.3602
▁!!☺	-12.3607
つや	-12.3607
▁そわそわ	-12.3607
▁ねむー	-12.3613
アス	-12.3615
キング	-12.362
▁nhk	-12.3622
▁誘え	-12.3623
▁くく	-12.3626
▁気がつ	-12.3628
▁ほろ酔	-12.3629
▁振る	-12.3632
▁節	-12.3634
▁スポッチャ	-12.3636
▁国際	-12.3636
造	-12.3643
▁速度	-12.3645
▁まよ	-12.3645
しまえ	-12.3645
▁跳	-12.3646
os	-12.3647
▁ipad	-12.365
▁準	-12.365
▁あらぁ	-12.3652
▁しそ	-12.3652
▁給	-12.3653
生活	-12.3654
▁マッチョ	-12.3655
秘	-12.3657
▁ぴぴ	-12.3662
っぱい	-12.3662
▁ドイツ	-12.3663
しよ	-12.3665
▁つみ	-12.3668
▁入力	-12.3669
▁寄せ	-12.3671
▁キング	-12.3674
▁よしみ	-12.3674
もうご	-12.3674
▁この世	-12.3675
▁インター	-12.3677
▁ひらがな	-12.3677
▁タリーズ	-12.3677
▁リハビリ	-12.3677
▁トラブル	-12.3677
▁天国	-12.3678
▁砂糖	-12.3684
ドア	-12.3685
ちゃう	-12.3688
▁太田	-12.369
▁ブリーチ	-12.3691
▁定食	-12.3692
▁おちんちん	-12.3694
▁響き	-12.3696
れよ	-12.3697
▁ゃんち	-12.3697
ては	-12.3702
▁冴え	-12.3705
▁ベージュ	-12.3705
▁世代	-12.3705
▁杉	-12.3706
▁刺身	-12.3711
▁そり	-12.3711
▁はやめ	-12.3715
▁ホモ	-12.3718
正	-12.3721
▁葛	-12.3721
ひとみん	-12.3721
おき	-12.3722
▁キャン	-12.3722
▁オチ	-12.3722
▁ゃんが	-12.3727
▁不動産	-12.3733
▁❕	-12.3734
▁コメ	-12.3736
▁想い	-12.3737
まちがっ	-12.3739
してます	-12.3739
▁あらっ	-12.3743
▁ささ	-12.3745
▁テヘペロ	-12.3746
▁キーボード	-12.3746
▁ぶどう	-12.3747
▁ひまわり	-12.3749
▁震える	-12.3751
りや	-12.3752
▁ぐる	-12.3754
▁りりか	-12.3754
▁接し	-12.3755
▁仕	-12.3757
らしい	-12.3759
▁リアクション	-12.376
▁藤	-12.3761
▁えらーい	-12.3762
つけ麺	-12.3763
▁才	-12.3763
まにあわ	-12.3763
▁げら	-12.3764
いえで	-12.3772
▁巨人	-12.3772
▁こそー	-12.3774
▁snow	-12.3774
遭遇	-12.3774
👽	-12.3774
▁イェーイ	-12.3774
▁処女	-12.3774
▁ジブリ	-12.3774
▁レン	-12.3776
▁通ら	-12.3778
▁クーポン	-12.3779
きー	-12.3783
▁肝	-12.3784
しか	-12.3785
ちゃっかり	-12.3785
めっさ	-12.3787
▁あざーす	-12.3789
運転	-12.3792
▁サー	-12.3796
▁つくれ	-12.3799
▁謝罪	-12.3802
▁高崎	-12.3804
ちはる	-12.3806
▁シン	-12.3807
▁小野	-12.3808
▁団子	-12.381
ッド	-12.3811
嬢	-12.3816
おっ	-12.382
h	-12.3821
こり	-12.3825
止める	-12.3825
▁さんじ	-12.3826
▁択	-12.3827
▁金子	-12.3827
▁ボウリング	-12.383
🤝	-12.383
任	-12.3833
▁がつ	-12.3835
んたん	-12.3837
ゼ	-12.384
▁タン	-12.3845
▁落	-12.3848
カメラ	-12.3849
快	-12.3857
▁透明	-12.3858
じつは	-12.3858
▁必	-12.3859
▁にゃあ	-12.3862
やす	-12.3865
映画	-12.3868
▁押し付け	-12.3872
もうしわけ	-12.3873
▁バトル	-12.3874
▁前田	-12.3877
▁浅い	-12.388
▁滅多	-12.3886
▁冷房	-12.3886
▁潤	-12.3886
▁振り返	-12.3894
スケ	-12.3894
金持ち	-12.3895
▁ゴー	-12.3895
▁脱が	-12.3895
▁スパ	-12.3895
▁こわれ	-12.3896
▁外国	-12.3897
あんまし	-12.39
▁辛抱	-12.39
▁あた	-12.3902
▁商	-12.3903
なく	-12.3904
▁うく	-12.3908
族	-12.3909
▁ラウ	-12.391
確	-12.3913
▁アマゾン	-12.3914
▁バキバキ	-12.3914
▁お年玉	-12.3914
▁ポップコーン	-12.3914
▁ブフォ	-12.3914
おる	-12.3915
▁三宮	-12.3916
▁ぷろ	-12.3921
▁to	-12.3922
▁私立	-12.3923
▁予告	-12.3924
活用	-12.3924
▁よおー	-12.3931
▁随	-12.3939
▁浜松	-12.3942
▁スピーカー	-12.3942
▁継続	-12.3942
▁乃木坂	-12.3942
▁佐賀	-12.3942
▁小山	-12.3944
マーク	-12.3946
振り	-12.3947
▁引き継	-12.3952
しようよ	-12.3953
▁逮捕	-12.3956
ケン	-12.3956
匠	-12.3958
対応	-12.3959
▁直せ	-12.396
▁かわかし	-12.3961
▁おバカ	-12.3961
▁やまと	-12.3962
▁甲斐	-12.3968
▁フィルター	-12.397
珠	-12.397
🍖	-12.397
▁カッパ	-12.3972
歴史	-12.3974
坊主	-12.3976
府	-12.3978
▁イク	-12.3978
▁日焼け止め	-12.3984
▁ルミネ	-12.3985
on	-12.3992
▁推薦	-12.3994
敗	-12.3997
において	-12.3997
▁空間	-12.3997
パイ	-12.3998
▁ベロベロ	-12.3999
いつ	-12.3999
社員	-12.4004
ポイント	-12.4005
たいせい	-12.4005
▁救	-12.4006
▁泡	-12.4009
籍	-12.401
▁やばいー	-12.4013
▁zzz	-12.4013
▁メロン	-12.4013
▁スコア	-12.4013
▁姿勢	-12.4013
▁合計	-12.4014
▁ゆうみ	-12.4015
クス	-12.4015
▁噛み	-12.4015
▁きゆ	-12.402
関係	-12.4023
▁糸	-12.4024
▁生き返	-12.4024
▁祝い	-12.4026
▁ミルクティー	-12.4029
❤❤	-12.403
▁いろ	-12.4031
テロ	-12.4041
ギレ	-12.4042
▁ざこ	-12.4042
▁つぶれ	-12.4042
▁刺	-12.4045
▁ココ	-12.4045
▁こわーい	-12.4046
▁お笑い	-12.4048
乱	-12.4049
票	-12.4051
▁追試	-12.4052
よさげ	-12.4053
拠	-12.4054
▁鑑	-12.4055
👾	-12.4055
▁ホワイトデー	-12.4055
▁グラタン	-12.4056
▁げっ	-12.4061
▁重ね	-12.4061
印	-12.4063
イル	-12.4064
▁田	-12.4066
酢	-12.4066
▁いたか	-12.4066
▁歯磨	-12.4067
守り	-12.4069
▁左手	-12.4072
▁モーニング	-12.4073
▁レイ	-12.4074
▁はるひ	-12.4074
▁回転	-12.4076
してる	-12.4076
▁回ら	-12.4076
おととい	-12.408
ボン	-12.4081
▁ブチ	-12.4081
📣	-12.4084
▁善	-12.4084
▁ビデオ通	-12.4085
ンス	-12.4087
がた	-12.4087
▁薄く	-12.4088
きょ	-12.4088
▁さゆり	-12.4094
キン	-12.4096
紗	-12.4096
▁会し	-12.4098
囗	-12.4098
▁ハル	-12.4098
▁フレンチ	-12.4098
▁集団	-12.4098
▁ミニオン	-12.4098
▁?...	-12.4099
▁渋	-12.4101
たくや	-12.4102
▁アッ	-12.4102
▁快速	-12.4103
れいな	-12.4104
見つかる	-12.4107
なしみ	-12.4108
▁カモ	-12.4111
▁おーる	-12.4114
代わっ	-12.4116
▁写し	-12.4116
きょうちゃん	-12.4123
▁イブ	-12.4126
たし	-12.4128
▁重な	-12.4131
うち	-12.4131
▁まさと	-12.4135
▁はっぴー	-12.4136
▁きゅうり	-12.4138
▁もぐもぐ	-12.4141
▁対象	-12.4141
▁麻雀	-12.4141
ント	-12.4144
▁お陰	-12.4148
▁長期	-12.4153
▁サポート	-12.4156
▁秋葉原	-12.4156
▁関連	-12.4156
▁まこと	-12.4157
ちずる	-12.416
▁アザ	-12.4165
ってこと	-12.417
▁てんき	-12.4172
▁色気	-12.4173
▁斜め	-12.4174
▁くだらない	-12.4176
ちょっとした	-12.4182
▁上田	-12.4185
▁ノーマル	-12.4185
▁トラック	-12.4186
禁	-12.4187
▁かっぱ	-12.4188
▁au	-12.4193
▁ゴール	-12.4195
▁モノ	-12.4195
▁ありあ	-12.4195
🐨	-12.4199
▁吹っ飛	-12.4199
▁主任	-12.4199
養	-12.4201
▁むりです	-12.4202
▁いつき	-12.4204
▁メリット	-12.4214
▁あおー	-12.4216
▁ライ	-12.4221
▁ロン	-12.4225
セイ	-12.4228
▁クイズ	-12.4228
なおと	-12.423
▁呼	-12.423
▁隠せ	-12.4236
▁熱く	-12.4237
▁やわ	-12.424
▁富	-12.4241
🌝	-12.4243
▁ぱっと	-12.4243
▁まら	-12.4243
▁祐希	-12.4243
姉ちゃん	-12.4244
▁あまい	-12.4245
▁心地	-12.4247
▁産まれ	-12.425
▁ほや	-12.4252
▁着せ	-12.4255
▁茹で	-12.4257
▁禿げ	-12.4257
▁交	-12.4258
ドラ	-12.4261
▁ラッシュ	-12.4265
▁人形	-12.4268
▁ほさ	-12.427
▁兼	-12.4271
▁見つめ	-12.4272
▁ひだり	-12.4274
▁右手	-12.4274
▁せんぱ	-12.4278
▁和歌山	-12.428
ずるく	-12.428
▁asia	-12.4286
▁土下座	-12.4286
▁異性	-12.4288
▁現代	-12.4299
▁インフルエンザ	-12.4301
▁トランプ	-12.4301
▁きらり	-12.4301
▁図書	-12.4302
▁幅	-12.4305
▁重たい	-12.4306
▁カナ	-12.4307
▁誓	-12.4309
...	-12.4309
盤	-12.4315
🐽	-12.4316
▁ださいー	-12.4316
▁近藤	-12.4316
▁夢に	-12.4322
ぱんぱん	-12.4324
▁こわっ	-12.4325
▁づら	-12.4325
▁ダン	-12.4329
立ち	-12.4329
▁ゾンビ	-12.433
▁反則	-12.433
pose	-12.4331
▁不快	-12.4331
▁三重	-12.4334
▁おいら	-12.4334
▁くだり	-12.4339
それ	-12.4339
▁虎	-12.4343
▁切ない	-12.4344
▁シラフ	-12.4345
▁韓国人	-12.4347
▁~、、	-12.4351
けいく	-12.4351
▁込み	-12.4353
▁パク	-12.4355
▁元気です	-12.4355
▁モーニングコー	-12.4356
そうよな	-12.4356
▁えむ	-12.4359
たかゆき	-12.4363
▁医療	-12.4364
▁仏	-12.4364
▁修	-12.4368
in	-12.437
向	-12.437
▁やるき	-12.4372
▁toeic	-12.4375
▁スカイツリー	-12.4375
▁きそう	-12.4377
うっせ	-12.438
ぺ	-12.438
きちんと	-12.4381
ジュ	-12.439
▁たまい	-12.439
ワールド	-12.4398
▁キャラクター	-12.4404
▁豆乳	-12.4404
▁屋根	-12.4405
▁ゆと	-12.4406
▁ツル	-12.4406
▁カオリ	-12.4407
▁体質	-12.441
▁だっこ	-12.441
▁三角	-12.4413
▁きつけ	-12.4416
▁かっけ	-12.4417
▁バドミントン	-12.4419
▁主婦	-12.4419
▁クッション	-12.4419
ki	-12.4422
▁詩	-12.4425
頭痛	-12.443
▁三日	-12.443
▁マリオ	-12.4433
▁警戒	-12.4434
▁小倉	-12.4434
▁右側	-12.4435
▁脳内	-12.4435
▁こーち	-12.4437
▁控えめ	-12.4437
いな	-12.4438
▁前期	-12.4439
▁記	-12.444
▁ステージ	-12.444
▁🥺💓	-12.4442
らっしゃる	-12.4448
▁対抗	-12.4449
▁食器	-12.4454
▁賞	-12.4458
▁おとな	-12.4458
っくり	-12.446
けれども	-12.4463
▁西武	-12.4463
▁想定	-12.4464
▁奈菜	-12.4464
察	-12.4468
▁みら	-12.4468
▁離	-12.4469
▁開発	-12.447
▁フェ	-12.4473
おみやげ	-12.4475
▁料	-12.4475
▁棒読	-12.4477
んや	-12.4477
▁脳みそ	-12.4478
▁麻婆豆腐	-12.4478
▁倉庫	-12.4478
▁早出	-12.4478
▁ぁぁぁあ	-12.4479
▁ちゅっちゅっ	-12.4479
▁なぎさ	-12.4482
なおも	-12.4482
▁おもち	-12.4483
▁基	-12.4484
▁網	-12.4486
▁キン	-12.4489
還	-12.449
▁通う	-12.4492
シャツ	-12.4493
▁switch	-12.4493
▁ピクニック	-12.4493
▁佐野	-12.4493
クリスマスプレゼント	-12.4493
▁人狼	-12.4494
▁近々	-12.45
初	-12.4502
めんご	-12.4508
▁ペットボトル	-12.4508
われ	-12.4511
▁よじ	-12.4511
▁扉	-12.4512
あとち	-12.4513
j	-12.4514
可	-12.4522
▁プンスカ	-12.4523
▁痴漢	-12.4523
▁習慣	-12.4523
▁当番	-12.4524
▁染ま	-12.4525
▁神田	-12.4529
曇っ	-12.4531
▁コロッケ	-12.4535
▁まりん	-12.4536
▁タグ	-12.4537
▁丸亀	-12.4538
▁遠慮なく	-12.4538
▁ぷぷ	-12.4538
バイ	-12.4549
▁独り占	-12.4553
▁お花見	-12.4554
舞	-12.4556
▁ヨー	-12.4558
▁残ら	-12.4559
くらい	-12.456
▁へい	-12.4567
▁究極	-12.4568
▁フォロワー	-12.4568
▁sns	-12.4568
▁ピーマン	-12.4568
▁ズル	-12.4568
アイ	-12.4568
しりとり	-12.4569
佳	-12.4573
▁読書	-12.4574
くおん	-12.4579
▁まいこ	-12.458
ing	-12.4583
▁惹	-12.4586
▁目黒	-12.4587
グラ	-12.459
▁受	-12.4593
たけ	-12.4594
ヶ丘	-12.4597
▁ikea	-12.4598
▁枯れ	-12.4598
あいみょん	-12.4598
▁真っ直	-12.4598
▁痛め	-12.4601
トースト	-12.4601
▁格	-12.4602
いたい	-12.4603
注	-12.4606
器用	-12.4607
▁ずき	-12.4609
もなく	-12.4609
▁むふふ	-12.4613
▁再生	-12.4613
疹	-12.4613
さたん	-12.4613
▁あなたに	-12.4615
▁キメ	-12.4616
おそかっ	-12.4617
おまんこ	-12.4618
麻	-12.462
▁片手	-12.4621
豆腐	-12.4622
▁目当	-12.4623
▁短期	-12.4624
▁履き	-12.4627
チョコ	-12.4627
▁めんて	-12.4627
▁やすめ	-12.4628
▁youtuber	-12.4629
▁シュン	-12.463
はるの	-12.4635
▁垂れ	-12.4637
▁尾	-12.4637
▁カル	-12.4639
▁離し	-12.4639
▁ブレ	-12.464
▁サウナ	-12.4643
🌻	-12.4643
▁剣道	-12.4644
▁呪い	-12.4647
こうゆう	-12.4648
▁なんせ	-12.4651
福	-12.4651
▁づけ	-12.4654
預け	-12.4655
▁崩壊	-12.4656
▁動揺	-12.4659
▁ポカリ	-12.4659
▁人事	-12.4666
▁かおる	-12.4668
▁やさしく	-12.4668
飴	-12.4671
▁クリーニング	-12.4674
▁げろ	-12.468
▁お小遣い	-12.4682
▁すこー	-12.4685
包	-12.4687
刀	-12.4689
膏	-12.4689
▁うれしく	-12.4693
▁中心	-12.4694
▁喜ば	-12.4695
団	-12.4704
▁ソフトバンク	-12.4704
▁暴走	-12.4704
っちり	-12.4705
▁中島	-12.471
▁自力	-12.4713
▁またし	-12.4714
ラブ	-12.4717
しだい	-12.4719
譜	-12.4719
▁藤田	-12.472
▁市川	-12.472
▁交番	-12.4722
▁ワタ	-12.4722
▁食パン	-12.4723
▁yes	-12.4725
うるさかっ	-12.4727
▁なんぞ	-12.4728
▁ドライ	-12.473
▁ぱよ	-12.4731
▁ゃんの	-12.4732
🍵	-12.4735
▁暴力	-12.4736
▁いそい	-12.4736
▁香川	-12.4739
▁廃	-12.4742
▁勧め	-12.4744
▁骨折	-12.4749
▁役に立	-12.4751
▁一度	-12.4751
▁シュ	-12.4757
▁レース	-12.4757
▁そつ	-12.4759
まっちゃん	-12.4761
▁くやしい	-12.4762
▁二日	-12.4763
▁ウサギ	-12.4765
▁テント	-12.4765
▁美沙	-12.4765
▁片付	-12.4773
もお	-12.4774
関	-12.4775
▁ぱっち	-12.4776
▁ひらい	-12.4779
▁開催	-12.4781
🐔	-12.4781
シート	-12.4781
▁キスマーク	-12.4781
▁リスク	-12.4781
▁豚肉	-12.4781
▁かたい	-12.4783
▁ゴールド	-12.4784
▁水道	-12.4788
▁ゆで	-12.4793
▁りえ	-12.4794
▁ありよりの	-12.4796
▁ニンニク	-12.4796
👹	-12.4796
こし	-12.48
▁人前	-12.4802
▁いっちょ	-12.4808
▁オーケー	-12.4811
▁雑誌	-12.4811
▁訴え	-12.4812
まっせ	-12.4816
▁びん	-12.4816
▁かゆう	-12.4818
▁愚痴っ	-12.4821
ーく	-12.4822
▁蒲田	-12.4827
▁破壊	-12.4827
▁国分寺	-12.4827
▁モドゥ	-12.4827
▁タイトル	-12.4827
やくそく	-12.4828
▁シャー	-12.4832
派	-12.4837
▁動ける	-12.484
▁オフィス	-12.4842
▁ヘルシー	-12.4842
▁決	-12.4842
▁松井	-12.4843
▁たぬき	-12.4843
▁ぽっ	-12.4844
▁あいす	-12.4845
イズ	-12.4847
▁ダーリン	-12.4847
▁れいこ	-12.4849
とおるくん	-12.4849
菌	-12.4853
▁叩き	-12.4855
▁恨	-12.4858
🍴	-12.4858
🤕	-12.4858
▁指示	-12.4858
ハイ	-12.4859
コート	-12.4861
▁貧	-12.4862
▁キャ	-12.4863
正解	-12.4863
▁蟹	-12.4865
▁タッチ	-12.4866
▁並べ	-12.4868
かなこ	-12.4872
▁オーストラリア	-12.4873
ごらん	-12.4875
▁通報	-12.4875
▁弱っ	-12.4876
▁ファッション	-12.4876
▁歌わ	-12.4879
▁忠	-12.4887
抵	-12.4887
而且	-12.4889
▁富士山	-12.4889
▁ネズミ	-12.4891
ベル	-12.49
▁フラグ	-12.4902
籠	-12.4904
返す	-12.4904
▁絶好	-12.4904
▁年賀	-12.4905
伝え	-12.491
▁💃	-12.4911
きめよ	-12.4913
oo	-12.4914
タイ	-12.4914
ライ	-12.4917
▁やばば	-12.4918
縮	-12.492
▁さみしー	-12.4921
▁はいら	-12.4923
▁ちっちゃく	-12.4923
▁じだ	-12.4926
▁りせ	-12.4928
▁いこう	-12.4928
まずく	-12.4932
▁向かえ	-12.4934
▁輪	-12.4936
▁回す	-12.4936
▁スプレー	-12.4936
▁まそ	-12.494
▁開き	-12.4943
▁修正	-12.4944
▁始ま	-12.4944
▁平野	-12.4945
▁早稲田	-12.4946
▁くさく	-12.4951
▁現状	-12.4951
▁たほう	-12.4952
遣い	-12.4953
交	-12.4953
なみ	-12.4955
ついつい	-12.4957
ほっこり	-12.496
▁りす	-12.4961
▁最低限	-12.4965
汰	-12.4966
▁紅白	-12.4967
くり	-12.4969
▁入口	-12.497
製	-12.497
ro	-12.4971
▁揉み	-12.4976
▁もどり	-12.4978
▁大切な	-12.4979
▁ショップ	-12.498
▁大人っぽ	-12.4982
覇	-12.4982
▁グランド	-12.4984
▁実力	-12.4985
▁ボブ	-12.4985
がんばれよ	-12.4986
▁申し	-12.4987
ありえる	-12.4988
抱	-12.4988
かと	-12.499
▁ちば	-12.4994
▁ボード	-12.4995
▁スケート	-12.4996
▁たのしく	-12.4997
▁ちゃむ	-12.4998
るんば	-12.5
グル	-12.5002
▁コンサート	-12.5003
ポン	-12.5003
▁八つ	-12.5009
▁溺れ	-12.501
▁素材	-12.5014
喜	-12.5018
▁発車	-12.5018
ぐら	-12.502
▁!?!	-12.502
ヤン	-12.5025
賀	-12.5025
▁免	-12.5027
▁不幸	-12.5028
思い	-12.5028
池	-12.5029
▁鳥取	-12.5029
▁進路	-12.503
❤	-12.5037
ぽんちゃん	-12.5041
▁借金	-12.5045
▁栞	-12.5046
▁まいにち	-12.5047
▁いそがし	-12.5049
▁ちっさい	-12.505
▁ギガ	-12.505
▁うわーん	-12.5058
▁賞味期限	-12.5061
▁岡崎	-12.5061
▁民生	-12.5061
▁幹事	-12.5062
▁⭕	-12.5068
▁スライド	-12.5077
じゃがりこ	-12.5077
▁りんりん	-12.5077
▁注	-12.5078
▁たしょ	-12.508
▁人混	-12.5083
みんと	-12.5083
▁もうこ	-12.5085
▁揉め	-12.5097
▁あび	-12.5097
▁凍え	-12.5098
▁ぶぅ	-12.5098
▁美しい	-12.5103
▁主人公	-12.5108
▁人として	-12.5108
▁留守番	-12.5108
▁スーツケース	-12.5108
▁看板	-12.5109
おら	-12.5111
限定	-12.5112
▁ぶつ	-12.5112
キャラ	-12.5113
▁石井	-12.5113
▁巡	-12.5121
▁テラハ	-12.5124
▁消毒	-12.5124
▁宿泊	-12.5124
殺	-12.5125
▁磯	-12.5126
al	-12.5127
▁エリア	-12.5128
▁つまみ	-12.5129
▁理論	-12.513
儀	-12.5135
▁守れ	-12.5139
▁志保	-12.514
▁わんこ	-12.5141
▁魁	-12.5141
腰	-12.5142
en	-12.5143
▁むけ	-12.5146
▁なんが	-12.5147
ストア	-12.5152
▁可愛いー	-12.5152
やで	-12.5154
▁ポイ	-12.5155
▁ウキウキ	-12.5156
▁ボチボチ	-12.5156
▁審査	-12.5156
▁双子	-12.5157
▁キャラメル	-12.5157
▁滑り	-12.5158
▁永	-12.5159
▁!!✨	-12.5159
▁梶	-12.5163
▁黄	-12.5165
サイ	-12.5165
▁精一	-12.5166
てぃ	-12.5167
▁あすみ	-12.5169
まい	-12.5171
豆	-12.5172
▁むらむら	-12.5172
▁東北	-12.5172
鉄	-12.5174
▁ボックス	-12.5175
ったく	-12.5177
ゆーか	-12.5178
もたれ	-12.518
▁やみ	-12.518
▁本体	-12.5183
▁チラ	-12.5185
▁守り	-12.5185
彦	-12.5188
ごちゃごちゃ	-12.5188
▁マンゴー	-12.5188
▁なっつ	-12.5188
あやこ	-12.5189
▁しつこく	-12.519
売り	-12.519
▁漕	-12.5193
▁ナイ	-12.5195
▁遠回	-12.5196
▁エネルギー	-12.5203
▁カルピス	-12.5204
▁マツエク	-12.5204
▁まくら	-12.5204
▁新た	-12.5205
▁精	-12.5209
▁ちゃちゃ	-12.521
やすかっ	-12.5216
▁本部	-12.5221
▁湿気	-12.5223
▁夜食	-12.5224
▁狙わ	-12.5224
▁吐か	-12.5225
▁あじゃ	-12.5226
靴	-12.5228
わんない	-12.523
▁アフター	-12.5231
ました	-12.5231
▁さぼり	-12.5235
▁シュークリーム	-12.5236
▁社畜	-12.5236
▁特徴	-12.5236
▁グミ	-12.5237
▁手間	-12.5243
▁さとし	-12.5244
▁おんぶ	-12.5245
しま	-12.5251
作用	-12.5251
邊	-12.5252
▁深刻	-12.5252
▁観覧	-12.5252
▁和田	-12.5253
▁おいしー	-12.5256
テル	-12.5257
▁うき	-12.5258
▁シャン	-12.5259
▁ジョージ	-12.5261
▁言い合	-12.5262
領	-12.5262
▁ジャン	-12.5262
▁きむ	-12.5266
▁心斎橋	-12.5268
▁包丁	-12.5268
▁牛角	-12.5268
ないかい	-12.5269
▁いたっ	-12.5275
▁幻	-12.5276
▁伊	-12.5278
▁仮に	-12.5279
▁ミー	-12.5281
▁莉	-12.5281
▁豊洲	-12.5284
▁長谷川	-12.5284
▁こさ	-12.5285
あげ	-12.5285
▁呪	-12.5292
▁割引	-12.5292
かえて	-12.5294
▁渉	-12.5294
してき	-12.5299
▁京王	-12.53
▁志	-12.5301
▁帰国	-12.5301
▁くと	-12.5302
▁入試	-12.5302
わし	-12.5302
▁徳	-12.5308
▁猛	-12.5309
▁ぽち	-12.531
▁向き合	-12.5313
迎え	-12.5315
漫画	-12.5315
▁👩	-12.5316
かえ	-12.5316
▁にんにく	-12.5317
▁初対	-12.5317
▁意味深	-12.5317
▁否め	-12.5318
▁つなが	-12.5319
▁克	-12.5319
やま	-12.532
▁そうした	-12.5323
えんや	-12.5324
▁さんぽ	-12.533
▁やばあ	-12.533
▁もう一度	-12.5333
▁在庫	-12.5334
▁ょた	-12.5339
▁もしもし	-12.5339
▁持ち歩	-12.534
▁けいち	-12.5345
がない	-12.5345
▁愛想	-12.5348
▁ウェルカム	-12.5349
めためた	-12.5349
▁エントリー	-12.5349
▁セーター	-12.5349
▁🎅	-12.5352
▁ひろみ	-12.5356
▁頼め	-12.5358
償	-12.5364
🎄	-12.5365
🐘	-12.5365
▁べた	-12.5365
すたんぷ	-12.5366
虫	-12.5366
▁サンド	-12.537
レス	-12.5371
▁ジュ	-12.5372
▁ちゃんちゃん	-12.5378
▁尽く	-12.5378
kg	-12.5381
▁河	-12.5382
棟	-12.5385
▁投票	-12.5387
▁せり	-12.5388
おかしかっ	-12.539
まれ	-12.5392
▁ハウス	-12.5395
▁ボサボサ	-12.5398
▁ミュート	-12.5398
なあ	-12.5406
▁面倒くさい	-12.5409
▁味わ	-12.5414
等	-12.5414
▁宗教	-12.5414
▁有料	-12.5416
さっちゃん	-12.5416
ch	-12.5416
▁白川	-12.5419
▁ゃしん	-12.5421
弱	-12.5421
▁本来	-12.5422
▁はめ	-12.5431
訳	-12.5431
じゃがいも	-12.5431
▁虫歯	-12.5431
▁クビ	-12.5431
▁いふ	-12.5433
▁yo	-12.5435
▁伸	-12.5438
▁気持	-12.5442
▁一直	-12.5443
▁コップ	-12.5444
▁ナウ	-12.5444
🐛	-12.5447
▁差し入れ	-12.5447
▁とんかつ	-12.5447
▁系統	-12.5447
▁沸	-12.5451
▁エラー	-12.5453
▁ピカ	-12.5454
▁出身	-12.5455
▁リング	-12.5455
▁麻酔	-12.5455
もしや	-12.5459
▁まるー	-12.5459
▁ツタヤ	-12.5463
▁人間関係	-12.5464
ゆづき	-12.5465
▁でかけ	-12.5465
▁リコ	-12.5466
らす	-12.5467
▁魂	-12.5469
▁懐	-12.5469
▁腐	-12.5469
▁激し	-12.5472
▁悩ま	-12.5475
▁不審者	-12.548
▁美結	-12.548
▁リード	-12.548
マス	-12.5481
▁ユー	-12.5482
▁進み	-12.5482
▁下北	-12.5483
▁壮	-12.5484
▁ぬっ	-12.5486
どん	-12.5489
▁ソーセージ	-12.549
持ち帰り	-12.5491
▁イタリア	-12.5493
▁証	-12.5495
▁セブンイレブン	-12.5496
▁日本橋	-12.5499
カル	-12.5499
磨	-12.5506
▁ユ	-12.5507
▁挟ま	-12.5507
評	-12.5509
ずらし	-12.5509
モール	-12.551
▁イー	-12.551
▁モチベーション	-12.5513
▁手遅	-12.5513
▁近鉄	-12.5513
態	-12.5514
▁こめん	-12.552
しんや	-12.552
ビル	-12.552
▁向き	-12.5523
▁カイ	-12.5526
編	-12.5527
行事	-12.553
▁カズ	-12.553
▁ヒマ	-12.5534
あゆむ	-12.5534
▁不意打	-12.5535
しゃべり	-12.5538
ぎり	-12.5539
▁☺!	-12.554
▁悟	-12.5542
▁チャンネル	-12.5543
▁昨日今日	-12.5546
▁賭け	-12.5546
▁ゲオ	-12.5546
▁なーいー	-12.5547
▁貝	-12.555
くんだ	-12.5556
▁不良	-12.5561
くまさん	-12.5564
ちいく	-12.557
▁スカ	-12.557
きた	-12.5572
▁あつく	-12.5572
▁ゃく	-12.5574
さみしかっ	-12.5575
▁中国人	-12.5575
▁テラス	-12.5577
ゆるゆる	-12.5579
▁にんじん	-12.558
翔	-12.5581
▁親指	-12.5582
▁ラウンジ	-12.5584
▁ひより	-12.5584
▁発売	-12.5585
▁目安	-12.5585
▁賛	-12.5587
▁順位	-12.5588
捨	-12.5588
▁晃	-12.5589
ニア	-12.5595
あれだけ	-12.5595
▁伊豆	-12.5596
氏	-12.5599
▁コンビ	-12.5603
▁ゆづ	-12.5607
売	-12.5609
最終回	-12.561
▁イマイチ	-12.5612
▁プロフィール	-12.5612
▁舞台	-12.5613
▁労働	-12.5613
しっくり	-12.5614
▁バル	-12.5615
表現	-12.5617
▁少なか	-12.5618
もって	-12.5625
▁ぺろ	-12.5625
▁跡	-12.5628
▁密	-12.5629
▁真梨	-12.563
▁ふき	-12.5631
こうせい	-12.5631
ひとまず	-12.5632
ーじ	-12.5634
▁定番	-12.5635
▁福田	-12.5638
▁漁	-12.5642
▁せんせ	-12.5644
▁高知	-12.5644
▁きづか	-12.5645
▁ラウンド	-12.5646
▁たかひろ	-12.5646
▁積極的	-12.5647
記	-12.5648
ごめん	-12.5648
まかない	-12.5649
▁急行	-12.5655
▁本能	-12.5659
ぼり	-12.5661
👿	-12.5663
孝	-12.5664
▁上下	-12.5665
▁圏	-12.5666
放し	-12.5667
かわ	-12.5668
彼女	-12.5671
▁ナンバー	-12.5673
▁しゃわ	-12.5678
▁先月	-12.5679
酌	-12.5679
▁調査	-12.5679
▁フォルダ	-12.5679
▁霧	-12.5687
▁トライ	-12.5687
▁つば	-12.5688
クリ	-12.5688
▁押さ	-12.569
to	-12.5694
▁ベイビー	-12.5695
▁ストーブ	-12.5696
▁コアラ	-12.5696
▁切り上げ	-12.5697
とゆう	-12.5697
▁ビー	-12.57
▁語り	-12.57
▁コケ	-12.5701
▁決めつけ	-12.5704
リスト	-12.5706
▁じゃんけん	-12.5708
▁片思	-12.5708
▁東海	-12.5711
▁ほろ	-12.5713
▁持ち帰	-12.5713
▁bgm	-12.5713
こうくん	-12.5715
▁豪	-12.5717
▁バレエ	-12.5719
▁委員	-12.5722
▁まろ	-12.5724
▁立つ	-12.5727
かみのけ	-12.573
▁フライパン	-12.573
▁地域	-12.573
▁辻	-12.573
らま	-12.5733
▁コーン	-12.5733
そろっ	-12.5734
デイ	-12.5734
▁ボコボコ	-12.5738
なのか	-12.5744
最後	-12.5744
▁泳げ	-12.5745
▁ともか	-12.5746
デン	-12.5748
ライト	-12.5751
▁入場	-12.5756
▁浮き	-12.5757
かね	-12.5757
▁ケア	-12.5758
▁びょう	-12.5761
▁マヨネーズ	-12.5764
▁左側	-12.5765
しな	-12.5767
▁みよか	-12.5768
▁けす	-12.5768
だった	-12.5769
▁しょこ	-12.577
ダー	-12.577
▁だいす	-12.5771
▁モチ	-12.5773
るいく	-12.5775
▁殺人	-12.5775
▁いっし	-12.5778
レン	-12.578
妃	-12.5781
🍙	-12.5781
▁ららぽーと	-12.5781
▁泳	-12.5783
▁石田	-12.5783
ふみや	-12.5784
はちじ	-12.5785
▁つね	-12.5785
▁施設	-12.5786
▁同意	-12.5788
▁ハン	-12.5791
▁れいか	-12.5791
▁永遠に	-12.5796
▁世話	-12.5798
▁代行	-12.5802
▁あまっ	-12.5804
▁オッパ	-12.5804
佐	-12.5806
たいした	-12.5807
▁☃	-12.5807
すぐつく	-12.581
あやまら	-12.5811
苑	-12.5813
▁不可能	-12.5815
▁よわい	-12.5815
敵	-12.5816
▁ぴか	-12.5816
▁込	-12.582
プレイ	-12.582
▁むだ	-12.5821
▁担	-12.5823
ピタ	-12.5824
▁おっき	-12.5826
あたる	-12.583
▁おえ	-12.583
▁ファミレス	-12.5832
▁グダグダ	-12.5832
▁筆記	-12.5832
▁,,	-12.5832
▁片道	-12.5833
かまわ	-12.5834
▁エー	-12.5834
▁指名	-12.5835
▁選挙	-12.5835
▁訪問	-12.5835
▁さかな	-12.5836
▁ノン	-12.5837
▁エス	-12.5837
▁ps	-12.5837
ソース	-12.5841
▁狭	-12.5843
▁沈	-12.5844
うがい	-12.5847
▁なくす	-12.5848
▁藤井	-12.5849
▁ななこ	-12.585
▁live	-12.5851
▁👴	-12.5851
さして	-12.5858
かれ	-12.5859
很好	-12.5859
▁つまん	-12.5861
まち	-12.5861
▁びゅ	-12.5863
▁鳥肌	-12.5866
▁チェ	-12.5866
船	-12.5869
夏	-12.587
▁待ち受け	-12.5871
横	-12.5872
煮	-12.5873
▁戦争	-12.5877
▁通り越	-12.5878
▁日比谷	-12.5883
▁字幕	-12.5883
▁コスパ	-12.5883
▁由美	-12.5883
▁泣き虫	-12.5884
▁大久保	-12.5884
▁渡辺	-12.5884
▁草津	-12.5886
▁あの日	-12.5886
世界	-12.5891
かぁたん	-12.5896
▁ハーゲンダッツ	-12.59
猥	-12.59
▁舞浜	-12.59
▁尊い	-12.5901
▁みぎ	-12.5904
ろくな	-12.5906
▁奈々	-12.5908
補	-12.591
ズボン	-12.5911
▁てんさ	-12.5911
▁人参	-12.5916
▁スウェット	-12.5917
▁ドッキリ	-12.5918
mi	-12.5927
▁まゆみ	-12.5929
ーム	-12.5933
▁おくら	-12.5934
詫び	-12.5934
▁幽霊	-12.5934
▁いかれ	-12.5935
中華街	-12.5937
▁温かい	-12.5938
あっ	-12.5939
▁デカイ	-12.594
遠回り	-12.5942
満	-12.5945
▁戸	-12.5946
▁エッ	-12.5948
🔪	-12.5952
のお	-12.5955
▁大塚	-12.5955
ごふん	-12.5956
▁泉	-12.5957
▁三年	-12.5958
▁刺し	-12.5963
りんも	-12.5964
まりあ	-12.5964
▁省	-12.5969
💑	-12.5969
▁演習	-12.5969
▁一目	-12.597
▁のぼせ	-12.597
クソ	-12.5974
米	-12.5976
▁トラ	-12.5977
▁コト	-12.5981
づ	-12.5981
▁接	-12.5983
▁ドラクエ	-12.5986
▁冷た	-12.5988
▁受け付け	-12.5988
▁勢	-12.5993
▁とふ	-12.5997
▁際	-12.5997
是	-12.5999
ひどかっ	-12.6002
順	-12.6003
▁ついて行	-12.6005
▁長時間	-12.6005
なされ	-12.6007
なんか	-12.6008
▁侑	-12.6016
留	-12.6021
▁バツ	-12.6022
▁ゃる	-12.6024
▁あかちゃん	-12.6027
▁世	-12.603
▁ライオン	-12.603
▁りーん	-12.6034
▁不意	-12.6035
▁叫び	-12.6039
▁ありがち	-12.6039
▁セミ	-12.604
裕	-12.6041
▁惜しか	-12.6043
持	-12.6044
??	-12.6046
つかえる	-12.6048
▁テレ	-12.6048
▁確かめ	-12.605
▁なが	-12.6052
▁まわし	-12.6052
▁たまき	-12.6054
またまた	-12.6055
▁箇	-12.6055
▁シルバー	-12.6056
▁ベトナム	-12.6056
▁土砂降	-12.6056
▁ポンポン	-12.6056
▁びし	-12.6056
▁きしょい	-12.6058
コード	-12.6059
▁つくら	-12.606
▁べべ	-12.6061
フェス	-12.6063
おもいだし	-12.6064
漏	-12.6073
▁キャバクラ	-12.6073
▁マラソン	-12.6073
▁迷わ	-12.6076
まちゅ	-12.6084
▁鮭	-12.6086
▁テン	-12.6088
▁標準	-12.6091
▁意図	-12.6091
▁合唱	-12.6091
ばよかった	-12.6092
▁パリ	-12.6093
たり	-12.6097
▁学部	-12.6097
紹介	-12.6098
どか	-12.6099
▁パーク	-12.61
▁いとう	-12.6105
設	-12.6106
▁貧乏	-12.6108
ほぼほぼ	-12.6108
▁お似合	-12.6108
▁ドラム	-12.6109
やった	-12.6117
▁すとー	-12.6118
▁滅	-12.6119
▁引け	-12.6119
▁メーカー	-12.6121
▁澤	-12.6123
スルー	-12.6124
▁貼り	-12.6125
▁ジェットコースター	-12.6126
▁プルプル	-12.6126
▁ポジション	-12.6126
▁拍手	-12.6126
▁✨✨✨	-12.6126
▁発送	-12.6127
▁☕	-12.6127
▁菜々	-12.6127
▁たまらない	-12.6131
銭	-12.6134
かき	-12.614
▁焦げ	-12.614
ケー	-12.6141
👁	-12.6143
▁逝	-12.6145
興	-12.6146
▁蒸し	-12.6148
りょう	-12.6148
▁一定	-12.6149
▁ショット	-12.6153
▁幹	-12.6158
▁!!!?	-12.6159
陽	-12.616
🤑	-12.6161
▁展示	-12.6161
▁アップル	-12.6163
▁むかし	-12.6166
好きな人	-12.6166
まづ	-12.6167
▁ぴえ	-12.6168
ぎゃくに	-12.617
▁ツイ	-12.6175
ウェ	-12.6176
▁コラ	-12.6178
▁串カツ	-12.6179
▁泥	-12.618
ごう	-12.6185
▁マット	-12.619
といった	-12.6191
彩	-12.6191
誕生日	-12.6193
▁除	-12.6193
▁圭	-12.6195
▁理性	-12.6195
▁あけましておめでとう	-12.6196
▁ぱち	-12.6197
▁混乱	-12.6197
▁美里	-12.6197
▁キスマ	-12.62
▁ブル	-12.6202
ソー	-12.6202
▁ミオ	-12.6202
シア	-12.6203
▁けり	-12.6204
▁現象	-12.6208
▁くえ	-12.6209
▁棟	-12.621
▁イチ	-12.6213
ブルー	-12.6214
▁ナチュラル	-12.6214
💚	-12.6214
▁左右	-12.6214
▁ほんとう	-12.6214
▁見捨て	-12.6216
▁昇	-12.6219
▁農	-12.622
▁佐	-12.6221
しゅう	-12.6221
▁弄	-12.6222
▁けんよ	-12.6223
▁能	-12.6224
▁眠れる	-12.6225
ってい	-12.6229
起	-12.623
奇怪	-12.6232
心伝	-12.6232
めい	-12.6233
▁トリキ	-12.6233
▁きれいな	-12.6234
はなせる	-12.6234
▁キャップ	-12.6234
すすん	-12.6239
▁外見	-12.6243
はんぱ	-12.6245
接	-12.6247
シン	-12.6249
▁りゅうじ	-12.6249
▁みずほ	-12.6249
きたけ	-12.625
▁北村	-12.6251
▁とおる	-12.6252
じゅうぶん	-12.6252
▁特定	-12.6253
▁歡	-12.6257
つうわ	-12.6258
▁操作	-12.6259
うごい	-12.6259
古	-12.6263
属	-12.6265
渡	-12.6266
▁ぐい	-12.6267
▁頑固	-12.6267
▁愛媛	-12.6267
▁握手	-12.6268
さわり	-12.6269
▁くっつけ	-12.6277
▁断り	-12.628
もかも	-12.6283
▁拝	-12.6283
唄	-12.6285
暉	-12.6285
🌹	-12.6285
▁ポーチ	-12.6285
ダイ	-12.6286
▁きたあ	-12.6286
どれ	-12.6286
悪	-12.6287
▁;:	-12.6288
▁水木	-12.6288
▁👮	-12.629
▁カワイイ	-12.629
はな	-12.6294
▁ハー	-12.63
したら	-12.6301
唱	-12.6301
▁溶ける	-12.6303
🎌	-12.6303
▁府中	-12.6303
▁田川	-12.6304
▁刑	-12.6304
▁アラ	-12.6309
っぴ	-12.6312
たぁ	-12.6312
▁ニコ	-12.6316
んねん	-12.6318
▁くらいー	-12.6318
▁ラケット	-12.6321
▁遊園地	-12.6321
▁だいすけ	-12.6323
▁生地	-12.6327
▁沼	-12.6327
▁ob	-12.6334
▁がたい	-12.6335
▁素晴らし	-12.6337
▁ぷに	-12.6338
▁哈	-12.6339
▁審判	-12.6339
▁かばん	-12.6339
▁ジャンル	-12.6339
▁オリンピック	-12.6341
▁!✌	-12.6344
▁ゼ	-12.6345
わかめ	-12.6346
たか	-12.6347
▁タラ	-12.6352
▁本田	-12.6353
▁ですぅ	-12.6353
▁瀬戸	-12.6356
▁デニム	-12.6357
▁丈	-12.6357
▁屁	-12.6358
▁心強い	-12.636
▁貫	-12.6362
▁失せ	-12.6365
みとる	-12.6371
▁はなせ	-12.6372
▁お洒落	-12.6375
▁権利	-12.6375
▁調布	-12.6375
▁ばりばり	-12.6375
▁見逃し	-12.6378
▁ステ	-12.6378
降り	-12.6378
▁シンデレラ	-12.6378
▁さらっと	-12.6379
▁ナナ	-12.638
晴	-12.6381
エン	-12.6381
▁素っ	-12.6382
▁斗	-12.6383
▁喫茶	-12.6383
▁勝利	-12.6386
▁高さ	-12.6388
▁こき	-12.6389
▁クレジット	-12.6393
▁ホットケーキ	-12.6393
▁命令	-12.6393
▁待	-12.6397
▁うおおおお	-12.6406
▁休暇	-12.6409
ディー	-12.6409
むちゃくちゃ	-12.6411
🐮	-12.6411
▁俺の	-12.6411
▁みじか	-12.6412
▁おほほ	-12.6417
▁妻	-12.6417
プリ	-12.6421
おすし	-12.6427
▁ガイダンス	-12.6429
サーフィン	-12.6429
▁坂本	-12.6431
▁凌	-12.6431
▁🚶	-12.6433
▁国立	-12.6434
▁若者	-12.6434
ばり	-12.6438
▁お先	-12.6442
▁おおおー	-12.6443
▁勿体ない	-12.6449
▁三つ	-12.6449
いね	-12.6449
▁ぴゃ	-12.645
▁戸田	-12.645
▁タレ	-12.645
たえちゃん	-12.645
▁飲酒	-12.6452
▁ぷぅ	-12.6456
めじ	-12.6458
▁伝	-12.6458
▁類	-12.6461
▁苦しく	-12.6462
▁女優	-12.6463
▁刻	-12.6464
▁奨学金	-12.6465
👄	-12.6465
▁堀	-12.647
▁ゲ	-12.6471
▁ブーム	-12.6479
の夜	-12.6482
ジェ	-12.6483
財	-12.6483
▁炭水化物	-12.6483
▁キノコ	-12.6483
▁特権	-12.6485
▁なかよく	-12.6487
すぎて	-12.6488
▁ウィ	-12.6489
のは	-12.6496
罪	-12.6499
▁孤独	-12.6501
こんばんわ	-12.6501
▁コンドーム	-12.6502
▁ジョジョ	-12.6502
▁ノリノリ	-12.6502
▁タコパ	-12.6502
▁はかど	-12.6502
肌	-12.6502
おめでとう	-12.6503
▁安井	-12.6504
ぶつかっ	-12.6507
めんどくさかっ	-12.6508
ちかちゃん	-12.6513
▁未成年	-12.652
お仕置き	-12.652
▁菅田	-12.652
▁尽き	-12.652
▁リボン	-12.652
▁土地	-12.6521
▁おまち	-12.6528
▁めか	-12.6532
▁☂	-12.6534
まわる	-12.6536
▁矯正	-12.6538
▁いそげ	-12.6539
▁村田	-12.6541
ッキー	-12.6541
▁引き出	-12.6543
ュ	-12.6545
▁封	-12.6548
▁うごけ	-12.6551
▁使用	-12.6552
称	-12.6553
▁潜	-12.6556
▁きらきら	-12.6556
▁ヨドバシ	-12.6556
▁顧問	-12.6556
▁飯田橋	-12.6556
▁松戸	-12.6556
とく	-12.6559
折	-12.6561
住	-12.6564
▁労	-12.6566
▁糖	-12.6567
おし	-12.6568
ヨン	-12.6568
じゃもん	-12.6573
▁ぶる	-12.6574
羅	-12.6575
▁科学	-12.6575
▁すや	-12.6577
めちゃかわ	-12.6581
ジャン	-12.6582
▁劇	-12.6586
▁フジ	-12.6587
▁oh	-12.6589
ティング	-12.6589
▁害	-12.6592
フレ	-12.6593
▁保留	-12.6593
少し	-12.6593
▁...:	-12.6593
▁有効	-12.6593
▁がっかり	-12.6594
▁小松	-12.6595
▁かりん	-12.6596
▁プレ	-12.6597
▁あがれ	-12.6597
ユー	-12.6597
落ち	-12.66
▁森田	-12.66
因	-12.6602
▁就寝	-12.6603
おにく	-12.6605
▁むぎ	-12.6606
▁まんが	-12.6611
▁摂取	-12.6611
▁保護者	-12.6612
退屈	-12.6613
▁試着	-12.6613
乗	-12.6614
▁親し	-12.6617
▁寝転	-12.6618
友人	-12.6623
▁....。	-12.6625
▁三田	-12.6626
▁ぷら	-12.6629
▁ライバル	-12.663
ナン	-12.6631
まら	-12.6633
▁あえない	-12.6636
▁爆弾	-12.6636
つの	-12.6638
刃	-12.6648
▁url	-12.6648
▁給食	-12.6649
▁~☀	-12.6649
▁みれい	-12.665
▁団	-12.6651
▁たたん	-12.6652
▁グラン	-12.6652
ar	-12.6653
▁太一	-12.6653
盛	-12.6654
▁たのしか	-12.6654
助	-12.666
▁展	-12.666
▁紳士	-12.6667
💸	-12.6667
▁禁煙	-12.6667
もみもみ	-12.6667
▁失恋	-12.6667
▁そうめん	-12.667
▁しろっ	-12.6672
▁洗面	-12.6673
ほう	-12.6674
▁明る	-12.6674
▁株	-12.6676
▁おかゆ	-12.6677
こたん	-12.6681
▁軍	-12.6683
▁セルフ	-12.6683
▁サラ	-12.6684
のところ	-12.6685
▁ハンカチ	-12.6685
べろべろ	-12.6685
▁ローション	-12.6686
▁嫌がらせ	-12.6686
▁バックアップ	-12.6686
▁ひょー	-12.6686
条	-12.6687
▁たのも	-12.6688
▁フォー	-12.6689
▁たつき	-12.669
▁きしょ	-12.6695
▁偏差値	-12.6698
▁きかせ	-12.6698
おうえん	-12.67
▁乗っけ	-12.6701
怖	-12.6701
▁すすめ	-12.6702
▁高山	-12.6704
▁隙間	-12.6705
ース	-12.6708
▁錯	-12.6709
それほど	-12.6709
▁よーく	-12.6711
▁ネー	-12.6712
▁厨	-12.6712
▁ボーイ	-12.6714
▁おとし	-12.6716
▁ごちそう	-12.6716
▁ほじ	-12.6717
のん	-12.672
▁らんち	-12.6723
▁ドキッ	-12.6724
▁広ま	-12.6732
▁痒い	-12.6732
▁陸上	-12.6732
っぽかっ	-12.6735
▁みこ	-12.6736
▁ドロ	-12.6736
▁仁	-12.6736
🤠	-12.6741
▁キャリア	-12.6741
▁ポスター	-12.6742
▁シェア	-12.6742
▁大大	-12.6742
▁物干	-12.6745
陸	-12.6746
▁観戦	-12.6749
▁ゅごい	-12.6749
▁ぐす	-12.6754
▁下り	-12.6756
▁オナ	-12.676
▁バニラ	-12.676
🎂	-12.676
🐭	-12.676
▁燃や	-12.6761
▁スケボー	-12.6761
▁ょく	-12.6769
▁ジョ	-12.6771
▁卵焼	-12.6771
致	-12.6772
▁地上	-12.6772
▁かたよ	-12.6775
▁治さ	-12.6776
▁フロント	-12.6779
まふ	-12.678
▁ぎゃあ	-12.6783
▁カラ	-12.6783
▁ナニ	-12.6785
▁入れ替え	-12.6785
▁政	-12.6788
ハン	-12.6788
▁虹	-12.679
ゲン	-12.6793
まいり	-12.6796
▁にしん	-12.6796
▁メシ	-12.6798
▁イッテ	-12.6801
守	-12.6802
未	-12.6803
▁尿	-12.6805
積	-12.6808
▁あうと	-12.6809
▁新規	-12.6817
梨奈	-12.6818
▁本命	-12.6819
▁ぶひ	-12.6823
▁たどり着	-12.6828
もえちゃん	-12.6828
▁しょげ	-12.6834
▁ユニフォーム	-12.6835
▁自由が丘	-12.6835
▁イルミ	-12.6835
▁しんご	-12.6836
▁三月	-12.6836
lix	-12.6836
▁長居	-12.6837
おまけ	-12.6838
▁うたっ	-12.6839
an	-12.684
▁幾	-12.6843
▁突き	-12.6845
おそよう	-12.6847
いか	-12.6849
まき	-12.6849
▁スター	-12.6851
▁つぶし	-12.6852
あまあま	-12.6854
▁耳鼻	-12.6854
▁中央線	-12.6857
ベン	-12.6857
▁ごまかし	-12.6858
きてき	-12.6871
▁大地	-12.6871
つらく	-12.6874
▁チョロ	-12.6875
▁久し	-12.6878
▁高野	-12.688
母	-12.6881
▁愛しい	-12.6881
では	-12.6883
▁ワールド	-12.6883
▁スタンド	-12.6889
▁緊急事態	-12.6892
▁宝くじ	-12.6892
▁つと	-12.6892
▁...、	-12.6893
次元	-12.6893
▁持ち込み	-12.6894
說他	-12.6895
▁すれ違い	-12.6896
▁済ま	-12.6897
▁枝	-12.6898
いただく	-12.6899
▁こんち	-12.6899
あたお	-12.69
▁ぇえ	-12.6901
▁野田	-12.6902
▁はみがき	-12.6904
▁亮	-12.6906
▁スポ	-12.6907
あんり	-12.6907
▁プラネタリウム	-12.6911
戴	-12.6911
荘	-12.6911
🎃	-12.6911
▁果たし	-12.6911
▁常連	-12.6911
▁みょん	-12.6912
▁we	-12.6914
のり	-12.6915
▁いらっしゃい	-12.6916
▁おもろく	-12.6918
▁タク	-12.6926
の他	-12.6926
▁子守	-12.6927
んご	-12.6928
▁撃	-12.6928
▁とみ	-12.693
🌚	-12.693
▁ヘヘッ	-12.693
▁商店	-12.693
▁通い	-12.693
▁入社	-12.6932
▁広め	-12.6937
ング	-12.6938
▁かせ	-12.6943
銀行	-12.6946
▁長生	-12.6948
▁リッチ	-12.6948
▁ポッキー	-12.6949
▁幼馴染	-12.6949
▁松山	-12.6951
▁スク	-12.6957
▁進行	-12.6959
賃	-12.696
しにたい	-12.6961
▁あるけ	-12.6963
ヴ	-12.6963
▁硬	-12.6965
👴🏻	-12.6966
▁丸の内	-12.6968
詮	-12.6968
🌿	-12.6968
▁露天	-12.6968
野菜	-12.697
▁つち	-12.697
かせ	-12.6972
▁評	-12.6972
レード	-12.6973
▁マジック	-12.6975
▁ツ	-12.6975
▁隙	-12.6975
▁シワ	-12.6977
コミ	-12.698
護	-12.6986
▁震度	-12.6987
▁さわやか	-12.6987
▁水戸	-12.6988
▁おさえ	-12.699
▁むりやん	-12.6995
付か	-12.6996
▁カタ	-12.6999
▁どうり	-12.7
▁装	-12.7002
▁ごっこ	-12.7004
▁ム	-12.7005
▁さんま	-12.7006
▁ポカポカ	-12.7006
▁俳優	-12.7006
やってみよう	-12.7006
▁ブラブラ	-12.7006
▁オーナー	-12.7006
▁ウザイ	-12.7007
▁ノア	-12.701
▁チキ	-12.7012
研	-12.7015
▁ちゆ	-12.7015
▁黄色い	-12.7018
わかた	-12.7024
▁とび	-12.7024
▁こわー	-12.7025
▁レシピ	-12.7025
リットル	-12.7025
▁成果	-12.7025
▁オーキャン	-12.7025
▁焼酎	-12.7026
▁ハイライト	-12.7026
▁ガード	-12.7026
ぞう	-12.7028
利口	-12.7029
▁積ん	-12.703
雄	-12.7035
▁じっと	-12.7042
チキン	-12.7042
▁四月	-12.7042
うちくる	-12.7043
▁マシュマロ	-12.7045
富豪	-12.7045
▁とてつもな	-12.7045
▁奥村	-12.7046
底	-12.7048
いいひと	-12.7049
朗	-12.7049
▁オペ	-12.7057
あさから	-12.7059
▁皮膚	-12.7063
▁ゆに	-12.7064
州	-12.7064
▁実技	-12.7065
▁むずかし	-12.7067
▁わこ	-12.7069
▁ござ	-12.7073
▁地方	-12.7076
▁宝	-12.7083
🖤	-12.7083
▁ばつ	-12.7084
▁掴	-12.7086
り勘	-12.7086
▁復帰	-12.709
▁姉妹	-12.7094
まっちょ	-12.7095
▁被り	-12.7099
転	-12.7099
▁ツリー	-12.7118
さぼっ	-12.712
▁勧誘	-12.7122
🍆	-12.7122
▁スノー	-12.7122
がみ	-12.7122
ありちゃん	-12.7123
▁幹部	-12.7123
▁宮川	-12.7123
▁明日香	-12.7125
ちゅー	-12.7127
▁子宮	-12.7129
なのに	-12.713
影	-12.7132
▁縛り	-12.7132
のか	-12.7134
ッカー	-12.7134
づく	-12.7135
霊	-12.7137
おつまみ	-12.7138
▁億	-12.7138
▁むの	-12.7139
▁よかろ	-12.714
澄	-12.7141
▁ぴと	-12.7142
▁つなげ	-12.7142
▁不在	-12.7143
▁チッ	-12.7143
▁ひも	-12.7145
演	-12.7146
▁酢	-12.7147
みせる	-12.7147
畑	-12.7148
▁テロ	-12.7149
べんきょう	-12.715
▁ゃにゃ	-12.7151
▁ゃら	-12.7152
布団	-12.7155
▁ばく	-12.7159
▁netf	-12.7161
▁折りたたみ	-12.7161
▁藤沢	-12.7161
▁ひろい	-12.7161
▁疎	-12.7161
▁ぉん	-12.7161
ドー	-12.7168
▁沙	-12.7169
どき	-12.7171
▁プー	-12.7172
▁孫	-12.7176
▁けいし	-12.7177
▁軽井沢	-12.718
▁シカト	-12.718
▁スキニー	-12.718
▁付き添	-12.7182
▁ぐら	-12.7187
▁手出	-12.7189
同	-12.7189
テープ	-12.719
▁ひろし	-12.7191
▁競	-12.7194
▁針	-12.7195
▁サイ	-12.7196
苦	-12.7196
▁郵便	-12.7198
▁驚か	-12.7199
ボックス	-12.7199
ファン	-12.7199
▁倦怠	-12.72
▁現役	-12.72
▁はしご	-12.7201
▁りょー	-12.7201
のう	-12.7202
▁おぼえてる	-12.7202
闘	-12.7203
▁応え	-12.7204
▁ゃんに	-12.7204
ねこ	-12.7206
▁あいま	-12.7207
おいで	-12.721
▁ねたか	-12.7211
ぜんっ	-12.7212
▁諒	-12.7214
▁見送	-12.7217
ダン	-12.7218
▁うぉー	-12.722
▁整骨	-12.722
▁独身	-12.722
▁未知	-12.722
▁びみ	-12.7221
▁ひるね	-12.7222
ルト	-12.7223
▁富士	-12.7225
してください	-12.7228
にどね	-12.7228
▁さゆ	-12.7229
ra	-12.7231
貴方	-12.7231
イヤー	-12.7231
ぴー	-12.7236
▁お客	-12.7236
帽	-12.7237
▁ジワ	-12.7238
▁採点	-12.7238
▁妖怪	-12.7239
▁永田	-12.7239
こぼし	-12.724
さあや	-12.724
▁海老	-12.7241
▁高木	-12.7243
▁搬	-12.7244
▁踏ん張	-12.7246
▁謝れ	-12.7251
▁レス	-12.7258
芽	-12.7259
しょんぼり	-12.7259
▁ベーコン	-12.7259
▁ばかばか	-12.7259
▁のんのん	-12.726
▁赤羽	-12.726
▁ジン	-12.726
じごろ	-12.7261
▁パニック	-12.7261
▁りょうか	-12.7266
▁気長	-12.7266
▁....!	-12.7268
▁仕様	-12.7268
ai	-12.727
▁リー	-12.7271
もち	-12.7274
▁しかけ	-12.7276
▁エンジン	-12.7278
▁那覇	-12.7279
▁ビッチ	-12.728
▁勿体無い	-12.728
▁マス	-12.7281
佑	-12.7281
うわき	-12.7282
▁くぅー	-12.7284
▁粗	-12.7285
說	-12.7286
▁si	-12.7289
▁アカ	-12.7289
▁マルチ	-12.729
フル	-12.7292
▁哪	-12.7292
▁⛄	-12.7293
あんね	-12.7296
▁アリオ	-12.7297
▁稲	-12.7297
誌	-12.7298
▁仕上げ	-12.7298
▁ナイキ	-12.7299
かれし	-12.7299
▁わるー	-12.73
ですか	-12.7301
▁寒気	-12.7303
▁さつき	-12.7303
らく	-12.7306
▁不調	-12.7306
の定	-12.7308
▁ウッ	-12.7308
立て	-12.7308
▁尊	-12.7309
丸く	-12.731
▁リンク	-12.731
▁すぅー	-12.7312
▁すわ	-12.7313
ねだり	-12.7314
してた	-12.7315
索	-12.7318
▁婚約	-12.7318
▁メロンパン	-12.7318
▁うっかり	-12.7319
洋	-12.7323
▁ゃんこ	-12.7326
▁キム	-12.7327
ほっぺた	-12.7327
▁web	-12.7327
▁ぷりん	-12.7331
▁ココス	-12.7336
▁ふゆ	-12.7336
▁エピソード	-12.7338
▁アメトーク	-12.7338
▁芸術	-12.7338
▁疑い	-12.7338
▁げり	-12.734
▁ca	-12.7341
▁千夏	-12.7342
▁タイツ	-12.7344
▁メル	-12.7344
充	-12.7345
▁ぁちゃん	-12.7348
▁乱れ	-12.7352
▁違え	-12.7354
▁ゃな	-12.7356
つながっ	-12.7357
▁ハチ公	-12.7358
▁頼もしい	-12.7358
▁絶叫	-12.7358
▁入浴	-12.7359
▁遺伝子	-12.7359
▁気まず	-12.7359
▁増田	-12.7359
▁溜め込	-12.736
us	-12.7361
こうだい	-12.7367
▁ふろー	-12.7368
低速	-12.7368
▁⚽	-12.7373
管理	-12.7373
▁つよく	-12.7377
▁紅	-12.7377
▁ジョー	-12.7377
▁ゅきしゅき	-12.7377
ネタ	-12.7378
ながら	-12.7378
▁フードコー	-12.7379
▁野口	-12.7379
▁折り返し	-12.738
▁関節	-12.738
ここら	-12.738
▁暮ら	-12.7381
▁高島	-12.7385
▁タカ	-12.7386
▁❤❤❤	-12.7388
▁スペシャル	-12.7397
▁トトロ	-12.7397
▁石原	-12.7398
▁長岡	-12.7403
▁ポロ	-12.7407
▁見当た	-12.7407
▁にぃー	-12.7412
の人	-12.7417
🐢	-12.7417
▁スクワット	-12.7417
ぽかぽか	-12.7418
▁機内	-12.7419
▁根本	-12.742
張り	-12.7422
▁利	-12.7427
泉	-12.7428
▁けが	-12.7429
▁のろけ	-12.743
マック	-12.7434
▁-;	-12.7434
▁!!❤	-12.7436
▁ウォーキング	-12.7437
▁スムーズ	-12.7437
▁モノレール	-12.7437
▁コンセント	-12.7437
▁宣伝	-12.7437
並	-12.744
▁トロ	-12.7441
▁リーグ	-12.7441
▁言語	-12.7443
問題	-12.7448
かろ	-12.7448
んぱ	-12.7449
恋	-12.7451
▁ぁぁぁぁあ	-12.7451
▁ぴた	-12.7452
▁炊	-12.7455
デス	-12.7457
▁ぶっ飛ば	-12.7457
🚘	-12.7457
▁ビンゴ	-12.7458
▁ムチ	-12.7458
▁急げ	-12.746
▁因み	-12.7463
置	-12.7465
▁なまじ	-12.7465
▁建	-12.7466
▁すごす	-12.7469
モリ	-12.7474
🍊	-12.7477
twice	-12.7477
▁名刺	-12.7477
▁へんしん	-12.7478
▁カナダ	-12.7479
スク	-12.748
っこり	-12.748
ええええ	-12.7481
おう	-12.7483
▁キャー	-12.7488
ぺこ	-12.7491
▁ょちゃん	-12.7491
くなん	-12.7492
段落	-12.7493
昨年	-12.7494
▁駿	-12.7495
▁拾い	-12.7497
▁ビタミン	-12.7498
▁披露	-12.7498
ねぼすけ	-12.7498
番目	-12.7498
ほんま	-12.7501
▁づき	-12.7502
わるかっ	-12.7505
▁詰め込	-12.7516
▁オオカミ	-12.7518
▁予備	-12.7518
▁イヤリング	-12.7518
チーズ	-12.7523
▁るす	-12.7524
▁いたぁ	-12.7527
▁よいー	-12.7527
▁裏切り	-12.7528
▁フード	-12.7529
▁江	-12.753
垣	-12.7535
備	-12.7537
▁かぼちゃ	-12.7538
▁激おこ	-12.7538
▁果物	-12.7539
運	-12.754
幹	-12.754
▁転勤	-12.754
▁喝	-12.7541
▁腰痛	-12.7544
▁医	-12.7546
▁救い	-12.7546
かく	-12.7553
▁たんち	-12.7554
▁ゃった	-12.7554
▁田村	-12.7559
▁とんとん	-12.756
けとる	-12.7562
▁全部好き	-12.7565
▁敷	-12.7565
▁バチ	-12.7572
▁恒例	-12.7578
▁ソフトクリーム	-12.7579
▁りゅうせい	-12.7579
▁🧚	-12.7579
▁タケ	-12.7581
木金	-12.7582
▁⚰	-12.7583
▁ぱお	-12.7583
▁洗え	-12.7585
惚れ	-12.7585
▁後藤	-12.7586
ハー	-12.7589
ガール	-12.7598
▁果て	-12.7599
▁白菜	-12.7604
▁ひび	-12.7604
わたる	-12.7605
▁大津	-12.7606
炒め	-12.7606
ニュース	-12.7606
▁ストック	-12.7609
▁ウェイ	-12.7612
もり	-12.7614
▁タワー	-12.7618
▁コミュニケーション	-12.7619
▁キャッチボール	-12.7619
コール	-12.7621
ピン	-12.7621
▁ぐみ	-12.7626
八	-12.7626
コーヒー	-12.763
▁ゲイ	-12.7631
ちょびっと	-12.7631
▁物語	-12.7632
あやまっ	-12.7633
書こ	-12.7633
やって	-12.7639
▁ウキャキャ	-12.764
▁ルンルン	-12.764
▁きなこ	-12.764
▁スロット	-12.764
▁美咲	-12.764
▁露出	-12.764
▁すずか	-12.7644
亜	-12.765
▁🦖	-12.7651
▁濃く	-12.7653
▁しょっく	-12.7653
▁ひざ	-12.7655
挫	-12.7659
▁アトラクション	-12.766
▁フィリピン	-12.766
▁ドコモ	-12.766
▁宴会	-12.766
▁ほらほら	-12.7661
客	-12.7671
すばる	-12.7671
▁かず	-12.7674
イング	-12.7677
▁額	-12.7678
▁かげ	-12.7679
医	-12.7679
▁河原町	-12.768
いって	-12.7684
くしょ	-12.7686
▁引き続	-12.7686
やっ	-12.7686
度目	-12.769
湖	-12.7693
妻	-12.7693
▁さおり	-12.7698
et	-12.7699
▁しょぼん	-12.77
▁レッドブル	-12.7701
おじゃま	-12.7702
▁キュー	-12.7713
幸	-12.7715
ペン	-12.7716
▁バイキング	-12.7722
▁東西	-12.7722
ミス	-12.7722
▁存	-12.7723
▁おくり	-12.7724
フォ	-12.7726
▁かゆ	-12.7727
らない	-12.7727
▁透け	-12.773
▁ったらしい	-12.773
▁ほわ	-12.7731
っちゅう	-12.7731
▁気軽	-12.7732
ゆずき	-12.7734
▁増す	-12.7737
鬼	-12.7738
隣	-12.7739
▁滞在	-12.7742
▁再現	-12.7742
▁戦う	-12.7743
▁強化	-12.7748
▁さは	-12.7748
▁せいら	-12.7749
の国	-12.7752
▁アジ	-12.7753
▁たんす	-12.7754
▁こあ	-12.7755
▁思い出さ	-12.7755
▁ておも	-12.7756
つない	-12.7757
時候	-12.776
酸	-12.776
▁日大	-12.7762
▁ブーメラン	-12.7763
▁蹴っ	-12.7763
▁カウントダウン	-12.7763
▁パイセン	-12.7763
▁維持	-12.7763
こみ	-12.7763
ハート	-12.7764
co	-12.7765
ひまり	-12.7765
▁縮	-12.7769
ほてる	-12.7771
こおる	-12.7771
▁大崎	-12.7772
▁春日	-12.7774
▁いさ	-12.7779
▁ファイトー	-12.7781
則	-12.7783
兆	-12.7784
授業	-12.7784
▁提供	-12.7784
km	-12.7785
▁ケガ	-12.7785
▁脱ぐ	-12.7785
▁日高	-12.7785
▁グラ	-12.7787
▁ハンター	-12.7788
你	-12.7791
▁タルト	-12.7791
だか	-12.7796
▁乗り切れ	-12.7796
っしょい	-12.7798
▁りよ	-12.7799
▁隠	-12.7803
▁ロキソニン	-12.7804
▁肌荒	-12.7804
抜	-12.7805
▁視力	-12.7806
▁途切れ	-12.7806
通学	-12.7806
▁サシ	-12.7807
▁細かく	-12.7807
▁かずみ	-12.7808
▁肉食	-12.781
▁中古	-12.781
▁マコ	-12.781
▁濁	-12.7812
▁バイブ	-12.7812
なかった	-12.7815
▁プレー	-12.7819
用品	-12.782
▁染み	-12.7821
鳴	-12.7823
▁ラフ	-12.7824
▁ハァ	-12.7824
トロ	-12.7825
▁ミニストップ	-12.7825
▁太鼓	-12.7825
▁インナー	-12.7826
純	-12.7827
ゆきち	-12.7827
▁ぬき	-12.7828
▁泰	-12.7829
とお	-12.783
▁ぜみ	-12.7831
づき	-12.7832
▁蛙	-12.7834
▁リレー	-12.7834
わたん	-12.7834
待と	-12.7836
▁まにあ	-12.7837
裂	-12.7845
▁ソワソワ	-12.7846
▁ブロッコリー	-12.7846
▁惣菜	-12.7846
▁脈	-12.7848
▁手当	-12.7848
ステーキ	-12.7851
腕	-12.7851
すなお	-12.7851
▁ベロ	-12.7851
▁教わ	-12.7854
▁ブリ	-12.7857
倒	-12.786
▁ぐう	-12.7861
▁リスニング	-12.7867
▁認定	-12.7867
▁フライング	-12.7867
▁川上	-12.7869
▁づらく	-12.7876
耳	-12.7883
▁はずれ	-12.7885
▁レオ	-12.7885
▁大盛	-12.7887
▁麦	-12.7888
いき	-12.7888
▁ウインナー	-12.7888
▁おたがい	-12.7888
▁グアム	-12.7888
▁深呼吸	-12.7888
▁サビ	-12.7889
▁地面	-12.789
よこせ	-12.7894
▁ファミリー	-12.7908
▁模擬	-12.7909
▁自衛隊	-12.7909
▁横須賀	-12.7909
ブレイク	-12.7909
▁あろ	-12.7909
▁治せ	-12.791
▁役員	-12.791
▁はちみつ	-12.791
うたん	-12.7915
▁おさん	-12.7918
奴	-12.7919
▁ポケ	-12.7919
▁ほうれん	-12.7921
▁so	-12.7923
これ	-12.7925
▁キミ	-12.7929
▁アウター	-12.793
▁レシート	-12.793
▁三鷹	-12.793
▁へた	-12.793
まとまっ	-12.7932
めっちゃ	-12.7935
▁祈り	-12.7935
▁青山	-12.7936
すると	-12.7937
▁ボン	-12.7938
▁すたん	-12.794
▁発音	-12.7941
▁振込	-12.7943
送り	-12.7943
アリ	-12.7943
もと	-12.7944
しろ	-12.7949
めたん	-12.7949
▁じわじわ	-12.795
▁仮免	-12.795
▁モニコ	-12.7951
▁ホームページ	-12.7951
▁遅らせ	-12.7952
だす	-12.7952
▁所沢	-12.7953
いいよる	-12.7957
あれ	-12.7959
▁大森	-12.796
▁でっか	-12.796
▁航空	-12.7962
すごそ	-12.7962
▁からぁ	-12.7963
el	-12.7967
▁かわいか	-12.7967
▁捻	-12.7967
▁ぴも	-12.7968
さそっ	-12.7969
訓	-12.7972
🎁	-12.7972
▁売り上げ	-12.7972
ンド	-12.7974
かいかい	-12.7974
▁痒く	-12.7975
がれ	-12.7978
ポー	-12.7981
▁たたた	-12.7981
▁チカ	-12.7985
っきゃ	-12.7986
枝	-12.7986
▁婆	-12.7987
コー	-12.7988
▁灬	-12.7992
▁しゅっ	-12.7992
▁トイレットペーパー	-12.7993
▁ペロペロ	-12.7993
💀	-12.7993
▁幕張	-12.7993
▁優柔	-12.7993
▁京急	-12.7993
▁サマー	-12.7997
▁固め	-12.7998
▁構え	-12.8005
▁ガール	-12.8008
だからこそ	-12.8009
▁しゅうと	-12.8012
ぶし	-12.8013
バテ	-12.8013
▁接待	-12.8014
▁補助	-12.8014
▁フライト	-12.8015
▁キタ	-12.8015
▁アクア	-12.8019
▁剃り	-12.802
▁狭く	-12.8022
▁つたえ	-12.8022
▁ソー	-12.8026
▁へそ	-12.8026
にやける	-12.8029
▁づつ	-12.8029
▁コロ	-12.803
商	-12.8031
▁次い	-12.8031
你們	-12.8031
友達	-12.8032
▁朝飯	-12.8033
サイト	-12.8033
▁キングダム	-12.8035
▁伝説	-12.8036
▁チャック	-12.8036
はるぴ	-12.8037
▁サイド	-12.8039
▁瑠	-12.8043
▁並び	-12.8044
▁粘	-12.8045
▁シゲ	-12.8046
▁逃	-12.8047
▁眠たか	-12.8047
すりゃ	-12.8052
効果	-12.8056
▁パズル	-12.8057
▁仕組	-12.8057
▁オーディ	-12.8057
▁武器	-12.8057
▁小さな	-12.8059
掛け	-12.8061
▁ぐろ	-12.8063
▁しばし	-12.8064
▁うらやまし	-12.8065
▁ぴこ	-12.8065
▁浮かれ	-12.8065
▁グラウンド	-12.8065
▁atm	-12.8065
▁sa	-12.8067
▁漬け	-12.8068
▁平井	-12.8072
▁ゃんお	-12.8073
密	-12.8073
▁乗り物	-12.8073
ee	-12.8075
▁いたずら	-12.8078
▁ローストビーフ	-12.8078
▁実践	-12.8078
▁こらこら	-12.8078
▁徳島	-12.8078
▁ダメー	-12.8079
▁メチャ	-12.8079
▁做	-12.8079
あと	-12.8092
▁ファイティン	-12.8094
▁ぇん	-12.8095
▁デイ	-12.8095
▁鎖	-12.8098
🚙	-12.8099
▁マカロン	-12.8099
▁警備	-12.8099
▁まいまい	-12.81
▁むずいな	-12.8102
発表	-12.8102
▁あきな	-12.8104
▁トン	-12.8105
あった	-12.8113
▁dv	-12.8117
▁遺伝	-12.8119
🐾	-12.8121
▁オコ	-12.8121
▁つかり	-12.8122
択	-12.8124
▁ふにゃ	-12.8127
▁ラク	-12.8133
▁おっしゃ	-12.8135
▁溢れる	-12.8137
▁お待	-12.8138
ぶる	-12.8141
▁建築	-12.8142
▁うじ	-12.8143
▁ゆあ	-12.8145
育	-12.8146
▁メス	-12.8146
相談	-12.8149
ボーイ	-12.8151
▁年取	-12.8152
つっこん	-12.8154
むら	-12.8154
向き	-12.8155
やまちゃん	-12.8155
マート	-12.8156
ョ	-12.8156
▁苦い	-12.816
▁大通り	-12.8162
▁オマ	-12.8162
▁メイド	-12.8163
▁荻窪	-12.8164
🐯	-12.8164
▁接続	-12.8164
▁リセット	-12.8164
▁注目	-12.8165
▁ーノ	-12.8165
▁実写	-12.8165
ex	-12.8165
焼け	-12.8167
▁;;;;	-12.8171
▁ビンタ	-12.8177
杏ちゃん	-12.818
▁アナ	-12.8182
▁瀬	-12.8182
▁かしこい	-12.8184
衛	-12.8185
▁仮装	-12.8186
▁身近	-12.8186
▁ひゃく	-12.8186
あっちゃん	-12.8187
▁sex	-12.8189
▁かとう	-12.8189
こむ	-12.8191
▁哲学	-12.8193
令	-12.8194
▁傳	-12.8194
寒	-12.8194
奏	-12.8195
映え	-12.8195
▁きこ	-12.8196
▁稽古	-12.8197
▁しょぼい	-12.82
▁なのは	-12.8202
▁ぁん	-12.8202
カワ	-12.8205
▁交流	-12.8207
▁クルマ	-12.8209
▁ねむれ	-12.8213
▁頼も	-12.8213
なす	-12.8214
▁チア	-12.8215
▁エプロン	-12.8217
沙	-12.8217
障害	-12.8218
ァァァァ	-12.8219
▁大声	-12.8224
▁りんこ	-12.8224
▁芸	-12.8225
▁マイペース	-12.8229
▁有難い	-12.8233
から目	-12.8237
▁珍し	-12.8238
づか	-12.8239
▁見ろ	-12.8239
▁これこれ	-12.8241
堀	-12.8241
嗎	-12.8242
▁ぇよ	-12.8242
ガス	-12.8245
ばかちん	-12.8248
▁キーホルダー	-12.825
よりまし	-12.8251
▁背負	-12.8252
▁ぱんだ	-12.8256
▁歪	-12.8256
▁ぴは	-12.8256
ぶら	-12.826
▁フー	-12.826
くさん	-12.826
▁安田	-12.8264
▁いかつい	-12.8265
なちゃん	-12.8266
▁じゅっ	-12.8268
▁エル	-12.827
▁隔	-12.827
▁ケチャップ	-12.8272
▁路上	-12.8272
ぽーん	-12.8276
▁により	-12.8278
▁スクール	-12.8278
▁...!?	-12.8283
▁ころー	-12.8285
▁すぎや	-12.8289
りさこ	-12.8289
キリ	-12.8291
架	-12.8293
▁ぱら	-12.8294
▁マヨ	-12.8294
▁韓	-12.8295
▁リス	-12.8295
メント	-12.8298
▁嫌がら	-12.8302
▁洗顔	-12.8303
▁内科	-12.8303
▁~!?	-12.8304
▁エマ	-12.8308
ナル	-12.831
▁酒飲	-12.8312
▁なごや	-12.8314
▁果	-12.8315
▁職業	-12.8316
▁もうこん	-12.8317
シティ	-12.8317
▁吸え	-12.8322
▁貸切	-12.8324
▁言えない	-12.8325
▁ぼろ	-12.8325
ちえみ	-12.8325
▁キヨ	-12.8328
▁縫	-12.8329
▁スマ	-12.8332
例	-12.8335
主義	-12.8335
▁アーカイブ	-12.8337
▁good	-12.8337
▁iq	-12.8338
▁保険証	-12.8338
▁ハメ	-12.8339
▁オス	-12.8341
だるかっ	-12.8342
おみく	-12.8343
ああああ	-12.8344
▁やばか	-12.8345
包ま	-12.835
覧	-12.8353
????	-12.8353
けして	-12.8356
mm	-12.8358
返事	-12.8361
▁ゲート	-12.8362
▁くらっ	-12.8362
▁正式	-12.8363
▁出来上が	-12.8363
▁ガリ	-12.8366
こま	-12.8366
いまだに	-12.8366
▁聴け	-12.837
アアアア	-12.8378
▁龍太	-12.8379
トレ	-12.838
スープ	-12.838
塔	-12.8381
▁河合	-12.8382
▁帰還	-12.8382
圭	-12.8383
ばし	-12.8385
付き	-12.8386
▁可愛らしい	-12.8387
▁スリー	-12.8387
てけない	-12.8389
▁日光	-12.8393
入金	-12.8394
▁わらえ	-12.8397
▁どこでも	-12.8403
▁運営	-12.8404
▁あやし	-12.8404
▁シーツ	-12.8405
▁特集	-12.8406
いつものところ	-12.8407
▁かなた	-12.8409
ブラ	-12.8409
▁ベー	-12.841
▁預か	-12.8412
ッス	-12.8412
▁たいこ	-12.8419
ニング	-12.8423
▁稜	-12.8425
▁複数	-12.8425
▁大手町	-12.8426
▁メンテ	-12.8426
▁食いしん	-12.8426
はん	-12.8426
▁usb	-12.8427
▁吸収	-12.8427
▁とける	-12.8428
▁ダイ	-12.8429
か月	-12.8429
▁郵	-12.8432
▁火事	-12.8432
雪	-12.8434
いよい	-12.8439
▁あこ	-12.844
▁菊	-12.844
タウン	-12.844
▁蛇	-12.844
いぶん	-12.8444
▁さぼ	-12.8445
▁めんち	-12.8446
▁みなとみらい	-12.8448
▁アボカド	-12.8448
▁サンシャイン	-12.8448
▁モバイルバッテ	-12.8448
簿	-12.8448
▁グーグル	-12.8448
▁両手	-12.8449
ふかし	-12.845
子ちゃ	-12.845
▁くだせ	-12.8452
ながかっ	-12.8454
にょ	-12.8455
▁初回	-12.8455
▁ja	-12.846
▁ii	-12.8463
!!!!	-12.8465
典	-12.8469
▁イギリス	-12.847
▁拡散	-12.847
🚌	-12.847
▁決断	-12.847
▁騒がせ	-12.847
五	-12.847
▁津	-12.8473
▁インスト	-12.8473
▁まなか	-12.8473
▁一起	-12.8477
▁ゆうちょ	-12.8477
▁家電	-12.8477
丹	-12.8478
▁マッ	-12.848
亮	-12.848
フト	-12.8481
▁どうぶつの	-12.8483
▁スリ	-12.8484
▁委員会	-12.8485
ごりら	-12.8487
▁ドクター	-12.849
▁ぱにゃあ	-12.8492
▁明治	-12.8493
▁韓国料理	-12.8493
▁イラッ	-12.8495
▁カッ	-12.85
▁いー	-12.85
▁五月	-12.8501
健	-12.8502
ショット	-12.8503
▁之	-12.8507
▁??☺	-12.8507
▁ブタ	-12.8509
おじいさん	-12.851
▁うらら	-12.851
ドゥ	-12.8511
▁扁桃	-12.8514
▁恐竜	-12.8514
▁義務	-12.8514
ry	-12.8515
▁東急	-12.8515
▁上映	-12.8515
▁井	-12.8517
▁痺れ	-12.8518
▁声優	-12.8519
ロール	-12.852
▁ひねくれ	-12.8522
pr	-12.8522
▁カメ	-12.8522
打ち	-12.8523
▁市民	-12.8523
べん	-12.8524
停	-12.8524
▁びゅー	-12.8525
ライス	-12.8525
刺身	-12.8527
▁~;;	-12.853
▁軟	-12.8531
▁振り向	-12.8531
▁履け	-12.8531
▁鈴	-12.8532
寄ら	-12.8534
▁御堂筋	-12.8537
▁ネイビー	-12.8537
▁亜矢	-12.8537
▁よっし	-12.854
チー	-12.8542
▁引き止め	-12.8543
▁あふれ	-12.8544
▁もったいな	-12.8544
▁ゲス	-12.8545
▁マッチ	-12.8547
看	-12.8549
▁歓	-12.855
▁車検	-12.855
ホーム	-12.8551
自然	-12.8552
ジョン	-12.8554
▁卓	-12.8554
だかんだ	-12.8557
▁銀魂	-12.8559
▁配置	-12.8559
▁工藤	-12.8559
けりゃ	-12.8559
▁勿	-12.856
▁首藤	-12.856
▁コツ	-12.8561
▁ごっちゃ	-12.8562
ビール	-12.8572
▁掛か	-12.8573
照	-12.8575
▁ゃの	-12.8576
▁ハムスタ	-12.8578
▁どど	-12.8579
▁エース	-12.8579
膜	-12.858
▁年寄り	-12.8581
▁柔道	-12.8581
▁あたらしい	-12.8581
▁米津	-12.8582
▁いひ	-12.8582
▁梅干	-12.8582
▁スカイ	-12.8586
ワイン	-12.8586
▁ユニ	-12.8589
▁菓子	-12.8589
▁エイ	-12.8592
▁ねぼけ	-12.8593
たの	-12.8593
カス	-12.8594
▁せんべい	-12.8594
▁会長	-12.8595
塩	-12.8597
わりかし	-12.8598
豚	-12.86
ホイ	-12.8602
▁ゴリゴリ	-12.8604
▁tv	-12.8604
▁浪人	-12.8604
うえの	-12.8605
▁心がけ	-12.8605
▁あふ	-12.8605
▁三浦	-12.8605
▁まつげ	-12.8606
▁登山	-12.8607
▁投資	-12.8608
うまうま	-12.861
▁ゆうわ	-12.861
シップ	-12.8612
トル	-12.8613
▁チリ	-12.8614
▁ドラゴン	-12.8614
▁ながく	-12.8618
▁ふあん	-12.8622
▁パーキング	-12.8623
▁ありま	-12.8624
待	-12.8625
▁アクティブ	-12.8626
▁サラサラ	-12.8626
▁保健室	-12.8628
▁岡本	-12.8628
▁社内	-12.8628
▁ケロ	-12.8628
めいちゃん	-12.8629
▁国内	-12.863
na	-12.863
▁手伝え	-12.8634
▁取り戻	-12.8636
▁マルイ	-12.8637
▁亭	-12.8638
ビン	-12.8645
▁しっと	-12.8646
ゆったん	-12.8646
▁きだ	-12.8647
笠原	-12.8648
負け	-12.8649
▁apple	-12.8649
▁鋭い	-12.865
▁sm	-12.865
ッサ	-12.8652
▁西田	-12.8653
▁玩	-12.8654
▁リン	-12.8654
しってん	-12.866
▁ぺっ	-12.866
▁かるく	-12.8661
▁啓	-12.8661
の間	-12.8664
te	-12.867
▁ワロチ	-12.8671
▁拘束	-12.8672
槽	-12.8672
👯	-12.8672
▁加湿	-12.8672
▁ヤクザ	-12.8672
▁自己満	-12.8672
またね	-12.8672
跡	-12.8672
交換	-12.8673
▁あさひ	-12.8675
▁ファー	-12.8676
▁お嬢様	-12.8676
▁別府	-12.8676
ちょっと	-12.8679
it	-12.868
ri	-12.8681
▁弾き	-12.8684
▁ちーた	-12.8684
▁なんど	-12.8686
▁牧場	-12.8686
▁ふとっ	-12.8687
とい	-12.8688
軍	-12.8691
▁てるてる	-12.8691
ちょっかい	-12.8692
▁はやいー	-12.8693
ヲ	-12.8694
▁共に	-12.8694
🍮	-12.8694
▁モノマネ	-12.8694
▁トンネル	-12.8694
▁うろうろ	-12.8694
▁突破	-12.8694
▁ワイシャツ	-12.8695
▁新曲	-12.8696
会議	-12.8697
▁挑	-12.87
▁そめ	-12.87
▁淳	-12.8701
▁そし	-12.8702
▁報	-12.8705
▁さとみ	-12.8706
▁思い込	-12.8707
▁襲い	-12.8709
▁スゴ	-12.8713
▁ネム	-12.8715
▁ほそ	-12.8715
▁やれやれ	-12.8717
▁小田原	-12.8717
▁竹内	-12.8718
へええ	-12.8718
たすかる	-12.8719
▁吹き出	-12.872
外科	-12.8721
▁ヴ	-12.8722
どころ	-12.8724
いたす	-12.8726
▁えげつない	-12.8726
ねむたく	-12.8727
▁ブラウン	-12.8728
いえい	-12.873
▁-。	-12.8734
▁ポリ	-12.8734
▁日吉	-12.8736
りゅうき	-12.8736
▁🙍	-12.8737
▁掘	-12.8739
很	-12.8739
▁ストイック	-12.874
▁球技	-12.874
▁日菜	-12.874
▁差し	-12.874
▁乾杯	-12.8741
▁ギューっ	-12.8741
はなび	-12.8742
ゆいみ	-12.8742
▁霊	-12.8744
▁~☺✨	-12.8746
宣	-12.8746
ダヨ	-12.8748
▁ざき	-12.8748
▁デコ	-12.8757
▁いかに	-12.8757
▁グリ	-12.8759
与	-12.876
▁恐らく	-12.8763
▁ドラゴンボール	-12.8763
▁ピッタリ	-12.8763
▁カープ	-12.8763
▁タイムライン	-12.8763
▁情けない	-12.8766
▁ざかった	-12.8768
▁出血	-12.8768
▁吹田	-12.8768
▁スッ	-12.8771
▁隅	-12.8771
きこえる	-12.8775
分け	-12.8779
ショー	-12.878
フォー	-12.8781
▁張り	-12.8785
嘉	-12.8785
南蛮	-12.8785
▁モンブラン	-12.8785
▁血液	-12.8786
▁メッチャ	-12.8786
さゆき	-12.8793
ひき	-12.8794
慎	-12.8796
ブン	-12.8798
▁メイ	-12.8801
▁小学	-12.8808
▁カチューシャ	-12.8808
▁レジュメ	-12.8808
なにやってんの	-12.8808
▁フィルム	-12.8808
でれでれ	-12.8808
うきうき	-12.8808
▁高槻	-12.8809
▁車内	-12.881
▁ぐぐ	-12.881
りちゃ	-12.8811
▁サロン	-12.8816
▁教師	-12.8821
▁いび	-12.8822
トリ	-12.8824
▁ぃぃぃ	-12.8824
ひろの	-12.8825
がく	-12.8826
▁満月	-12.8829
▁コンディション	-12.8831
▁大晦	-12.8831
▁誇	-12.8831
▁現代文	-12.8836
▁すみれ	-12.8839
ライダー	-12.884
導	-12.8841
▁ジャーン	-12.8844
やき	-12.8846
ぐり	-12.8846
ムーン	-12.8846
ゅ	-12.8847
▁旭	-12.885
▁ドーム	-12.8851
▁出そ	-12.8852
▁ざいな	-12.8853
阪	-12.8854
▁ブログ	-12.8855
▁ガチガチ	-12.8855
▁フム	-12.8855
てくだ	-12.8856
つね	-12.8859
やる	-12.886
▁サメ	-12.886
▁売上	-12.8861
名字	-12.8862
▁久保	-12.8863
なって	-12.8864
▁漢	-12.8867
▁いぶ	-12.8868
🥰	-12.8868
候	-12.8868
弾	-12.887
▁めも	-12.8873
▁こむ	-12.8873
▁こんびに	-12.8878
▁通販	-12.8878
▁各駅	-12.8881
ーク	-12.8881
▁けんしん	-12.8884
▁vs	-12.8885
ぐる	-12.8887
▁ウェア	-12.8888
ss	-12.8888
軒	-12.8889
▁ボクシング	-12.889
ァー	-12.889
ススメ	-12.8891
as	-12.8891
▁童	-12.8891
ヒョ	-12.8892
▁マリカ	-12.8894
あわせる	-12.8895
スポット	-12.8895
兄ちゃん	-12.8896
たいして	-12.8896
広場	-12.8899
恵	-12.8899
よぉ	-12.89
▁親知らず	-12.8901
▁炊飯	-12.8902
▁降ろ	-12.8907
武	-12.8915
▁メガ	-12.8916
物語	-12.8917
▁みね	-12.8919
✨✨	-12.892
デュ	-12.8922
▁無性	-12.8922
▁宇宙人	-12.8922
▁エイプリルフール	-12.8924
▁特技	-12.8926
まぶた	-12.8926
▁いぶき	-12.8929
▁きす	-12.8929
ミュ	-12.893
ly	-12.893
▁正義	-12.8931
▁シャイ	-12.8932
なると	-12.8932
▁収入	-12.8935
▁やんちゃ	-12.8943
空港	-12.8945
びちょびちょ	-12.8947
🧞	-12.8947
▁尼崎	-12.8947
▁宝塚	-12.8947
什么	-12.8948
おこす	-12.8948
▁ベビー	-12.8948
▁厂	-12.8952
▁革	-12.8953
ブレ	-12.8953
▁なんしょ	-12.8953
▁🤳	-12.8954
▁ずみ	-12.8955
ーなん	-12.896
▁セブ	-12.8961
▁境	-12.8961
とどい	-12.8962
ha	-12.8965
▁肺	-12.8967
▁柳	-12.8969
潔	-12.897
▁キャンペーン	-12.897
▁チームラボ	-12.897
▁更衣	-12.8971
大概	-12.8972
▁加え	-12.8973
▁張	-12.8976
本名	-12.8976
▁生徒会	-12.8976
▁むりか	-12.8976
りおん	-12.8979
▁立た	-12.8984
▁練馬	-12.8985
ぁぁ	-12.8986
▁中川	-12.8987
なおみ	-12.8993
仙	-12.8993
▁カワウソ	-12.8994
▁琵琶湖	-12.8994
🍃	-12.8994
🎤	-12.8994
▁視界	-12.8994
▁トントン	-12.8994
▁ボールペン	-12.8994
▁ぷぷぷ	-12.8994
だぁ	-12.8994
▁レンジ	-12.8996
▁待合	-12.8996
範囲	-12.8996
ドンキー	-12.8996
▁あたい	-12.8999
▁のりかえ	-12.9001
▁手数	-12.9001
にゃん	-12.9001
買い	-12.9001
▁かたん	-12.9002
▁有り	-12.9004
▁公演	-12.9004
▁あんこ	-12.9008
っぽい	-12.9009
▁☁	-12.9015
▁かば	-12.9016
こちょこちょ	-12.9017
▁死刑	-12.9017
やばい	-12.9019
▁ピッ	-12.902
つこ	-12.9027
▁上位	-12.9027
▁りある	-12.9029
▁淡	-12.9032
▁すませ	-12.9033
▁ゃいけない	-12.9035
▁ちろ	-12.9035
エール	-12.9037
▁キリン	-12.9038
もらえれ	-12.9039
▁とぼけ	-12.9039
まゆは	-12.904
▁zoom	-12.9041
▁ご主人様	-12.9041
▁スパイダーマン	-12.9041
😼	-12.9041
▁地雷	-12.9041
▁香港	-12.9041
▁志村	-12.9041
ジン	-12.9042
▁武田	-12.9042
りんと	-12.9044
▁🤛	-12.9045
逃避	-12.9046
▁すわれ	-12.9047
▁しゃあ	-12.9053
▁イチャ	-12.9053
▁不味	-12.9053
かえる	-12.9055
気づけ	-12.9055
グリ	-12.9058
▁寝付け	-12.9059
▁ふよ	-12.9062
▁題名	-12.9064
▁開放	-12.9065
▁ざと	-12.9066
県民	-12.9067
▁ちはや	-12.9067
▁🥺💗	-12.9068
▁おそー	-12.9069
宅	-12.907
体操	-12.9072
▁イス	-12.9074
▁キャッ	-12.9074
▁三島	-12.9076
▁飯田	-12.9077
▁めそ	-12.9077
▁じさ	-12.9077
こだから	-12.9077
▁浴	-12.9083
▁化け	-12.9084
▁オーダー	-12.9084
▁やっぴ	-12.9084
▁墓参	-12.9088
▁熊谷	-12.9088
▁名鉄	-12.9088
▁千紗	-12.9088
▁解禁	-12.9088
▁踏み	-12.9089
▁締め切り	-12.909
にょー	-12.9092
▁くもり	-12.9092
プロ	-12.9092
ニョ	-12.9094
▁マイクラ	-12.9094
▁ぶーん	-12.9096
▁出演	-12.9096
ヶ	-12.9098
▁ズ	-12.9098
この	-12.9099
▁ひゅー	-12.91
▁チュ	-12.91
オー	-12.91
▁ワロ	-12.91
▁さぶ	-12.9104
ニン	-12.9104
▁柿	-12.9106
▁けんぴ	-12.9108
磨く	-12.9111
▁久留米	-12.9111
弊	-12.9111
🦆	-12.9111
▁トライアル	-12.9112
▁倫理	-12.9112
▁対処	-12.9112
▁キムチ鍋	-12.9112
▁沙也	-12.9112
▁モミ	-12.9113
▁飲食	-12.9114
▁僕ら	-12.9115
▁マリカー	-12.9121
▁くるし	-12.9125
たろう	-12.9126
んけん	-12.9126
▁察	-12.9128
ネル	-12.913
暮	-12.9131
ゆい	-12.9134
▁モコモコ	-12.9135
▁嗅ぎ	-12.9135
▁過保護	-12.9135
▁鬼畜	-12.9135
▁有意	-12.9135
▁平常	-12.9136
▁開店	-12.9136
▁うつら	-12.9137
ゆっこ	-12.9138
▁にゃむ	-12.914
返	-12.9143
▁やばぁ	-12.9148
▁こぉ	-12.9148
🤷	-12.9149
▁しっぽ	-12.9151
神宮	-12.9153
カイ	-12.9154
あよかった	-12.9154
はや	-12.9154
▁ハブ	-12.9155
▁ゆるせ	-12.9156
ンドリー	-12.9157
▁博物館	-12.9157
▁肘	-12.9158
▁吠え	-12.9159
🍞	-12.9159
▁パートナー	-12.9159
▁糞	-12.9161
▁煙	-12.9163
▁転ば	-12.9163
▁づく	-12.9166
▁発表会	-12.9171
遊び	-12.9171
▁怠	-12.9171
メイト	-12.9177
▁いんか	-12.9181
時期	-12.9182
どり	-12.9182
▁豊田	-12.9183
▁コントロール	-12.9183
▁ホームラン	-12.9184
▁心理学	-12.9186
失	-12.9187
▁受け取れ	-12.9189
▁描き	-12.9189
▁フン	-12.9191
▁かみて	-12.9193
▁ばね	-12.9193
▁算	-12.9198
▁まてん	-12.92
がき	-12.92
早	-12.9201
どうぞ	-12.9202
ゲット	-12.9202
▁ロシア	-12.9206
▁メロメロ	-12.9207
▁衝動	-12.9207
▁原稿	-12.9207
がし	-12.9207
むちむち	-12.9207
▁伊達	-12.9207
▁退職	-12.9207
ナカ	-12.9208
▁未練	-12.9208
▁空手	-12.9209
▁ぼーっと	-12.9211
▁一軒	-12.9212
正門	-12.9217
▁気になる	-12.9219
▁恋しく	-12.9219
▁埼	-12.9223
▁ぴろ	-12.9228
ゆたか	-12.9229
▁シンガポール	-12.923
▁セブイレ	-12.923
▁マウス	-12.9231
▁入れ替わ	-12.9232
▁ながれ	-12.9233
識	-12.9235
▁おわらせ	-12.9236
ol	-12.9241
▁最後の	-12.9241
▁錢	-12.9241
▁殺せ	-12.9241
▁グー	-12.9243
ちくび	-12.9245
▁おおきい	-12.9246
▁⚠	-12.9246
カ月	-12.9247
えとく	-12.9248
▁どか	-12.925
▁かたぁ	-12.9251
▁れみ	-12.9252
律	-12.9254
腺	-12.9254
▁ストップ	-12.9255
▁たまごっち	-12.9255
▁チラシ	-12.9255
りょ	-12.9256
▁建て	-12.9256
▁含ま	-12.9256
▁ょに	-12.9256
▁ねずみ	-12.9257
▁涼し	-12.9257
▁置け	-12.9258
待ち	-12.9261
說我	-12.9262
▁カウント	-12.9262
▁投	-12.9263
ばち	-12.9268
おけつ	-12.9268
▁老人	-12.9269
ed	-12.9276
ボー	-12.9277
柱	-12.9277
ho	-12.9278
浪	-12.9278
▁みど	-12.9278
▁カーディガン	-12.9279
💰	-12.9279
娘	-12.9279
▁わさび	-12.9279
▁パピー	-12.9279
▁野村	-12.9279
▁リンゴ	-12.928
なじみ	-12.928
ーブ	-12.9282
▁押せ	-12.9286
▁グラス	-12.9286
まだしも	-12.9288
▁ai	-12.929
ももたん	-12.9291
▁なんこ	-12.9291
✨	-12.9292
▁ローン	-12.9294
▁ゆめみ	-12.9296
▁大嫌	-12.9298
は雨	-12.9298
学校	-12.9298
▁ブラン	-12.9299
▁ユリ	-12.93
▁君の名は	-12.9303
🍫	-12.9303
▁こだま	-12.9303
▁開拓	-12.9303
▁修羅	-12.9303
▁封印	-12.9303
ず嫌い	-12.9304
▁日月	-12.9305
しちじ	-12.9305
▁こゆき	-12.9306
▁オタ	-12.9309
▁ともち	-12.931
いいもの	-12.9311
▁岸	-12.9317
▁朗	-12.9321
▁さいてい	-12.9323
▁敦	-12.9323
▁判	-12.9326
▁スタミナ	-12.9327
🤐	-12.9327
▁同伴	-12.9327
▁ギフト	-12.9327
▁駄々	-12.9327
汗	-12.9331
▁ヤマト	-12.9331
▁プル	-12.9333
▁いちげん	-12.9335
以後	-12.9338
▁綿	-12.9339
▁ぐあ	-12.9339
ボード	-12.9342
▁ラム	-12.9343
▁おもし	-12.9345
ログ	-12.9345
▁アーティスト	-12.9348
ーイ	-12.9348
呪わ	-12.9349
応え	-12.9349
▁ビリヤード	-12.9351
▁肝臓	-12.9351
▁ジャスト	-12.9352
▁役立	-12.9352
▁四国	-12.9353
▁ふぁみ	-12.9354
乗り	-12.9355
▁サイコ	-12.9356
卓	-12.9356
略	-12.9356
▁秋山	-12.9357
▁テープ	-12.9358
▁はねる	-12.9363
レーション	-12.9366
短時間	-12.9367
ぱん	-12.9368
▁体感	-12.937
▁産婦人科	-12.9375
🍌	-12.9375
▁アルバイト	-12.9375
▁バッティング	-12.9375
▁剥	-12.9376
ころころ	-12.9377
▁レディース	-12.9377
▁アイコス	-12.9378
▁しずか	-12.9379
兄弟	-12.9383
▁むこう	-12.9387
ロック	-12.9391
▁好感	-12.9393
▁チャット	-12.9395
▁岩手	-12.9395
ce	-12.9397
▁笹	-12.9397
▁ペアルック	-12.94
すやすや	-12.94
▁つるつる	-12.94
▁レタス	-12.94
▁費用	-12.94
▁不能	-12.9402
▁シュート	-12.9403
っちゃ	-12.9403
▁いまだ	-12.9404
▁かんち	-12.9404
かのこ	-12.9405
▁だいだい	-12.9405
▁小原	-12.9407
▁むりだよ	-12.9407
うちに	-12.9408
▁むき	-12.9409
年齢	-12.941
▁製	-12.9414
▁箸	-12.9415
▁ぷう	-12.942
▁柔らか	-12.9422
▁お祈り	-12.9424
僚	-12.9424
🍰	-12.9424
▁インスタライブ	-12.9425
▁ハズレ	-12.9425
▁合同	-12.9425
貴族	-12.9425
▁解き	-12.9426
▁優理	-12.9426
▁バブ	-12.9428
ルーム	-12.9429
たのしむ	-12.9429
丘	-12.9434
強	-12.9434
▁渚	-12.9437
☺	-12.9437
▁このは	-12.9438
▁章	-12.9439
▁駆け	-12.9439
▁せれ	-12.9442
あわわ	-12.9443
▁ぃす	-12.9444
▁ぁくん	-12.9444
わたしたち	-12.9446
リス	-12.9447
▁皿洗	-12.9449
▁大井町	-12.9449
▁ビーフ	-12.9449
朋友	-12.9449
覚え	-12.945
▁博多駅	-12.9454
▁屋上	-12.9456
キャン	-12.9456
▁腸	-12.9458
杉	-12.9458
▁ヤン	-12.9459
▁きみの	-12.9461
▁キル	-12.9467
▁ググ	-12.9468
▁下がり	-12.947
▁瑚	-12.947
▁ゃね	-12.9472
;;	-12.9472
烈	-12.9473
殻	-12.9473
鞄	-12.9473
▁フェリー	-12.9473
▁好意	-12.9475
▁味付け	-12.9476
▁爆買	-12.9477
▁きんち	-12.9478
▁原田	-12.9479
▁ウイルス	-12.948
▁わく	-12.9482
▁寝かしつけ	-12.9484
▁むぎゅー	-12.9486
ござん	-12.9486
クイ	-12.9487
ハット	-12.9487
雑	-12.9488
▁着よ	-12.9489
▁大谷	-12.949
おごる	-12.949
▁張り切	-12.9491
▁チョー	-12.9493
▁飛び込	-12.9496
▁年間	-12.9496
▁ミッション	-12.9496
婦	-12.9497
▁ヒリヒリ	-12.9497
党	-12.9497
▁没収	-12.9498
▁ムービー	-12.9498
▁コスモス	-12.9498
▁豊橋	-12.9498
軽	-12.9499
▁個別	-12.95
▁カビ	-12.9502
▁恐ろし	-12.9502
▁シューズ	-12.9504
▁ののか	-12.9507
▁ギ	-12.9509
▁築	-12.951
▁条	-12.9511
▁固い	-12.9512
トラ	-12.9515
になる	-12.9515
舌	-12.9516
▁グラフ	-12.9517
▁おゆ	-12.9521
▁ab	-12.9522
▁スターウォーズ	-12.9522
▁桜木町	-12.9522
▁with	-12.9522
ばかたれ	-12.9523
▁予選	-12.9523
▁石橋	-12.9523
▁効き	-12.9524
花火	-12.9524
▁ゃわいい	-12.9524
▁くけ	-12.9525
▁ウニ	-12.9526
▁ビーム	-12.9528
かまって	-12.9528
▁不眠	-12.9529
かんけい	-12.953
▁規模	-12.9535
セル	-12.954
表示	-12.9541
みんち	-12.9541
聴	-12.9541
裏	-12.9542
▁水産	-12.9543
かー	-12.9545
▁戸惑	-12.9547
▁那須	-12.9547
▁行列	-12.9548
▁ぃに	-12.9554
▁そえ	-12.9558
▁学園	-12.9559
▁議	-12.9561
▁競馬	-12.9561
▁収	-12.9563
▁怪	-12.9564
▁ばけ	-12.9565
ともちん	-12.9566
ッキリ	-12.9568
▁ビーチ	-12.9569
▁愛する	-12.957
▁ょぶよ	-12.9571
▁旗	-12.9571
▁ノーコメント	-12.9572
▁タンパク	-12.9572
▁許容	-12.9572
▁ホンダ	-12.9572
▁テキスト	-12.9572
▁ヒモ	-12.9572
▁むふ	-12.9574
▁行く行く	-12.9576
▁ゆっち	-12.9577
▁ょりょ	-12.9579
▁可愛が	-12.9584
▁ミックス	-12.9584
いわた	-12.9585
▁損ね	-12.9585
▁盆	-12.9591
動機	-12.9592
んよん	-12.9595
▁カルボナーラ	-12.9596
隈	-12.9596
▁八木	-12.9597
▁びゃ	-12.9597
▁👂	-12.9598
▁自立	-12.9598
▁環	-12.96
▁潰せ	-12.9601
▁ミク	-12.9604
▁発行	-12.9605
エリア	-12.9605
じゃないですか	-12.9608
っぷり	-12.9608
▁災	-12.961
▁カマ	-12.9612
▁磨き	-12.9614
▁成り立	-12.9618
ロード	-12.9618
▁🥟	-12.9619
▁センチ	-12.962
▁ウエイト	-12.9621
▁法律	-12.9621
▁オカン	-12.9622
▁みやび	-12.9623
ジーパン	-12.9623
▁マム	-12.9627
刻	-12.9631
▁オヤスミ	-12.9632
まって	-12.9633
▁かんて	-12.9636
ケース	-12.964
▁パラ	-12.9642
▁蘭	-12.9642
やだ	-12.9643
ュー	-12.9644
いんきゃ	-12.9644
シェ	-12.9645
びしょびしょ	-12.9646
▁いったい	-12.9646
▁柴田	-12.9647
▁価格	-12.9647
▁ムー	-12.9648
がる	-12.9648
▁アナル	-12.9648
▁メディア	-12.9648
▁ありのまま	-12.9651
▁ひどーい	-12.9652
▁一致	-12.9654
▁おめでたい	-12.9655
けいと	-12.9656
▁大丸	-12.9657
▁噛み合	-12.9658
▁ダイヤ	-12.9658
▁そこね	-12.9659
▁ぶち込	-12.9662
▁たゆー	-12.9663
ヴァ	-12.9665
▁ずー	-12.9666
▁たとえ	-12.9668
▁宅配	-12.9671
▁飢え	-12.9671
▁マジレス	-12.9672
▁カフェイン	-12.9673
英	-12.9675
オーダー	-12.9676
比	-12.9676
▁チャイ	-12.9681
▁やばし	-12.9684
さわる	-12.9685
▁晒	-12.969
▁一宮	-12.969
▁どな	-12.9691
▁ウイスキー	-12.9696
▁フツー	-12.9696
▁シャンパン	-12.9697
▁さわら	-12.9697
▁ロビー	-12.9697
▁ドイツ語	-12.9697
▁進撃	-12.9697
▁コインラ	-12.9698
;	-12.9701
納	-12.9702
ろうし	-12.9702
▁大人っぽく	-12.9707
▁私的	-12.9708
▁噴	-12.9711
▁いっき	-12.9712
クロ	-12.9713
▁ちょく	-12.9714
変われ	-12.9715
▁突き放	-12.9716
休み時間	-12.9716
にくかっ	-12.9716
▁ふち	-12.9718
▁りむ	-12.9719
▁ころし	-12.972
玄	-12.9721
▁スナック	-12.9721
▁ピカピカ	-12.9721
▁拡大	-12.9721
▁必殺	-12.9721
▁ちほ	-12.9722
▁白米	-12.9722
▁ざきさん	-12.9724
▁しゃしゃ	-12.9725
▁こじま	-12.9726
▁欲しいー	-12.9727
▁べろ	-12.9728
▁あんど	-12.9728
チュー	-12.9728
体験	-12.9731
▁!!??	-12.9731
きょう	-12.9735
▁ょこ	-12.9737
ゆうが	-12.9739
ォォォォ	-12.974
▁鯖	-12.9741
▁~~!!!	-12.9742
▁茨木	-12.9744
▁唯	-12.9745
▁蓋	-12.9746
▁ビニール	-12.9747
▁ヘルメット	-12.9747
▁マツキヨ	-12.9747
▁干からび	-12.9747
粥	-12.9747
▁ブチギレ	-12.9747
▁追い出	-12.9748
▁新井	-12.975
けんご	-12.9751
にがて	-12.9752
ウィン	-12.9754
很多	-12.9756
▁ニャー	-12.9757
ぴんく	-12.9762
▁キャンパス	-12.9768
だまさ	-12.9771
ろは	-12.9771
▁ヨーロッパ	-12.9772
▁市販	-12.9772
▁ストライク	-12.9772
▁自意識	-12.9775
▁まわ	-12.9777
▁しょっぱい	-12.9779
▁夫	-12.9781
▁フゥ	-12.9784
フェイス	-12.9784
登録	-12.9785
▁スネ	-12.9787
▁らじ	-12.9788
▁用紙	-12.9792
クシ	-12.9793
🐖	-12.9797
▁ほーむ	-12.9798
▁吉川	-12.9798
▁ほっとけ	-12.9799
▁のりこ	-12.98
▁ラス	-12.9803
病院	-12.9803
ニャ	-12.9804
▁ケン	-12.9806
跟他	-12.9806
▁バーカ	-12.9807
▁サム	-12.9808
ざっくり	-12.9808
▁うれしいー	-12.9808
▁取り合	-12.9809
▁冒険	-12.981
▁出産	-12.9813
▁港	-12.9813
面接	-12.9813
▁もんち	-12.9816
むずかっ	-12.9819
丈夫	-12.9821
がけ	-12.9822
▁アクセサリー	-12.9823
▁櫻井	-12.9823
▁恵まれ	-12.9823
▁松岡	-12.9823
▁つくし	-12.9823
▁換気	-12.9823
▁しのぶ	-12.9823
▁堀部	-12.9824
ンズ	-12.9824
▁天井	-12.9825
▁ファースト	-12.9825
▁ぶちゃ	-12.9828
▁素人	-12.9832
▁チップ	-12.9834
びー	-12.9834
桜	-12.9835
ネット	-12.9835
河	-12.9836
▁すくな	-12.9837
▁プライム	-12.9839
▁着付け	-12.9844
▁偽	-12.9844
▁マメ	-12.9844
▁ツルツル	-12.9848
▁ナシ	-12.9849
▁ヘヘヘ	-12.9849
ラシ	-12.985
▁最短	-12.9851
▁アタック	-12.9854
▁柔らかく	-12.9855
▁礼	-12.9855
▁もっち	-12.9855
りこう	-12.9855
▁あず	-12.9856
▁キティ	-12.9857
ですね	-12.9857
丁	-12.986
▁メッ	-12.9863
ダンス	-12.9865
呼吸	-12.9867
ガイ	-12.9868
▁界	-12.9869
▁アリス	-12.9869
コース	-12.9869
▁苦しめ	-12.987
▁函館	-12.9873
似	-12.9874
▁フロア	-12.9874
▁自称	-12.9874
▁平等	-12.9876
じって	-12.9877
▁どり	-12.9878
▁スポット	-12.988
▁ょか	-12.9882
ウズ	-12.9882
かんのや	-12.9884
▁西野	-12.9885
まゆげ	-12.9887
▁bl	-12.9887
▁燃える	-12.9888
▁アメリカン	-12.9889
▁岩田	-12.9892
ティン	-12.9892
尻	-12.9895
▁いきま	-12.9895
▁見よー	-12.9897
▁むりやろ	-12.9898
▁ウイイレ	-12.9899
▁メリークリスマス	-12.9899
兵衛	-12.9899
▁厄介	-12.9899
▁実現	-12.99
▁浦	-12.99
▁赤坂	-12.9901
▁おしゃ	-12.9901
▁対戦	-12.9902
父	-12.9904
▁オンリー	-12.9906
▁st	-12.9906
▁めんどう	-12.991
▁高田	-12.991
関わる	-12.9911
▁吹き	-12.9911
▁うせ	-12.9913
ーション	-12.9913
▁ンー	-12.9913
▁酸素	-12.9914
▁キック	-12.9916
▁プンプン	-12.9916
ちおり	-12.9916
谷間	-12.9917
すぐ	-12.9919
▁うるさーい	-12.9921
竜	-12.9923
▁保護	-12.9924
でもいい	-12.9924
こい	-12.9925
▁タブレット	-12.9925
▁プリキュア	-12.9925
▁誤差	-12.9925
▁ういうい	-12.9925
▁クルー	-12.993
▁ちっこい	-12.9932
▁よしこ	-12.9936
▁一件	-12.9938
ありがとう	-12.9938
一杯	-12.9939
いった	-12.9939
▁偽物	-12.9946
▁みなさん	-12.9949
ぱっつ	-12.9949
善	-12.995
▁サンマルク	-12.995
🦑	-12.995
▁もろもろ	-12.995
▁業界	-12.995
▁お断り	-12.995
▁広瀬	-12.9951
▁性別	-12.9951
▁きろ	-12.9953
かんもん	-12.9953
▁紛らわし	-12.9958
▁診	-12.9958
▁エエ	-12.9964
こなし	-12.9966
▁介	-12.9971
▁ボトル	-12.9972
ぼれ	-12.9973
▁やさい	-12.9974
▁れす	-12.9975
▁ハリーポッター	-12.9976
▁概念	-12.9976
▁スロー	-12.9978
遠	-12.9979
のために	-12.9979
▁まと	-12.9981
▁夜遊び	-12.9981
▁女神	-12.9981
りんご	-12.9982
▁殿	-12.9985
▁ゴン	-12.9986
ワイ	-12.9991
▁ょった	-12.9991
ピア	-12.9992
▁次元	-12.9997
▁ヴィ	-13
▁温も	-13.0001
▁武蔵	-13.0002
▁キリッ	-13.0002
▁逢え	-13.0002
▁騎乗	-13.0002
▁コピペ	-13.0002
▁羽織	-13.0002
▁イルカ	-13.0003
装備	-13.0003
キャンパス	-13.0006
つれてって	-13.001
▁あそば	-13.0019
▁ヮ	-13.002
▁痛いー	-13.0021
▁spi	-13.0022
▁警	-13.0022
▁サバ	-13.0023
▁フライ	-13.0023
ポート	-13.0025
でぃ	-13.0027
▁トリートメント	-13.0028
🍶	-13.0028
▁トータル	-13.0028
▁バスタオル	-13.0028
▁旭川	-13.0028
▁イコール	-13.0028
▁平田	-13.0029
針	-13.0033
承	-13.0033
龍	-13.0035
らっと	-13.0036
▁御茶ノ水	-13.0043
▁路	-13.0044
スコ	-13.0047
▁しんと	-13.0048
▁人格	-13.005
てきちゃった	-13.0051
▁寄れ	-13.0053
査	-13.0054
▁相模大野	-13.0054
▁傾向	-13.0054
meji	-13.0054
▁シャーペン	-13.0054
▁シャトル	-13.0054
▁快活	-13.0054
ふにゃふにゃ	-13.0054
どい	-13.0057
▁代理	-13.0058
なのっ	-13.0064
▁まさし	-13.0064
▁うおお	-13.0067
ジャー	-13.0067
▁じみ	-13.0068
▁概	-13.0069
▁はやし	-13.007
ふぉい	-13.0071
▁オリジナル	-13.0072
▁布	-13.0073
▁らすと	-13.0074
▁スペイン	-13.008
▁二の腕	-13.008
▁印鑑	-13.008
▁津田	-13.0081
▁ロード	-13.0081
▁ジョーカー	-13.0082
たんぽ	-13.0083
岸	-13.0085
▁抜け出せ	-13.0087
▁まいる	-13.0087
ンチ	-13.0087
▁仙台駅	-13.0089
▁求	-13.009
▁さびし	-13.009
▁日差	-13.0091
れんか	-13.0091
▁わかめ	-13.0091
▁たけし	-13.0094
▁可愛いく	-13.0094
▁七夕	-13.0098
▁生命	-13.0098
▁遥	-13.0099
▁ドリア	-13.01
▁ボーッ	-13.01
あのまま	-13.0101
▁粒	-13.0101
灯	-13.0103
▁序	-13.0104
臓	-13.0104
▁バケモン	-13.0106
▁日暮里	-13.0106
症候群	-13.0106
▁格闘	-13.0106
ホン	-13.0106
▁めでたい	-13.0106
▁田町	-13.0107
▁ごり	-13.011
▁真実	-13.0111
やし	-13.0111
さがっ	-13.0112
めんどかっ	-13.0113
▁ちいさい	-13.0114
アンド	-13.0114
▁なさげ	-13.0116
▁ウンコ	-13.0117
▁愛で	-13.0118
亭	-13.0118
届	-13.0119
▁ずるいー	-13.0119
▁今西	-13.012
▁及	-13.012
らしく	-13.0123
スパ	-13.0125
▁おいしか	-13.0127
▁ぐん	-13.0131
ねえ	-13.0132
庵	-13.0132
▁シナモン	-13.0132
▁蓮華	-13.0132
調節	-13.0133
▁路線	-13.0133
市駅	-13.0136
▁まして	-13.0139
ねむかっ	-13.014
▁こわいー	-13.0141
いとさん	-13.0141
たりまえ	-13.0142
▁無能	-13.0144
とても	-13.0144
▁こうや	-13.0146
▁束ね	-13.0147
▁古文	-13.0148
▁照れ隠	-13.0151
返り	-13.0157
▁史	-13.0157
🎈	-13.0158
むきむき	-13.0159
配	-13.0159
▁葛西	-13.0159
▁引き分け	-13.0159
▁関空	-13.0159
くと	-13.0159
▁lll	-13.0159
▁斬	-13.016
かんぺ	-13.0165
しった	-13.0166
▁閉	-13.0169
▁おかま	-13.0169
まにや	-13.0172
青	-13.0174
テレビ	-13.0176
▁プレミアム	-13.0176
▁やさしー	-13.0176
▁まいっ	-13.0177
▁溜まり	-13.0178
ねぼう	-13.0182
がっくん	-13.0182
▁まいか	-13.0182
▁🧟	-13.0183
un	-13.0184
▁ぴよぴよ	-13.0185
宏	-13.0185
😾	-13.0185
▁アミュ	-13.0185
▁しいたけ	-13.0185
▁小岩	-13.0186
▁発展	-13.0186
▁むりよ	-13.0187
▁八幡	-13.0187
▁見せつけ	-13.0187
▁ラー	-13.0189
▁食料	-13.0189
代目	-13.019
▁ヒーロー	-13.0192
▁ナース	-13.0194
▁どんと	-13.0195
▁旨	-13.0196
▁催	-13.0201
▁かりー	-13.0201
ジョ	-13.0203
▁欄	-13.0209
🐝	-13.0211
▁仕掛け	-13.0211
▁ぺぺ	-13.0211
クサ	-13.0213
▁やよい	-13.0217
▁アゴ	-13.0217
▁コミ	-13.0217
▁重大	-13.0218
▁ぷっ	-13.0218
▁いたみ	-13.0218
▁👆	-13.0219
▁👵	-13.022
▁たらこ	-13.0224
▁愛美	-13.0227
びき	-13.0231
ルン	-13.0233
▁柴	-13.0233
▁たまの	-13.0234
▁地区	-13.0234
▁...!!!	-13.0235
中華	-13.0235
▁押さえ	-13.0236
▁サラリーマン	-13.0238
▁パラパラ	-13.0238
いま	-13.0238
▁判定	-13.0238
▁居眠り	-13.0238
▁ハンパ	-13.0238
▁大島	-13.0239
▁インスタント	-13.0239
▁飛べ	-13.024
節	-13.0244
そんな	-13.0245
▁びしょ	-13.0246
▁ベリー	-13.0255
ぐち	-13.0255
がいい	-13.0256
みかちゃん	-13.0257
▁それどころ	-13.026
▁こか	-13.0261
▁怒鳴	-13.0261
なかろ	-13.0262
▁意識高い	-13.0264
▁🥳🥳	-13.0264
▁ゴンチャ	-13.0264
▁ワンオク	-13.0264
▁破裂	-13.0264
けどね	-13.0264
ぐぬぬ	-13.0264
▁イラスト	-13.0265
▁セーブ	-13.0265
▁春日部	-13.0265
さくらちゃん	-13.0265
にいちゃん	-13.0266
▁こぶ	-13.0271
▁くいっ	-13.0273
▁リプ	-13.0273
事項	-13.0274
▁おおく	-13.0275
▁たかく	-13.0275
はるた	-13.0275
▁ヌ	-13.0276
▁短気	-13.0279
えぐかっ	-13.028
フリー	-13.0281
▁横浜駅	-13.0286
さく	-13.0287
▁大山	-13.0287
咲	-13.0289
ぁー	-13.029
▁ヨダレ	-13.0291
▁ピチピチ	-13.0291
▁~☺☺	-13.0291
▁フィ	-13.0291
▁ゃべ	-13.0293
▁日に	-13.0295
▁垂ら	-13.0295
▁ヨシ	-13.0297
にいろ	-13.0297
ンコ	-13.03
▁食品	-13.03
たまちゃん	-13.0301
▁いじ	-13.0305
ももは	-13.0305
こもこ	-13.031
おろす	-13.0314
▁heart	-13.0317
▁ハリネズミ	-13.0317
▁リモコン	-13.0317
▁ブックオフ	-13.0317
▁寝違え	-13.0317
ちょっくら	-13.0317
▁しろくま	-13.0317
▁シビア	-13.0318
▁サプリ	-13.0318
▁オレンジジュース	-13.0318
▁表紙	-13.0318
▁クレカ	-13.0319
▁四日市	-13.032
▁勇	-13.0323
一つ	-13.0323
▁紘	-13.0324
▁炊け	-13.0327
▁うたた	-13.0331
▁瓶	-13.0332
っちょ	-13.0332
▁マップ	-13.0333
祭り	-13.0337
▁樹	-13.0337
▁ちくわ	-13.0338
天気	-13.0338
▁チク	-13.0339
▁ぶろ	-13.0341
▁メジャー	-13.0344
▁リトル	-13.0345
▁誘導	-13.0345
▁小西	-13.0347
▁ハナ	-13.0348
▁相席	-13.0348
▁ヘッ	-13.0348
▁終点	-13.035
ムラ	-13.035
▁瑛	-13.0353
▁やゆ	-13.0353
▁ぱし	-13.0355
▁せまい	-13.0358
いたそ	-13.0367
あがら	-13.0371
▁マックスバリュ	-13.0371
芯	-13.0371
ッコ	-13.0371
▁教職	-13.0371
▁同居	-13.0372
▁賢者	-13.0373
滅の	-13.0375
ドラマ	-13.0378
ちまえ	-13.0378
▁マリン	-13.0378
染	-13.0379
▁ゃも	-13.038
▁時刻	-13.0382
▁情	-13.0386
▁生田	-13.0386
▁挿	-13.0387
▁つくね	-13.0389
みちゃん	-13.039
▁へり	-13.0394
あきこ	-13.0394
▁ゃなくて	-13.0395
もんもん	-13.0396
▁じす	-13.0396
▁ぱちぱち	-13.0398
▁キチガイ	-13.0398
▁五反田	-13.0398
促	-13.0398
▁ガチャガチャ	-13.0398
▁支配	-13.0398
▁小池	-13.0399
▁落書	-13.04
▁レッド	-13.0403
▁荒らし	-13.0403
▁物理的	-13.0404
▁ラグ	-13.0405
▁キッズ	-13.0408
▁ブレーキ	-13.0412
くや	-13.0413
ぎゃ	-13.0414
▁もうす	-13.0415
ヌー	-13.0419
▁ういる	-13.0419
▁パイナップル	-13.0425
▁貢献	-13.0425
▁スッピン	-13.0425
▁サクッ	-13.0425
▁しろい	-13.0425
あや	-13.0426
▁山崎	-13.0427
▁のぶ	-13.0429
▁返品	-13.043
▁手持ち	-13.043
▁バク	-13.043
▁無駄遣	-13.0431
▁マナー	-13.0432
▁住宅	-13.0433
?、?	-13.0434
▁ゔ	-13.0442
▁堺	-13.0443
▁モモ	-13.0443
なくなら	-13.0445
つなぐ	-13.0445
▁伴	-13.0447
▁孝太	-13.045
▁鮮	-13.0452
ぽっちゃり	-13.0452
▁ロマンチック	-13.0452
▁弾丸	-13.0452
▁野生	-13.0454
▁バズ	-13.0454
▁金魚	-13.0454
▁途	-13.0455
▁ゴキ	-13.0458
▁いたいい	-13.0461
▁~~??	-13.0462
擦れ	-13.0463
▁甲	-13.0469
▁積極	-13.0478
▁グラム	-13.0478
▁ばち	-13.0478
▁アベンジャーズ	-13.0479
▁問い合わせ	-13.0479
🍤	-13.0479
▁清掃	-13.0479
▁ハイハイ	-13.0479
▁育ち	-13.0482
くけん	-13.0483
!?!?	-13.0486
▁蒸し暑い	-13.0487
▁こんにゃく	-13.0487
やね	-13.0488
避	-13.049
▁紛れ	-13.0492
▁ツナ	-13.0492
広	-13.0493
録	-13.0493
▁変身	-13.0494
まりこ	-13.0496
タッチ	-13.0496
テイ	-13.0498
▁あやみ	-13.05
すんなり	-13.0501
ジャニ	-13.0501
なるはや	-13.0502
ネー	-13.0504
▁犠牲	-13.0506
▁ニャニャ	-13.0506
▁徹底	-13.0506
▁吉岡	-13.0507
フラワー	-13.0507
▁美穂	-13.0507
▁今井	-13.0508
いけいけ	-13.0509
▁おせち	-13.0509
▁学び	-13.0512
▁寝かし	-13.0517
▁動	-13.0517
▁権	-13.0518
▁分身	-13.0519
▁一面	-13.0521
凍	-13.0523
えよ	-13.0524
じかん	-13.0527
▁女子大	-13.0528
▁グレ	-13.053
▁ヤクルト	-13.0533
🏫	-13.0533
まじ	-13.0534
▁オーライ	-13.0535
▁被害者	-13.0535
▁ぷる	-13.0538
フォン	-13.0538
▁生や	-13.0541
▁ぽて	-13.0542
▁領	-13.0543
▁ぎぃ	-13.0545
▁?;	-13.0545
▁たなか	-13.0546
▁おおう	-13.0547
▁むじ	-13.0551
▁サーブ	-13.0551
▁れべる	-13.0552
思考	-13.0553
シチュー	-13.0554
おお	-13.0558
▁テル	-13.0559
▁めった	-13.0559
でき	-13.0559
ne	-13.056
▁依頼	-13.0561
▁倉敷	-13.0561
▁寝っ転が	-13.0561
裟	-13.0561
▁奴隷	-13.0561
▁ヨッシー	-13.0561
▁京阪	-13.0561
▁接骨	-13.0561
▁解読	-13.0563
▁ミント	-13.0564
▁つくば	-13.0564
▁煩	-13.0569
▁狼	-13.057
▁フェチ	-13.0572
しおん	-13.0573
▁ずく	-13.0574
▁珍	-13.0574
▁クリス	-13.0575
▁費	-13.0578
▁カリ	-13.0581
航	-13.0582
▁大橋	-13.0585
me	-13.0587
▁コツコツ	-13.0588
▁テキーラ	-13.0588
▁耐性	-13.0588
▁目玉焼き	-13.0588
▁工業	-13.0589
感覚	-13.0589
▁古川	-13.059
▁アンチ	-13.059
▁ネムネム	-13.059
▁ひとは	-13.0591
▁せいか	-13.0592
がんばりましょ	-13.0592
▁アイテム	-13.0592
▁飲み込	-13.0596
てみた	-13.0598
▁しゃべれ	-13.0599
▁らむ	-13.0599
▁うっと	-13.0602
▁むが	-13.0603
▁おとうさん	-13.0604
▁サッ	-13.0607
傘	-13.0607
▁アオ	-13.061
タイプ	-13.0613
▁家系	-13.0616
▁ぼろぼろ	-13.0616
▁レパートリ	-13.0616
🛌	-13.0616
▁マナーモード	-13.0616
▁カフェオレ	-13.0616
▁自爆	-13.0616
or	-13.0616
▁かえせ	-13.0616
▁牛肉	-13.0616
▁客観	-13.0617
▁防	-13.0617
▁リアルタイム	-13.0617
▁いろは	-13.0618
▁ジャム	-13.0619
▁カゴ	-13.0619
▁反射	-13.062
行き	-13.0621
▁大型	-13.0628
▁ゴマ	-13.0628
ナイト	-13.0631
▁市場	-13.0632
▁アア	-13.0632
丈	-13.0639
▁よしの	-13.064
きゃわわ	-13.0642
▁モザイク	-13.0643
▁インパクト	-13.0643
▁トンカツ	-13.0643
▁しゃあなし	-13.0643
▁オムツ	-13.0643
ーフ	-13.0644
なおら	-13.065
▁ミキ	-13.065
▁こはる	-13.0655
▁旧	-13.0655
▁飾り	-13.066
混	-13.066
po	-13.066
▁働	-13.0662
たんだい	-13.0662
ボケ	-13.0663
オブ	-13.0663
たぜい	-13.0663
ds	-13.0665
▁匠	-13.0666
▁高円寺	-13.0671
🗿	-13.0671
▁レモンサワー	-13.0671
▁アナ雪	-13.0671
▁スマイル	-13.0671
▁ウエスト	-13.0671
▁突撃	-13.0671
鑑	-13.0671
バッグ	-13.0671
▁生産	-13.0673
▁満腹	-13.0673
周年	-13.0675
▁乗っ取	-13.0675
ぁぁぁ	-13.0678
▁ぁそ	-13.0678
にゅ	-13.0679
▁ご存	-13.068
経験	-13.0682
▁dj	-13.0683
▁ぐぅ	-13.0684
▁うまし	-13.0689
▁たくし	-13.069
▁破れ	-13.0691
価	-13.0694
ぎし	-13.0695
▁ぶっこ	-13.0696
いいよ	-13.0698
▁登戸	-13.0699
▁西宮	-13.0699
▁ゅちゃん	-13.07
▁🤜	-13.07
しんくん	-13.0701
ダウン	-13.0701
▁スプラ	-13.0701
▁頼れ	-13.0707
もえみ	-13.0708
▁まつ毛	-13.0708
▁液	-13.0708
うるうる	-13.0712
づけ	-13.0713
▁ロール	-13.0717
▁泥棒	-13.072
コマ	-13.0722
▁添え	-13.0723
▁わが	-13.0723
なた	-13.0723
壱	-13.0726
▁承認	-13.0726
▁危うい	-13.0726
▁トム	-13.0726
▁マッハ	-13.0726
▁レベチ	-13.0728
▁ららら	-13.0729
なんでも	-13.073
過剰	-13.073
糸	-13.0731
‍	-13.0732
選手	-13.0732
決して	-13.0733
かつ	-13.0733
▁ギブ	-13.0734
ーナ	-13.0736
▁喜べ	-13.0737
▁ちゃくち	-13.0739
ません	-13.0739
▁クリニック	-13.0743
▁ソウ	-13.0744
ナリ	-13.0747
▁スケベ	-13.075
▁お手	-13.075
▁~~、	-13.0751
▁ドナルド	-13.0754
▁従業員	-13.0754
ビュッフェ	-13.0754
▁牧野	-13.0754
▁東武	-13.0754
▁はなまる	-13.0756
▁西村	-13.0756
床	-13.076
スマホ	-13.0764
▁いちょ	-13.0766
▁物欲	-13.0766
▁エリ	-13.0767
▁ヤリ	-13.077
アー	-13.0772
層	-13.0774
レンジ	-13.0774
▁蒼	-13.0776
▁おもえ	-13.0777
あそべる	-13.078
▁ちご	-13.0781
▁肯定	-13.0782
▁副業	-13.0783
テージ	-13.0783
いらっしゃる	-13.0784
▁甥っ	-13.0787
▁ヒット	-13.0788
▁にっし	-13.079
▁目隠	-13.0792
來	-13.0794
サイド	-13.0797
▁だーっ	-13.0798
▁とまん	-13.0798
▁ちょちょ	-13.0798
むかつい	-13.0802
▁外来	-13.0803
▁ぱあ	-13.0807
▁啦	-13.0809
ww	-13.081
▁ビアガーデン	-13.081
▁ナッシング	-13.081
▁アクセス	-13.081
▁生まれる	-13.081
▁一重	-13.081
▁かっこい	-13.0811
▁視線	-13.0812
オフ	-13.0812
沈	-13.0822
削	-13.0822
▁母性	-13.0824
カツ	-13.0825
▁ずり	-13.0829
▁やまだ	-13.0829
▁ぴぃ	-13.0834
巣	-13.0835
▁スパルタ	-13.0838
▁プニプニ	-13.0838
▁ブーブー	-13.0838
▁消灯	-13.0838
▁勝ち組	-13.0839
▁アイツ	-13.0839
コム	-13.084
▁一月	-13.084
▁主義	-13.0841
▁表面	-13.0843
すすま	-13.0844
ld	-13.0844
びびり	-13.0846
ビュー	-13.0847
▁フィット	-13.0848
▁ぬく	-13.0851
政	-13.0851
待機	-13.0853
▁くるしい	-13.0854
団子	-13.0855
痛い	-13.0858
▁そうそ	-13.0859
▁忍	-13.0862
▁誉め	-13.0865
▁摂	-13.0866
▁スピーチ	-13.0866
▁アクション	-13.0866
▁ダックス	-13.0867
▁ds	-13.0868
イケメン	-13.087
▁もたー	-13.087
▁いやらしい	-13.087
▁あずさ	-13.0872
▁しょく	-13.0873
▁めず	-13.0873
▁要する	-13.0875
▁植物	-13.0877
▁潮	-13.0881
片	-13.0883
まくん	-13.0883
シス	-13.0888
bo	-13.0888
パンツ	-13.0888
アイス	-13.0889
▁さめる	-13.0892
▁見積も	-13.0892
ツー	-13.0893
▁アディダス	-13.0895
▁ガタガタ	-13.0895
▁長距離	-13.0895
▁ハヤシライス	-13.0895
▁あいさつ	-13.0895
さりげなく	-13.0895
▁尾崎	-13.0895
▁谷口	-13.0896
▁銃	-13.0899
▁弁	-13.0904
メイク	-13.0906
▁蹴り	-13.0907
▁振替	-13.0908
▁島田	-13.091
▁ひこ	-13.091
▁きびし	-13.0912
▁アマ	-13.0913
▁抜け出	-13.0914
▁争	-13.0914
岩	-13.0916
がよく	-13.092
▁むた	-13.0921
▁ねぎ	-13.0923
▁ぷよぷよ	-13.0923
▁アイデア	-13.0923
▁田んぼ	-13.0923
テイクアウト	-13.0923
退会	-13.0923
▁マッシュ	-13.0923
▁百合	-13.0924
ばなな	-13.0924
▁タチ	-13.0926
しんぐ	-13.0929
陰	-13.093
--	-13.0932
▁持ち帰り	-13.0933
いたこと	-13.0934
あおう	-13.0937
めまい	-13.0937
になった	-13.0938
触	-13.0938
▁競技	-13.094
▁とじ	-13.0945
▁アレンジ	-13.0945
▁倒せ	-13.0947
口実	-13.0948
▁タイムリー	-13.0949
▁勃起	-13.0951
になりました	-13.0951
▁防寒	-13.0951
▁税金	-13.0951
▁郡山	-13.0952
▁成立	-13.0953
▁真央	-13.0953
▁住吉	-13.0954
▁ぱく	-13.0955
あえん	-13.0957
▁湿度	-13.0958
▁あざと	-13.0959
▁見せかけ	-13.0965
集会	-13.0966
▁曲げ	-13.0969
▁ラテ	-13.0971
かんがえる	-13.0973
ヶラ	-13.0974
その	-13.0975
ターン	-13.0976
▁ピーチ	-13.0977
レタ	-13.0978
▁ハウステンボス	-13.098
▁清潔	-13.098
あき	-13.0981
しくしく	-13.0983
▁性病	-13.0983
つらかっ	-13.0984
▁ばたばた	-13.0984
マップ	-13.0986
▁二子	-13.0988
▁むりだわ	-13.099
▁お茶漬け	-13.0991
▁かなしー	-13.0991
ため	-13.0992
▁障害	-13.0993
▁こじ	-13.0999
マル	-13.1
▁闘	-13.1002
▁劣	-13.1007
チェ	-13.1008
▁大手	-13.1008
▁zozo	-13.1008
▁おだいじに	-13.1008
うずうず	-13.1008
きまる	-13.1008
▁混雑	-13.1009
▁戯れ	-13.1011
うゆう	-13.1012
▁射	-13.1012
▁女装	-13.1013
▁そうじ	-13.1014
▁まるい	-13.1023
しゃい	-13.1025
跟你	-13.1027
▁ゃま	-13.1034
あんぱん	-13.1035
▁タンクトップ	-13.1037
▁ナプキン	-13.1037
▁ビキニ	-13.1037
▁ufo	-13.1037
▁バチバチ	-13.1037
▁フルネーム	-13.1037
▁返却	-13.1037
▁シェフ	-13.1037
▁綾瀬	-13.1038
ありがとぅ	-13.1042
▁ツー	-13.1042
▁ババ	-13.1044
▁年中	-13.1046
▁きわ	-13.1048
クト	-13.1051
不信	-13.1051
▁添	-13.1052
▁みらい	-13.1054
▁凡	-13.1059
▁支援	-13.106
▁駐	-13.106
▁ポジ	-13.1064
▁学会	-13.1064
だれ	-13.1065
兵	-13.1065
▁マウント	-13.1066
▁始業	-13.1066
▁ライオンキング	-13.1066
▁りーち	-13.1066
▁くみこ	-13.1066
▁ゲスト	-13.1067
▁リスカ	-13.1067
済	-13.1067
漬け	-13.1067
脚	-13.1067
▁繊	-13.1069
ゴミ	-13.107
▁ご馳走さま	-13.107
▁つかまえ	-13.1071
▁けっこん	-13.1071
▁發	-13.1074
ゆうたん	-13.1077
まんなか	-13.1078
ウォッチ	-13.108
マッチ	-13.1081
あきと	-13.1082
ネス	-13.1084
▁シュッ	-13.1086
▁恐れ	-13.1088
▁向	-13.1091
宴	-13.1094
▁ピリピリ	-13.1095
▁棚卸	-13.1095
▁ガッキー	-13.1095
▁イケボ	-13.1095
▁心霊	-13.1096
▁静	-13.1096
年代	-13.1096
なっとく	-13.1097
▁悪夢	-13.1097
▁沸かし	-13.1097
▁やさお	-13.1098
らせ	-13.1098
跟	-13.1099
じょう	-13.11
▁ゴロ	-13.1102
ハム	-13.1105
▁融	-13.1106
がえ	-13.1116
▁ボリューム	-13.1123
▁力尽き	-13.1123
▁復旧	-13.1123
▁監禁	-13.1123
ちょっぴり	-13.1123
▁悩ましい	-13.1123
▁ロボット	-13.1124
▁殺意	-13.1124
▁荒川	-13.1124
▁心境	-13.1124
▁~。。	-13.1125
▁宮島	-13.1125
▁ジー	-13.1125
▁バッチ	-13.1126
▁白石	-13.1126
▁ぐふ	-13.1127
▁うごか	-13.1128
射	-13.1128
シカ	-13.1129
第一	-13.113
ソング	-13.113
更新	-13.1131
作り	-13.1132
▁取り込	-13.1132
▁クロス	-13.1135
▁立ち直れ	-13.1136
ぱで	-13.114
▁ムラ	-13.114
かんたん	-13.1146
じくん	-13.115
てんてん	-13.1152
▁あたら	-13.1152
▁グイグイ	-13.1152
▁弓道	-13.1153
▁ヘーキ	-13.1153
▁パイパン	-13.1153
▁こらえ	-13.1153
▁さいたま	-13.1154
▁たけのこ	-13.1154
▁要望	-13.1155
殺し	-13.1159
▁遣	-13.1159
せんもん	-13.1161
萌え	-13.1162
▁速く	-13.1168
▁:;	-13.1169
▁鳴き	-13.117
▁ゅんび	-13.117
▁ウンチ	-13.1173
▁is	-13.1175
▁とろとろ	-13.1181
▁イタズラ	-13.1181
▁タイマー	-13.1182
▁ステメ	-13.1182
▁ググっ	-13.1182
▁きょろ	-13.1182
▁意味不	-13.1183
▁モカ	-13.1183
女子	-13.1187
てかてか	-13.1187
港	-13.1191
▁遺	-13.1193
妹	-13.1193
じゅん	-13.1194
▁ひとこと	-13.1194
▁音量	-13.1197
▁したし	-13.1199
▁なーく	-13.1202
▁ちっと	-13.1203
▁しょい	-13.1207
▁ふす	-13.1208
▁ょと	-13.121
▁インタビュー	-13.1211
▁雪だるま	-13.1211
▁back	-13.1211
▁口説	-13.1213
次郎	-13.1217
ちゃんと	-13.1219
ンダ	-13.122
▁おすぎ	-13.122
▁うすい	-13.1223
納め	-13.1225
▁麼	-13.1226
ダメ	-13.1227
▁長所	-13.1227
▁イオ	-13.123
もうすぐだ	-13.1233
▁ジョイ	-13.1233
▁納め	-13.1234
いちこ	-13.1236
▁ダー	-13.1239
▁代々木	-13.124
▁マツコ	-13.124
▁マニュアル	-13.124
▁ワッフル	-13.124
▁講演	-13.124
▁ガーン	-13.1241
▁ファイ	-13.1241
▁むな	-13.1241
▁ネジ	-13.1242
あったまる	-13.1242
▁もみじ	-13.1243
▁高松	-13.1243
おわ	-13.1245
!!!	-13.1246
うけて	-13.1248
おちゃん	-13.1249
シック	-13.1251
▁ジャイアン	-13.1255
▁持ち込	-13.1256
がお	-13.1257
▁狩	-13.1258
▁押	-13.1259
▁ポップ	-13.126
▁ブース	-13.1266
▁~~~!	-13.1268
かなしく	-13.1268
▁北九州	-13.1269
▁手のひら	-13.1269
▁賑やか	-13.1269
▁〇〇	-13.1269
どっちもどっち	-13.1269
▁満開	-13.1271
▁直感	-13.1272
▁かたづけ	-13.1275
▁my	-13.1275
▁剥が	-13.1277
▁むや	-13.1277
▁持久	-13.1278
▁へんじ	-13.128
▁先頭	-13.1285
剛	-13.1288
アプリ	-13.1288
合宿	-13.1288
▁あるき	-13.1293
探し	-13.1294
▁レベ	-13.1297
してやろ	-13.1297
▁虚無	-13.1299
▁オソロ	-13.1299
▁mv	-13.13
シャン	-13.13
▁まもる	-13.1302
▁組み立て	-13.1302
▁夜間	-13.1304
せりふ	-13.1304
効	-13.1305
▁送り迎	-13.1308
明天	-13.131
寄	-13.1311
▁機種	-13.1311
▁むりやな	-13.1312
▁ゃち	-13.1313
▁実行	-13.1316
幅	-13.1317
ッパ	-13.1319
快速	-13.132
▁おそお	-13.1322
▁桂	-13.1322
▁ゆま	-13.1324
出血	-13.1325
▁ますみ	-13.1325
▁踏切	-13.1328
▁東横	-13.1329
▁なやみ	-13.1329
▁読み返	-13.133
▁文法	-13.133
▁坂口	-13.133
べっど	-13.1332
▁気まぐれ	-13.1332
▁嵐山	-13.1332
文書	-13.1333
▁お通夜	-13.1336
せぇ	-13.1339
月中	-13.134
▁おーら	-13.1341
レイ	-13.1347
▁規制	-13.1348
注意	-13.1352
▁うぶ	-13.1352
▁さとる	-13.1356
▁ふくらはぎ	-13.1358
そばにいて	-13.1358
▁禁断	-13.1358
▁佐久間	-13.1358
▁程よく	-13.1359
▁メッセ	-13.1359
▁エスパー	-13.1359
放棄	-13.1359
▁。--。	-13.136
ねえや	-13.136
キュー	-13.136
ヒー	-13.136
▁枚方	-13.1364
学院	-13.1364
▁おかしな	-13.1365
▁ちょうし	-13.1367
イエ	-13.1368
っぺ	-13.1369
▁あみだ	-13.1369
hi	-13.137
▁とど	-13.1375
▁丹	-13.1376
▁むも	-13.1378
▁ma	-13.1378
▁ぉお	-13.1381
▁くやし	-13.1381
▁ヤス	-13.1382
▁じど	-13.1384
のやつ	-13.1384
▁脱げ	-13.1385
べる	-13.1387
▁湘南	-13.1387
▁パンフレット	-13.1387
▁ゾーン	-13.1388
▁クローゼ	-13.1388
▁ぎっ	-13.139
▁しょぼ	-13.1395
▁むりかな	-13.1395
スピ	-13.14
▁ふけ	-13.1401
▁英文	-13.1403
せいく	-13.1404
▁騒ぎ	-13.1407
りな	-13.1409
▁巧	-13.141
▁むりかも	-13.1411
▁找	-13.1412
ter	-13.1412
野獣	-13.1415
▁new	-13.1415
▁facebook	-13.1417
▁妖精	-13.1417
岳	-13.1417
▁ピッチャー	-13.1417
▁西川	-13.1421
るぽ	-13.1421
ゆいちん	-13.1422
ャ	-13.1423
▁jal	-13.1424
▁マイル	-13.1424
▁ドジ	-13.1424
▁すべ	-13.1426
めし	-13.1427
▁se	-13.1427
▁ステップ	-13.1432
▁脱ぎ	-13.1434
▁らいな	-13.1436
花畑	-13.1436
▁ゅきし	-13.1438
▁フフフ	-13.1442
▁中田	-13.1447
ga	-13.1447
▁つなぎ	-13.1447
▁領収	-13.1447
▁古賀	-13.1447
▁西条	-13.1447
葬式	-13.1447
じゅうでん	-13.1448
▁西尾	-13.1449
▁走り回	-13.1453
オカ	-13.1454
▁丘	-13.1463
▁ミュージック	-13.1464
いっとき	-13.1468
痺	-13.1472
縄	-13.1473
▁整備	-13.1477
da	-13.1477
▁教員	-13.1478
▁ジャズ	-13.1478
▁冷たか	-13.1481
▁ぱぴ	-13.1481
▁血圧	-13.1482
だもん	-13.1483
▁あたため	-13.1484
▁同性	-13.1486
▁やましい	-13.1488
▁かたあ	-13.1489
▁今池	-13.1491
ゴー	-13.1492
ulu	-13.1493
▁オガ	-13.1497
野球	-13.1497
とともに	-13.1498
▁管	-13.1498
▁ごね	-13.1501
▁人類	-13.1503
▁at	-13.1506
▁じしん	-13.1506
▁ダントツ	-13.1507
▁ブラジル	-13.1507
▁ケーブル	-13.1507
▁甲府	-13.1507
▁ボーカル	-13.1507
▁ワイルド	-13.1507
▁山登	-13.1507
▁鶴橋	-13.1507
▁居残	-13.1507
▁サニー	-13.1508
▁取材	-13.1508
▁ちらっ	-13.151
▁連れ回	-13.1513
缶	-13.1513
誠	-13.1513
気圧	-13.1515
フラ	-13.1516
ウォ	-13.1516
▁ゃだめ	-13.1517
▁ダニ	-13.1519
スポ	-13.1519
▁タフ	-13.1519
▁盛岡	-13.1522
ka	-13.1522
▁引き落と	-13.1523
よしと	-13.1524
踏	-13.1528
くんくん	-13.1529
▁威	-13.1532
♥	-13.1533
▁面倒くさ	-13.1535
▁けんが	-13.1535
▁頂け	-13.1535
▁サヨナラ	-13.1537
オウ	-13.1537
▁ラクロス	-13.1537
▁液体	-13.1538
▁やぶ	-13.1538
▁ダァ	-13.1538
▁ぷれ	-13.1539
狩り	-13.1546
▁歴	-13.1548
会館	-13.155
▁積	-13.1551
▁ドライバー	-13.1557
▁まるか	-13.1557
▁レイク	-13.1562
▁課外	-13.1564
▁なおせ	-13.1565
己	-13.1567
▁セカンド	-13.1567
▁チクチク	-13.1567
▁押し倒	-13.1568
▁腕立て	-13.1568
▁ママン	-13.1569
▁オッ	-13.157
▁チュッチュ	-13.157
▁キャパ	-13.157
▁たおれ	-13.1571
▁ゅきや	-13.1573
感性	-13.1574
仲	-13.1577
▁きんか	-13.1578
りゅう	-13.1578
消滅	-13.1578
いっしょ	-13.1583
かいくん	-13.1584
▁むりなん	-13.1586
▁ギュっ	-13.1587
砂	-13.1587
のりくん	-13.1588
ひと	-13.1588
▁おっかな	-13.159
▁鷹	-13.1592
ばやし	-13.1594
▁斎藤	-13.1595
▁吹き替え	-13.1598
▁伏見	-13.1598
はね	-13.1599
▁風景	-13.16
きゃわたん	-13.1602
▁伏せ	-13.1602
▁勉	-13.1602
▁根性	-13.1602
おい	-13.1604
▁ターン	-13.1605
▁ピノ	-13.1605
▁連れ込	-13.1608
わく	-13.1608
▁いおり	-13.1608
▁否	-13.1609
たべ	-13.1609
▁瞳	-13.161
うごく	-13.161
なにもかも	-13.1611
ポテト	-13.1611
吧	-13.1611
嵐	-13.1611
▁むりやわ	-13.1612
産む	-13.1612
▁こげ	-13.162
シマ	-13.162
ッカ	-13.1622
▁陣	-13.1623
あったかかっ	-13.1626
▁道の	-13.1628
▁ナイタ	-13.1628
▁モリモリ	-13.1628
▁収納	-13.1628
▁たこやき	-13.1628
▁エキスポ	-13.1628
ほろよい	-13.1628
▁島根	-13.1628
▁セリア	-13.1628
▁京成	-13.1628
▁司会	-13.1629
▁片岡	-13.1629
▁デスク	-13.1629
あからさま	-13.1631
▁みちゃ	-13.1632
▁スギ	-13.1633
▁~♥	-13.1634
▁爺	-13.1634
▁らいぶ	-13.1636
やぴ	-13.1639
テー	-13.1639
▁掴め	-13.1639
▁ビリ	-13.164
▁ギュ	-13.1641
la	-13.1643
聖	-13.1643
サービス	-13.1644
▁らっきー	-13.1646
▁むーん	-13.1647
▁統一	-13.1652
▁かふぇ	-13.1653
ts	-13.1655
ブー	-13.1656
▁ひくい	-13.1658
▁怯え	-13.1658
▁ストロング	-13.1658
▁スマート	-13.1659
▁血管	-13.1659
▁千鳥	-13.1659
▁食生活	-13.166
みふ	-13.1662
▁みじかい	-13.1663
▁宇	-13.1664
▁沖	-13.1667
おにいさん	-13.1667
しちゃう	-13.1667
サム	-13.1671
▁近づけ	-13.1672
▁忘れない	-13.1676
▁サル	-13.1677
▁すえ	-13.1679
▁拒	-13.1682
▁乗り込	-13.1683
ペコ	-13.1687
▁みとめ	-13.1687
▁はくそ	-13.1687
あつしくん	-13.1688
依	-13.1689
▁ひっくり返	-13.1689
▁新居	-13.169
▁進歩	-13.169
ウス	-13.1691
▁例外	-13.1691
▁えぞ	-13.1691
▁ジョーク	-13.1693
の話	-13.1695
▁あずけ	-13.1698
▁夢見る	-13.1702
ノコ	-13.1703
▁ウマ	-13.1706
仏	-13.1707
▁こんし	-13.171
フェチ	-13.171
筆	-13.171
ツイート	-13.171
ワー	-13.1711
▁ゆとり	-13.1716
先端	-13.1716
慢	-13.1719
妊	-13.1719
宗	-13.172
▁コンプレックス	-13.172
りゅ	-13.172
▁球	-13.172
▁さらさら	-13.1721
▁佳奈	-13.1723
できる	-13.1727
▁タップ	-13.1728
▁ニャ	-13.1734
▁琉	-13.1736
すごし	-13.1737
バカ	-13.1737
ーぶ	-13.1738
▁痔	-13.1739
▁西野カ	-13.174
▁レク	-13.1742
▁スライム	-13.1743
▁ノーパン	-13.1743
▁義	-13.1744
▁ドック	-13.1744
▁不味い	-13.1746
中央	-13.1747
▁カテ	-13.1747
▁埋もれ	-13.175
▁ハァハァ	-13.175
▁接触	-13.1751
▁家庭教師	-13.1751
▁レビュー	-13.1751
▁涙腺	-13.1751
▁すすきの	-13.1751
ちゃった	-13.1751
っぴー	-13.1754
▁けんいち	-13.1754
ジャパン	-13.1754
▁挙げ	-13.1756
▁スゴイ	-13.1757
▁江口	-13.1757
▁美香	-13.1757
▁かっこよい	-13.1762
かまう	-13.1763
這	-13.1766
▁カルビ	-13.1768
しらべる	-13.1771
▁クレ	-13.1774
ぎょい	-13.1778
▁今出	-13.178
▁あられ	-13.1781
▁スティッチ	-13.1781
▁リピート	-13.1781
▁コンクール	-13.1781
▁排卵	-13.1781
▁ハサミ	-13.1781
▁決意	-13.1782
▁儲か	-13.1783
サンダー	-13.1783
製品	-13.1783
▁停	-13.1783
▁脱水	-13.1784
▁やくし	-13.1784
▁いつだって	-13.1785
▁気圧	-13.1787
ライナー	-13.1787
▁ヤマ	-13.1794
▁うおおお	-13.1795
▁ボート	-13.1796
▁緩い	-13.1799
▁トゥ	-13.1799
疲れ	-13.18
▁de	-13.18
▁ハンコ	-13.1801
會	-13.1805
▁とばし	-13.1807
防	-13.1808
▁出会い系	-13.1813
▁カラス	-13.1814
▁特典	-13.1814
▁シロ	-13.1814
うつさ	-13.1817
▁フェア	-13.1823
▁水野	-13.1823
▁むろ	-13.1826
▁ペーパー	-13.1828
▁さむいー	-13.1828
▁うまれ	-13.1832
▁ポール	-13.1833
▁使い切	-13.1835
▁鈍	-13.1836
▁呉	-13.1836
▁ちっちゃ	-13.1839
▁荒い	-13.1839
はしもと	-13.184
▁ホー	-13.184
いいかた	-13.1843
▁マリオカート	-13.1843
喪失	-13.1843
ドリンク	-13.1843
▁ポニョ	-13.1844
▁表彰	-13.1844
喔	-13.1844
▁大垣	-13.1847
▁クック	-13.1848
▁飛び出	-13.1849
▁⚾	-13.1849
みつかっ	-13.1851
▁昼夜	-13.1852
▁天皇	-13.1852
▁悶	-13.1853
▁あいな	-13.1854
男子	-13.1856
▁店内	-13.1857
▁にゅう	-13.186
のま	-13.1861
あがり	-13.1864
▁中指	-13.1865
▁あいみ	-13.1865
ゆき	-13.1865
▁最寄	-13.1869
あー	-13.187
▁コス	-13.1873
裡	-13.1874
タンス	-13.1874
▁uniq	-13.1874
▁テレパシ	-13.1875
▁ジャスミン	-13.1875
▁アップルパイ	-13.1875
▁スリッパ	-13.1875
欄	-13.1877
測定	-13.1877
▁グルメ	-13.1877
▁組み	-13.1878
▁こんにち	-13.1879
▁草加	-13.188
▁来世	-13.1881
ac	-13.1883
まや	-13.1884
沒	-13.1888
▁つゆ	-13.189
▁まんじゅう	-13.189
▁打ち込	-13.1891
まぐろ	-13.1894
▁稀	-13.1895
wa	-13.1895
▁かくし	-13.1896
▁照り	-13.1897
▁はなれ	-13.1903
▁?!!!	-13.1903
▁ポテ	-13.1906
▁デニーズ	-13.1906
▁メアド	-13.1906
焼	-13.1907
▁ルパン	-13.1908
ぽんこつ	-13.1909
スタンプ	-13.191
▁ものすごい	-13.191
▁近寄	-13.1911
崩壊	-13.1911
豊	-13.1911
▁ひびき	-13.1912
▁雨降	-13.1914
テク	-13.1915
▁大石	-13.1917
なさ	-13.1917
ドーム	-13.192
▁🦔	-13.1923
???	-13.1924
▁生まれ変わ	-13.1925
ほほ	-13.1928
▁かご	-13.1932
▁リオ	-13.1935
▁ハロー	-13.1936
▁ティラミス	-13.1937
昧	-13.1937
▁フィーリング	-13.1937
▁ペコペコ	-13.1937
▁ビビンバ	-13.1937
▁下駄	-13.1938
トゲン	-13.1938
嫌悪	-13.1938
▁宝物	-13.1939
みざ	-13.1942
トー	-13.1944
っとり	-13.1944
▁印	-13.1947
の花	-13.1952
▁~???	-13.1952
▁ミスター	-13.1954
▁税	-13.1954
▁ウー	-13.1955
ローズ	-13.196
▁美し	-13.1965
▁おこた	-13.1965
請	-13.1968
茎	-13.1968
▁ぴょんぴょん	-13.1969
▁バースデー	-13.1969
著	-13.1969
▁ポーカー	-13.1969
▁炎上	-13.1969
▁板橋	-13.1969
エッグ	-13.197
▁國	-13.197
▁らめ	-13.1972
▁にやり	-13.1972
皮	-13.1974
▁シミ	-13.1976
梅	-13.1978
パッド	-13.1978
現象	-13.1979
位置	-13.198
th	-13.1982
ださいっ	-13.1983
▁乗車	-13.1984
▁ゃろ	-13.1986
▁キッ	-13.1989
▁ちょび	-13.1991
ロス	-13.1994
▁マニア	-13.1997
▁ぬるぬる	-13.2
▁キウイ	-13.2
▁召喚	-13.2
▁ボーダー	-13.2
▁ポッケ	-13.2
▁デイリー	-13.2
▁hp	-13.2001
▁跳ね	-13.2002
▁ばってん	-13.2002
▁羽生	-13.2002
▁ねむか	-13.2004
▁山手	-13.2005
is	-13.2006
▁バーガー	-13.2007
ディア	-13.2009
▁噛み合わ	-13.201
ンダー	-13.201
境	-13.2012
糖	-13.2012
章	-13.2012
箸	-13.2012
祐	-13.2013
べたべた	-13.2015
▁ゃお	-13.2016
ばら	-13.202
▁クア	-13.2023
▁あらあ	-13.2025
▁死の	-13.2025
開き	-13.2026
▁兼ね	-13.2026
▁ブッ	-13.2027
▁ワカ	-13.2028
▁ニュアンス	-13.2032
▁ドロドロ	-13.2032
▁博士	-13.2032
▁保養	-13.2032
▁小樽	-13.2032
エーション	-13.2033
▁何だ	-13.2037
合戦	-13.2041
まとめる	-13.2043
▁幸い	-13.2043
▁ゆーじ	-13.2047
潮	-13.2047
▁ジジイ	-13.205
▁ひむ	-13.2051
いれ	-13.2052
へと	-13.2052
まりの	-13.2053
番組	-13.2055
イカ	-13.2055
えたん	-13.2059
▁イタ	-13.2061
んぞ	-13.2062
▁ストロベリー	-13.2063
▁思春期	-13.2064
▁榎本	-13.2064
▁炊き込み	-13.2064
▁はじまり	-13.2066
▁ちぎれ	-13.2067
▁なかの	-13.2068
▁星野	-13.2069
完結	-13.2069
▁描け	-13.2071
▁運命の	-13.2071
マリ	-13.2071
▁はらい	-13.2071
▁年金	-13.2072
期限	-13.2073
ムリ	-13.2074
▁しげき	-13.2076
っぱら	-13.2079
千	-13.2081
まずかっ	-13.2083
市場	-13.2084
▁ひの	-13.2086
▁設計	-13.2088
▁数年	-13.2088
ot	-13.2095
▁pubg	-13.2095
▁カジュアル	-13.2095
▁好奇心	-13.2095
よろこぶ	-13.2095
▁専属	-13.2095
▁淡路島	-13.2096
▁ひがし	-13.2097
ピース	-13.2101
▁譲れ	-13.2102
どなた	-13.2102
▁ユーザー	-13.2102
▁つこ	-13.2103
▁食ら	-13.2103
市民	-13.2107
▁庄	-13.2107
▁行き過ぎ	-13.2108
つかまっ	-13.2109
そぅ	-13.2113
臨	-13.2115
▁pv	-13.2115
▁ぜーっ	-13.2119
▁👧	-13.2119
回転	-13.2122
震	-13.2123
須	-13.2124
▁-。,,	-13.2127
▁アドレナリン	-13.2127
▁ドユコト	-13.2127
▁四ツ谷	-13.2127
▁妥当	-13.2127
▁蘇我	-13.2127
▁トミー	-13.2127
▁ひとりぼっち	-13.2128
▁アウトドア	-13.2128
▁小杉	-13.2128
のみ	-13.2129
▁項	-13.213
▁内側	-13.213
▁自由席	-13.2131
▁ビミョー	-13.2136
てきた	-13.2136
出勤	-13.2137
▁傍	-13.2138
▁元町	-13.2138
▁あついー	-13.2138
▁とろー	-13.2142
ぐらし	-13.2143
▁載っけ	-13.2147
保険	-13.2147
支	-13.2151
順位	-13.2151
▁けんお	-13.2153
カリ	-13.2153
▁脂	-13.2154
▁透	-13.2155
かぁ	-13.2158
▁仮面ライダー	-13.2159
▁クレジットカード	-13.216
▁武蔵野	-13.216
と共に	-13.216
▁ぐだぐ	-13.216
▁レバー	-13.216
▁ぷりぷり	-13.2161
▁ジョン	-13.2161
ぴったし	-13.2162
ドッグ	-13.2162
▁wii	-13.2163
▁カギ	-13.2164
あたり	-13.2167
▁かいく	-13.2168
▁ようち	-13.2171
バイト	-13.2171
▁安室	-13.2173
▁スタン	-13.2174
▁おたく	-13.2177
▁とっと	-13.2177
▁アンド	-13.2178
▁ぱくっ	-13.2179
▁えらいー	-13.218
▁二月	-13.2181
▁混じ	-13.2182
認	-13.2185
圏	-13.2185
プリン	-13.2187
▁葬式	-13.2191
岐	-13.2191
▁破産	-13.2192
▁個人情報	-13.2192
▁松島	-13.2193
プル	-13.2193
ガル	-13.2194
▁太れ	-13.2195
▁最上	-13.2195
さとちん	-13.2197
▁犯す	-13.2199
▁せんたく	-13.2202
▁盗ん	-13.2202
▁低め	-13.2203
どうにも	-13.2205
っともっと	-13.2206
▁あきの	-13.2207
▁ささっ	-13.2207
▁うちわ	-13.221
▁三次	-13.221
るふ	-13.2211
▁手足	-13.2211
▁がたー	-13.2212
▁つも	-13.2212
▁利益	-13.2218
関節	-13.222
投げ	-13.222
▁かまえ	-13.2222
論文	-13.2224
▁ストッキング	-13.2224
▁中目黒	-13.2224
▁生活習慣	-13.2224
▁ムズムズ	-13.2224
▁生ハム	-13.2225
▁矢野	-13.2225
▁茶色い	-13.2226
▁チーン	-13.2226
えっぐ	-13.223
ノン	-13.223
▁ループ	-13.223
ふぉん	-13.2231
▁物足りない	-13.2233
▁思わせ	-13.2237
▁さんこ	-13.2237
▁たのみ	-13.2238
▁気持ち良く	-13.2241
▁絵本	-13.2242
供	-13.2244
▁代謝	-13.2245
▁傾	-13.2245
▁翻訳	-13.2246
じゅう	-13.2248
▁かたや	-13.225
おちつく	-13.2255
妄想	-13.2255
▁濡らし	-13.2256
▁カリカリ	-13.2256
作業	-13.2256
▁血液型	-13.2257
▁松原	-13.2257
▁無責任	-13.2257
▁ブーツ	-13.226
▁教会	-13.2261
▁入間	-13.2265
▁若い人	-13.2266
▁秘	-13.2266
きゅう	-13.227
▁郡	-13.2276
の下	-13.2278
▁調教	-13.2279
もや	-13.2279
▁すっと	-13.2282
ガニ	-13.2282
▁ゅか	-13.2286
▁べり	-13.2287
▁愛の	-13.2287
述	-13.2288
▁ピンポイント	-13.2289
▁向上	-13.2289
▁景品	-13.229
▁生存	-13.2291
▁ゥ	-13.2293
▁鴨	-13.2295
ふぇぇ	-13.2297
▁せかい	-13.23
▁はぐ	-13.2304
▁モール	-13.2304
▁くど	-13.2304
▁つよし	-13.2308
▁ミユ	-13.2309
深い	-13.2313
継	-13.2314
▁お願	-13.2316
ばったり	-13.2316
▁ムード	-13.232
▁幼児	-13.2321
▁洒落	-13.2321
▁カビゴン	-13.2321
▁寝屋川	-13.2321
▁エリート	-13.2321
▁エクセル	-13.2322
▁総務	-13.2322
▁ユキ	-13.2322
▁黙り	-13.2324
▁麻美	-13.2324
冬	-13.2325
▁万能	-13.2326
▁校長	-13.2327
▁🥦	-13.2328
ヴィ	-13.2331
ギー	-13.2332
みおも	-13.2333
▁滑ら	-13.2335
▁さば	-13.2336
イー	-13.2337
▁ソウル	-13.2345
訪	-13.2345
ちぇ	-13.2345
▁ハロ	-13.2345
▁すたー	-13.2348
▁風船	-13.235
▁置き場	-13.235
▁共同	-13.2351
さぁ	-13.2351
エナ	-13.2351
屈	-13.2351
陣	-13.2353
▁トヨタ	-13.2354
▁きま	-13.2355
▁白衣	-13.2357
▁かぐ	-13.2357
界	-13.2358
んまり	-13.2359
コピ	-13.2359
▁通用	-13.2359
▁ガラ	-13.236
▁散ら	-13.2361
野郎	-13.2362
美波	-13.2362
▁発症	-13.2364
▁ゆりか	-13.2365
イモ	-13.2366
▁abc	-13.2367
▁ゅきぃ	-13.2368
▁とろろ	-13.2369
▁コスメ	-13.2369
弁当	-13.2372
▁セル	-13.2376
ニュ	-13.2379
▁草生	-13.2379
▁クラゲ	-13.2379
▁編み	-13.2385
▁ジンギスカン	-13.2387
ミュージアム	-13.2387
▁クレイジー	-13.2387
▁ジーンズ	-13.2387
▁石垣	-13.2387
▁物販	-13.2387
▁ふぁん	-13.2388
▁平塚	-13.239
這個	-13.2391
▁歌手	-13.2392
日課	-13.2394
桃	-13.2395
ればいいのに	-13.2396
水族館	-13.2397
▁do	-13.2397
▁いらー	-13.2398
跟我	-13.2401
▁ソーダ	-13.2403
▁さほ	-13.2403
トス	-13.2404
えらん	-13.2405
▁ニコラ	-13.2406
みつから	-13.2409
ツアー	-13.2412
▁鉄板	-13.2412
▁あいや	-13.2412
ほっとく	-13.2413
括	-13.2414
くんもう	-13.2415
▁排	-13.2416
▁エコ	-13.2417
▁何時か	-13.2418
▁ふかい	-13.2419
▁淡路	-13.2419
▁新横浜	-13.242
星野源	-13.242
▁女子高生	-13.242
▁十三	-13.242
▁しゃれ	-13.2421
アゲ	-13.2421
雲	-13.2422
▁さきち	-13.2423
▁白髪	-13.2433
▁凶	-13.2439
▁一筋	-13.244
▁大原	-13.2443
▁つたわ	-13.2445
▁キライ	-13.2446
酔	-13.2448
▁オート	-13.2451
number	-13.2453
▁ウロウロ	-13.2453
▁レギュラー	-13.2453
▁プロレス	-13.2453
▁岩崎	-13.2453
ct	-13.2454
▁圧力	-13.2455
▁パーツ	-13.2455
▁やじ	-13.2456
チョン	-13.2457
▁su	-13.2457
▁むりなの	-13.2462
くれ	-13.2462
▁トニー	-13.2463
▁呢	-13.2464
▁あさっ	-13.2465
og	-13.2465
いなよ	-13.2466
▁絞め	-13.2466
こわす	-13.2466
▁おちつけ	-13.2467
ひっつい	-13.2467
四	-13.2467
▁長島	-13.2467
芸	-13.2469
▁ゅし	-13.247
こやく	-13.2471
んぽ	-13.2472
なが	-13.2473
▁ツラ	-13.2477
▁配り	-13.2478
▁出前	-13.2481
▁中継	-13.2482
▁政治	-13.2483
▁android	-13.2486
▁ヘトヘト	-13.2486
▁奉仕	-13.2486
▁昼夜逆転	-13.2486
▁西日暮里	-13.2486
▁沙耶	-13.2486
▁柴犬	-13.2486
▁新卒	-13.2486
▁レッツ	-13.2486
▁稲毛	-13.2487
揚げ	-13.2488
▁進学	-13.2492
▁バット	-13.2492
▁まっす	-13.2493
あかんこ	-13.2494
▁けんし	-13.2497
▁:.	-13.2499
鳴り	-13.2503
春雨	-13.2504
翼	-13.2504
伸び	-13.2504
▁招	-13.2504
▁かいわ	-13.2505
▁オリエンテー	-13.2506
▁博	-13.2508
▁故	-13.2511
▁アジア	-13.2514
▁溺	-13.2515
▁寫	-13.2517
わない	-13.2519
▁今日も明日も	-13.2519
おっちょこちょい	-13.2519
百貨店	-13.2519
▁dont	-13.2519
▁スプーン	-13.2519
▁ウェブ	-13.2519
怎樣	-13.2519
▁ノルマ	-13.2519
▁ものの	-13.2519
コレクション	-13.252
▁新入	-13.2521
▁役所	-13.2522
▁漢文	-13.2522
▁酸	-13.2523
海岸	-13.2525
▁ツイン	-13.2529
ゴン	-13.253
▁内面	-13.253
▁安藤	-13.2531
▁オム	-13.2533
▁じも	-13.2533
チュエーション	-13.2534
▁ワニ	-13.2534
▁??、	-13.2534
教育	-13.2538
▁裁判	-13.2538
▁おやじ	-13.2539
▁クソワロタ	-13.2539
研究	-13.254
▁キラー	-13.254
シッ	-13.2545
▁ゃないと	-13.2546
ホー	-13.2546
▁臨	-13.2548
ありがたみ	-13.2549
▁レディ	-13.255
ギョ	-13.255
ちまい	-13.2551
規	-13.2551
ヘル	-13.2552
▁カチカチ	-13.2552
▁バトミントン	-13.2552
▁匂わせ	-13.2552
▁拉致	-13.2552
▁吹っ切れ	-13.2552
▁すずしい	-13.2552
▁松尾	-13.2553
▁siri	-13.2553
▁煮込み	-13.2554
▁しゃけ	-13.2555
▁フォ	-13.2556
▁かたわ	-13.2556
どんき	-13.2557
おち	-13.2557
ゼン	-13.2558
▁サマ	-13.256
▁めく	-13.2561
▁さらば	-13.2562
泣	-13.2566
▁ぐお	-13.2569
▁ミート	-13.257
智	-13.257
▁アリーナ	-13.2571
ur	-13.2573
▁爆音	-13.2573
▁朝が	-13.2574
▁引っ張り	-13.2575
緑	-13.2576
ずは	-13.2576
▁!☀	-13.2576
とろう	-13.2578
もんね	-13.2581
▁とんだ	-13.2582
▁ひまし	-13.2583
▁千里	-13.2585
えりこ	-13.2585
▁追い詰め	-13.2586
▁ワイファイ	-13.2586
▁美少女	-13.2586
▁定義	-13.2586
▁処方	-13.2586
▁有り得	-13.2586
▁大人しい	-13.2586
▁勇者	-13.2586
▁持ち上げ	-13.2586
▁エサ	-13.2587
▁合わさ	-13.2587
▁鶴見	-13.2587
▁何でも	-13.2588
▁ゆれ	-13.2593
▁お供	-13.2595
▁せめ	-13.2596
かわい	-13.2598
▁レンズ	-13.2599
▁エレ	-13.2599
ッキ	-13.26
▁リサーチ	-13.2603
ってり	-13.2603
ころさ	-13.2605
▁胃が	-13.2607
てくれ	-13.2607
おばあさん	-13.2608
つづき	-13.2609
おり	-13.261
▁重さ	-13.2611
▁ぱや	-13.2614
のぞい	-13.2615
▁かいよ	-13.2617
▁合成	-13.2619
▁ペラペラ	-13.2619
▁ハラハラ	-13.2619
▁茂木	-13.2619
むずむず	-13.2619
▁パクチー	-13.2619
▁かかと	-13.262
▁照明	-13.262
▁千佳	-13.262
▁バトン	-13.262
▁スリル	-13.262
▁スタンス	-13.262
▁ぶんぶん	-13.2621
高校	-13.2623
▁土屋	-13.2624
だいじょば	-13.2626
▁弱音	-13.2626
トウ	-13.2627
ばしょ	-13.2628
▁湖	-13.2632
だせぇ	-13.2634
持てる	-13.2634
▁バイオ	-13.2637
んぴ	-13.2637
▁アサ	-13.2639
▁無くす	-13.264
▁狂い	-13.2642
洗	-13.2644
oc	-13.2645
爆	-13.2646
▁小屋	-13.2648
ムシ	-13.2649
▁オオ	-13.2649
ta	-13.2649
▁来そ	-13.2649
▁レトルト	-13.2653
▁弁護士	-13.2653
▁危うく	-13.2653
▁さくらんぼ	-13.2653
▁菊池	-13.2653
▁ミスチル	-13.2653
▁意志	-13.2653
▁レイプ	-13.2653
▁プリーズ	-13.2653
▁ぶりぶり	-13.2655
▁朝日	-13.2656
メリ	-13.2656
▁はなさ	-13.2659
▁オリ	-13.2659
はひど	-13.2659
▁四角	-13.266
▁のだめ	-13.266
チーム	-13.266
▁永久	-13.2661
▁モゾ	-13.2662
ふぉ	-13.2662
ぼこ	-13.2664
へんよう	-13.2665
▁まぜ	-13.2666
▁お嬢	-13.2666
▁留め	-13.2667
こだね	-13.2669
ほんと	-13.267
▁ロゴ	-13.267
▁むずすぎ	-13.2672
▁ぐへ	-13.2673
▁職人	-13.2673
▁スペ	-13.2674
▁奨	-13.2676
手数	-13.2677
▁仕上が	-13.2678
精	-13.2682
▁モロ	-13.2682
チーノ	-13.2682
▁先入	-13.2683
▁ボルダリング	-13.2687
▁新木場	-13.2687
▁スースー	-13.2687
▁レイクタウン	-13.2687
▁ジュニア	-13.2687
▁多摩	-13.2687
▁プログラム	-13.2687
▁飲食店	-13.2687
▁四条	-13.2687
世紀	-13.2688
▁視野	-13.2688
▁単発	-13.2688
▁構成	-13.2688
▁納品	-13.269
▁ダブルス	-13.2694
▁怒れ	-13.2694
▁オバ	-13.2694
▁ゲー	-13.2694
構い	-13.2698
ヽ	-13.2699
やとお	-13.2701
じめ	-13.2702
▁海苔	-13.2703
▁くお	-13.2706
▁擦	-13.2709
だもの	-13.271
ou	-13.2712
▁えこ	-13.2713
早上	-13.2714
▁ぁいい	-13.2719
▁英会話	-13.2721
▁なんちゃって	-13.2721
▁漫才	-13.2721
リョ	-13.2721
▁吹雪	-13.2721
▁帳	-13.2722
▁延び	-13.2722
ぐったり	-13.2723
あちゃん	-13.2725
▁あそべ	-13.2725
ちこち	-13.2725
▁自学	-13.2726
もどき	-13.2728
市内	-13.2728
置き	-13.2728
▁とーん	-13.2731
▁萩	-13.2734
▁雪見	-13.2738
▁励	-13.2739
▁おーと	-13.274
いたで	-13.2741
こうして	-13.2747
son	-13.2748
トゥー	-13.2748
ぎん	-13.2751
▁いちか	-13.2751
ほしい	-13.2752
▁アク	-13.2753
▁ほうじ茶	-13.2755
▁堪え	-13.2755
▁刈谷	-13.2755
▁住民票	-13.2755
▁ナンバーワン	-13.2755
▁構造	-13.2755
▁かみなり	-13.2755
▁真夏	-13.2756
▁柱	-13.2756
警報	-13.2758
パーティー	-13.2763
🤦🏼	-13.2763
▁ホン	-13.2768
▁なんでも	-13.2768
ふた	-13.2769
▁隣の	-13.2769
▁せいな	-13.2777
▁ゃって	-13.2778
▁ぐは	-13.2778
ぺこり	-13.2779
▁あーち	-13.2781
▁せつ	-13.2781
▁握り	-13.2782
▁事後	-13.2783
てつ	-13.2783
[...]
