[PAD]	0
[UNK]	0
[BOS]	0
[EOS]	0
[SEPT]	0
[SEP]	0
[unused00]	0
[unused01]	0
[unused02]	0
[unused03]	0
[unused04]	0
[unused05]	0
[unused06]	0
[unused07]	0
[unused08]	0
[unused09]	0
[unused10]	0
[unused11]	0
[unused12]	0
[unused13]	0
[unused14]	0
[unused15]	0
[unused16]	0
[unused17]	0
[unused18]	0
[unused19]	0
[unused20]	0
[unused21]	0
[unused22]	0
[unused23]	0
[unused24]	0
[unused25]	0
[unused26]	0
[unused27]	0
[unused28]	0
[unused29]	0
[unused30]	0
[unused31]	0
[unused32]	0
[unused33]	0
[unused34]	0
[unused35]	0
[unused36]	0
[unused37]	0
[unused38]	0
[unused39]	0
[unused40]	0
[unused41]	0
[unused42]	0
[unused43]	0
[unused44]	0
[unused45]	0
[unused46]	0
[unused47]	0
[unused48]	0
[unused49]	0
0	0
1	0
2	0
3	0
4	0
5	0
6	0
7	0
8	0
9	0
▁	-1.29286
▁?	-3.86565
▁.	-4.52776
▁이	-4.53295
▁가	-4.53852
▁나	-4.61292
▁하	-4.61879
▁고	-4.62887
▁는	-4.66473
ㅋㅋㅋㅋ	-4.66898
▁어	-4.6827
▁!	-4.70497
▁ㅋ	-4.76757
▁ㅋㅋ	-4.83977
▁ㅋㅋㅋ	-4.89485
▁아	-4.94803
▁에	-5.04313
▁다	-5.04511
▁거	-5.07062
▁도	-5.09497
▁안	-5.11157
▁지	-5.2007
▁야	-5.2082
▁해	-5.21634
ㅠㅠ	-5.30368
▁먹	-5.42263
▁게	-5.45509
▁..	-5.45679
▁은	-5.4586
▁~	-5.56011
▁ㅎㅎ	-5.57136
▁있	-5.58006
▁면	-5.72269
▁내	-5.72378
▁네	-5.73079
▁잘	-5.76552
▁오	-5.79554
▁보	-5.79722
▁자	-5.80749
▁응	-5.81238
▁구	-5.82615
▁아니	-5.91107
▁을	-5.92106
▁는데	-5.96729
▁웅	-6.05421
▁시	-6.05529
▁뭐	-6.06809
▁ㅠ	-6.07312
▁말	-6.07963
▁한	-6.0826
▁왜	-6.08941
▁좋	-6.10193
▁...	-6.13258
▁겠	-6.13783
▁만	-6.17978
▁서	-6.20407
ㅜㅜ	-6.21502
▁했	-6.22553
▁같	-6.23968
▁알	-6.24652
▁들	-6.25079
▁없	-6.26633
▁되	-6.27823
▁집	-6.28273
▁오늘	-6.28561
▁자기	-6.31386
▁ㅎ	-6.31449
▁난	-6.32901
▁잇	-6.35545
▁그	-6.38422
▁너	-6.38863
▁싶	-6.38982
▁었	-6.41047
▁오빠	-6.44523
▁진짜	-6.44885
▁할	-6.45743
▁기	-6.47751
▁이제	-6.49448
▁랑	-6.51395
▁ㅎㅎㅎ	-6.52749
▁좀	-6.53204
▁주	-6.53729
▁근데	-6.54063
▁더	-6.54723
▁지금	-6.55121
▁일	-6.60159
▁두	-6.62231
▁니	-6.6235
▁에서	-6.6262
▁ㄱ	-6.64884
▁못	-6.66016
▁음	-6.67602
▁로	-6.68785
▁그럼	-6.70098
▁웅웅	-6.70201
▁밥	-6.72827
▁그냥	-6.74044
▁어요	-6.74671
▁우리	-6.74696
▁겟	-6.75108
▁여	-6.75815
▁너무	-6.7706
▁때	-6.77586
▁엉	-6.79056
▁수	-6.80164
▁라	-6.81191
▁ㅜ	-6.81535
▁햇	-6.81676
▁와	-6.82028
▁당	-6.8284
▁여보	-6.83203
▁데	-6.87048
▁또	-6.87108
▁요	-6.90879
▁넹	-6.91455
▁머	-6.91508
▁그래	-6.9487
▁사랑	-6.97537
▁내일	-6.98697
ㅎㅎㅎㅎ	-6.99288
▁애	-7.00978
▁시간	-7.02234
▁를	-7.02767
▁았	-7.0402
▁으로	-7.04227
▁사	-7.04572
▁....	-7.04735
▁것	-7.05176
▁대	-7.05545
▁봐	-7.05809
▁해서	-7.06366
▁니까	-7.07473
많이	-7.07907
▁용	-7.08235
▁마	-7.09101
▁맞	-7.09494
▁생각	-7.10161
▁어서	-7.1226
▁엇	-7.14217
▁그러	-7.15957
▁러	-7.1614
▁써	-7.16223
▁중	-7.16645
▁까지	-7.17628
▁한테	-7.1772
▁씻	-7.19235
▁꺼	-7.19573
▁!!	-7.19675
▁사람	-7.2202
▁아직	-7.22283
▁어디	-7.23497
▁옹	-7.24025
▁그런	-7.24281
▁않	-7.24493
▁♥	-7.24497
▁저	-7.25359
▁으면	-7.25629
▁개	-7.25945
▁끝	-7.26127
▁분	-7.26169
▁,	-7.29853
▁미안	-7.33391
▁라고	-7.34189
▁같이	-7.34239
▁받	-7.36423
▁냐	-7.36773
▁앙	-7.36934
▁이랑	-7.37177
▁징	-7.38964
▁다가	-7.39075
▁헐	-7.39324
▁줄	-7.39664
▁님	-7.40084
▁번	-7.42096
▁친구	-7.4213
▁많	-7.42668
▁해야	-7.44109
▁아냐	-7.44692
▁갈	-7.4514
그거	-7.45898
▁쟈	-7.46768
▁건	-7.47675
▁놀	-7.48319
▁타	-7.49266
▁뎅	-7.49893
▁도착	-7.50596
▁잉	-7.51895
▁모르	-7.52221
▁왔	-7.52254
▁언제	-7.52785
ㅡㅡ	-7.52929
▁늦	-7.53406
▁인	-7.54098
▁다고	-7.55323
▁쉬	-7.56594
▁날	-7.57024
▁입	-7.57635
▁의	-7.57814
▁괜찮	-7.58392
▁그래서	-7.58977
▁ㅇ	-7.59432
▁으	-7.59958
▁돼	-7.60441
▁해요	-7.6062
▁만나	-7.61706
▁듯	-7.61707
▁그렇	-7.61829
지	-7.63361
▁앗	-7.63597
▁눈	-7.63667
▁아서	-7.64573
▁빨리	-7.64802
▁전	-7.64946
▁긴	-7.65222
▁쓰	-7.65356
▁싫	-7.65881
▁하나	-7.66863
▁막	-7.66919
▁은데	-7.6694
▁연락	-7.68138
얘기	-7.68185
이	-7.6844
▁차	-7.68464
▁엄마	-7.68836
▁~~	-7.70557
▁전화	-7.71924
▁바	-7.7194
▁♡	-7.72836
▁일찍	-7.73183
▁힝	-7.7343
▁걸	-7.73788
▁인데	-7.7497
▁죠	-7.74988
▁살	-7.75204
▁몇	-7.76121
▁공부	-7.76396
▁ㄱㄱ	-7.76628
▁면서	-7.77045
▁잠	-7.77717
▁남	-7.77994
▁어제	-7.78169
요	-7.78555
▁부터	-7.79303
▁따	-7.79839
▁피곤	-7.80174
▁엄청	-7.80278
▁응응	-7.81707
ㅇㅇ	-7.82003
▁낼	-7.83182
▁왓	-7.83367
무슨	-7.83509
▁술	-7.84546
그래도	-7.84561
▁다시	-7.86172
▁헤헤	-7.86566
▁줘	-7.86586
▁❤	-7.87089
▁쪄	-7.87098
▁적	-7.87592
▁넘	-7.87649
▁얌	-7.88081
▁힘들	-7.88596
▁배	-7.88695
▁모	-7.88861
▁애기	-7.9025
▁던	-7.90268
▁저녁	-7.91168
▁나가	-7.91434
▁갔	-7.91761
▁버스	-7.92031
▁울	-7.92155
▁봤	-7.92165
▁여자	-7.92765
▁이거	-7.93191
▁계속	-7.93662
▁케	-7.94469
▁떠	-7.95203
▁우	-7.9524
▁히히	-7.95387
맛있	-7.95525
▁돈	-7.95888
▁거기	-7.9653
▁어야	-7.97434
가	-7.98621
▁바로	-7.98718
▁랭	-8.00307
▁지만	-8.00414
▁사진	-8.00553
▁보내	-8.00737
▁함	-8.01264
▁낫	-8.01564
▁구나	-8.01827
▁까	-8.01969
▁남자	-8.024
▁물	-8.0255
▁아침	-8.02955
▁머리	-8.03046
▁️	-8.03244
▁달	-8.04569
▁원	-8.0485
▁몰라	-8.0516
▁보다	-8.05431
▁반	-8.05813
▁혼자	-8.06134
▁올	-8.06428
▁께	-8.06488
▁^^	-8.06729
▁디	-8.06851
▁이런	-8.07731
▁!!!	-8.08219
▁ㅡ	-8.08258
▁져	-8.08262
쯤	-8.08401
▁아요	-8.09469
▁잖아	-8.09631
리	-8.09914
▁!!!!	-8.10084
▁정도	-8.10289
ㅠㅜ	-8.10545
▁준비	-8.10675
▁볼	-8.10791
▁비	-8.10904
▁어용	-8.11765
▁??	-8.12004
▁일단	-8.12291
아	-8.12607
▁앞	-8.13356
그렇게	-8.13568
▁아아	-8.13765
도	-8.13768
그게	-8.14103
▁낭	-8.14152
▁완전	-8.14521
▁맛	-8.14602
▁그건	-8.15546
▁아까	-8.15982
▁학교	-8.1606
▁치	-8.16548
▁갓	-8.17016
▁수업	-8.17126
▁찍	-8.17141
▁둘	-8.1859
▁가지	-8.18836
▁여기	-8.19332
▁ㄴ	-8.19406
들어가	-8.19557
▁일어나	-8.19645
▁엥	-8.19708
▁엔	-8.19985
▁다행	-8.20226
▁냥	-8.20356
▁나오	-8.20795
아니야	-8.20971
▁야지	-8.21249
▁헤	-8.21373
▁걱정	-8.21411
▁이상	-8.21448
▁래	-8.2153
▁기분	-8.21537
▁죽	-8.22201
▁다른	-8.22882
다	-8.23256
▁와서	-8.23581
▁길	-8.23665
▁헿	-8.24219
고	-8.24263
▁옷	-8.24298
▁짱	-8.24852
나	-8.25322
▁임	-8.2557
▁후	-8.26056
▁톡	-8.27666
▁잤	-8.2786
▁군	-8.28479
▁누나	-8.29317
▁열	-8.29606
▁조금	-8.29637
▁;	-8.29912
▁양	-8.30023
▁걍	-8.3042
▁ㄹ	-8.3067
▁참	-8.30673
▁흐	-8.30754
▁얼른	-8.30896
▁운동	-8.31272
▁.?	-8.31426
▁점심	-8.31539
▁넌	-8.31859
▁인가	-8.32749
▁키	-8.33372
우웅	-8.33517
▁이따	-8.33633
▁듣	-8.34519
▁제	-8.34589
에요	-8.34624
기	-8.35062
어	-8.35341
으러	-8.35961
맨날	-8.36823
▁찌	-8.36939
▁찾	-8.36953
원래	-8.37269
▁아빠	-8.37434
▁놓	-8.37593
▁해도	-8.3773
▁될	-8.3774
▁진	-8.38137
▁노	-8.38353
▁글	-8.38445
ㅜㅠ	-8.38691
▁욜	-8.38702
▁였	-8.38805
서	-8.38998
▁이번	-8.39619
▁흠	-8.39727
▁그럴	-8.40111
▁고생	-8.40173
▁방	-8.40273
▁퇴근	-8.40412
▁정말	-8.40435
카톡	-8.40572
▁미	-8.40697
▁그리고	-8.40818
▁이나	-8.40933
▁그때	-8.41113
▁다음	-8.419
자	-8.42174
▁누구	-8.42203
▁니깐	-8.42449
갑자기	-8.42907
▁ㅣ	-8.43447
▁명	-8.44523
해야지	-8.44687
▁아프	-8.44764
▁려고	-8.44993
▁꾸	-8.45068
▁났	-8.45903
▁으니까	-8.45989
▁담	-8.46254
▁보여	-8.46539
▁마니	-8.46831
▁먼저	-8.47552
▁재	-8.47556
▁그랬	-8.47602
▁행	-8.47642
▁피	-8.47647
▁뭘	-8.48314
어떻게	-8.48423
▁세	-8.48701
▁저거	-8.48845
▁거든	-8.4977
▁딱	-8.49805
▁다니	-8.50095
▁건데	-8.50201
▁나중	-8.50213
▁이쁘	-8.50305
야	-8.50349
▁씨	-8.50383
▁언니	-8.50548
▁형	-8.50575
▁랫	-8.50773
▁영화	-8.5164
▁히	-8.51745
▁ㄲ	-8.52218
구	-8.52547
▁잘못	-8.52768
▁손	-8.52806
▁신	-8.53272
▁ㅏ	-8.53552
▁마시	-8.53623
▁곧	-8.54024
▁조	-8.54379
하	-8.54753
▁궁	-8.54931
▁하루	-8.55206
▁한데	-8.55911
▁벌써	-8.56249
이렇게	-8.56678
▁월	-8.57152
▁잡	-8.57316
▁꼭	-8.57497
▁네요	-8.57559
▁소리	-8.57712
▁크	-8.57893
▁나왔	-8.58066
▁맘	-8.58126
▁폰	-8.58526
▁몸	-8.59206
▁만들	-8.59386
▁아닝	-8.59841
▁바보	-8.6018
▁이러	-8.60521
▁오래	-8.6058
짜증	-8.6079
▁무	-8.60813
▁어여	-8.60974
▁재밌	-8.61099
▁을까	-8.61312
▁옆	-8.61347
▁갠	-8.61453
▁겡	-8.61516
▁:	-8.61597
▁댜	-8.61911
자요	-8.62381
▁출발	-8.62454
▁꼬	-8.62657
▁얼굴	-8.63008
▁ㄷ	-8.63052
▁짜	-8.63619
▁ㅗ	-8.63631
▁한다	-8.63671
▁별로	-8.64979
사	-8.65045
▁밤	-8.65494
▁년	-8.65563
▁뭔가	-8.65593
▁힘	-8.6594
▁그치	-8.66765
▁쪽	-8.66774
열심히	-8.66779
넣	-8.66954
▁드	-8.67199
▁방금	-8.67249
거의	-8.67657
▁조아	-8.68222
▁출근	-8.68298
▁ㅅ	-8.68596
▁준	-8.6862
거	-8.6897
ㅌㅌ	-8.69112
▁자꾸	-8.69283
▁구래	-8.69873
▁영	-8.69972
▁곳	-8.7026
▁약	-8.70261
힣	-8.70607
▁세요	-8.70735
▁던데	-8.7097
기다리	-8.71109
▁웃	-8.71122
아님	-8.71241
▁싸	-8.71376
▁시험	-8.71472
▁앉	-8.71564
▁밖	-8.71628
▁된	-8.71835
▁~~~	-8.71903
▁유	-8.71947
▁라도	-8.72795
▁됐	-8.72866
▁본	-8.73056
처럼	-8.73071
잠깐	-8.73358
▁쫌	-8.73703
라	-8.73729
▁왕	-8.73747
▁는지	-8.74133
▁흥	-8.74324
▁뿌	-8.74448
▁멀	-8.75066
▁욤	-8.75143
▁푹	-8.75531
오	-8.75817
▁더니	-8.75993
▁성	-8.7616
▁고마워	-8.7618
▁과	-8.76313
▁더라	-8.76346
▁장	-8.76626
시	-8.76949
▁왱	-8.77016
▁마음	-8.7712
▁십	-8.77664
▁때문	-8.77689
요즘	-8.78095
얼마나	-8.78226
▁ㅇㅅㅇ	-8.78309
▁간	-8.78345
대	-8.78522
▁라는	-8.78765
▁보이	-8.79019
▁아하	-8.79026
귀엽	-8.79584
▁라면	-8.79652
▁시작	-8.79869
▁빼	-8.79898
▁꿈	-8.80017
▁화	-8.80052
▁쥬	-8.80241
▁짐	-8.80767
▁끝나	-8.80968
▁텐데	-8.80981
▁나와	-8.81156
▁김	-8.81164
▁뒤	-8.81197
해	-8.8152
▁융	-8.81566
▁삼	-8.81604
▁어야지	-8.82036
▁그런가	-8.82157
▁병원	-8.82221
▁역시	-8.8231
▁구만	-8.82357
▁코	-8.82571
▁냐고	-8.82951
▁누가	-8.83117
해용	-8.83275
▁감	-8.83317
▁졸	-8.83593
▁다는	-8.83756
▁예	-8.83772
ㅋ	-8.83811
▁규	-8.83954
▁ㅓ	-8.84472
▁묵	-8.84518
▁라서	-8.84725
▁귀여워	-8.84816
니	-8.84919
▁셨	-8.84939
▁사실	-8.85231
▁풀	-8.85383
▁ㅁ	-8.85397
▁부	-8.85481
▁빵	-8.85677
조심히	-8.85864
언능	-8.85959
▁존나	-8.86126
▁어도	-8.86155
▁쩌	-8.86243
▁이미	-8.86309
▁그니까	-8.86557
▁호	-8.86617
▁아닌데	-8.86685
▁졸려	-8.86813
▁아파	-8.86825
▁잔	-8.87419
▁노래	-8.87508
▁치킨	-8.87752
▁느낌	-8.88343
▁기억	-8.88668
▁봉	-8.88915
▁깨	-8.90074
▁댕	-8.90582
▁뭔	-8.90804
▁대박	-8.91501
▁끼	-8.91763
▁누	-8.91782
▁ㅈ	-8.91802
▁뽀뽀	-8.92067
▁움	-8.9217
보	-8.92189
▁동생	-8.92329
▁건가	-8.92555
▁든	-8.9278
▁온	-8.92852
▁공	-8.92877
▁봐야	-8.92902
▁조심	-8.93307
▁속	-8.93521
▁엿	-8.93522
▁단	-8.93907
▁누워	-8.93931
▁어떤	-8.94629
▁챙겨	-8.95036
▁아닌	-8.95129
▁헉	-8.95574
걔	-8.95688
▁티	-8.96127
▁불	-8.96245
▁당연	-8.96297
▁업	-8.96835
▁씩	-8.96889
▁줄게	-8.97332
▁이뻐	-8.97352
▁줬	-8.98007
ㄴㄴ	-8.9823
▁♡♡	-8.98385
▁끄	-8.9843
▁금방	-8.98464
▁습니다	-8.99106
밖에	-8.99166
▁팔	-8.99372
▁게임	-8.9967
▁아이	-8.99828
▁얼마	-8.99868
▁회사	-9.00088
스	-9.00198
▁라구	-9.00229
▁능	-9.00326
안	-9.00769
▁믄	-9.00826
▁워	-9.01105
▁고기	-9.012
▁-	-9.0126
▁넵	-9.01291
▁읽	-9.01437
▁위	-9.01502
▁길래	-9.01525
▁언	-9.01646
▁고민	-9.01669
▁주말	-9.01821
수	-9.0213
▁생	-9.02136
▁웡	-9.02158
▁탔	-9.0221
▁휴	-9.0229
▁렷	-9.02377
▁수고	-9.02794
ㅋㅋ	-9.02809
이게	-9.02888
▁졸리	-9.03399
▁쏘	-9.03401
▁가요	-9.03436
▁???	-9.03537
▁문제	-9.03702
▁갈까	-9.03767
▁아주	-9.03857
▁이해	-9.03904
▁처음	-9.04021
▁려구	-9.04156
▁아야	-9.04494
▁잣	-9.0484
▁아무	-9.05373
▁궁금	-9.05439
▁간다	-9.05539
▁아앙	-9.06116
▁일어났	-9.06331
▁허	-9.06417
▁루	-9.06845
ㅇㅋ	-9.06866
▁항상	-9.06883
저번	-9.07018
▁필요	-9.07374
ㄷㄷ	-9.07605
▁힘내	-9.07615
▁겁나	-9.07737
▁할까	-9.07818
인	-9.07885
▁쪙	-9.08673
▁장난	-9.09065
▁이쁜	-9.09111
▁옴	-9.0924
야징	-9.09276
▁답	-9.09719
▁셔	-9.09724
▁믿	-9.0975
▁다구	-9.09926
▁소	-9.10089
▁지하철	-9.10506
▁캬	-9.10574
▁자리	-9.1084
▁과제	-9.10952
▁이이	-9.11159
▁통화	-9.1123
▁랏	-9.11265
▁뽀	-9.11444
용	-9.11643
▁똥	-9.11701
여	-9.12692
진	-9.12708
▁아마	-9.12848
우	-9.12914
▁춥	-9.13021
▁제일	-9.13125
▁..?	-9.13158
▁이야기	-9.13283
▁밋	-9.133
▁카페	-9.13314
▁잖	-9.13412
▁약속	-9.14023
는	-9.14322
▁목	-9.14372
잠들	-9.14592
음	-9.14708
▁느	-9.14715
되게	-9.14832
▁빠	-9.15118
▁이름	-9.15248
▁보고	-9.15358
나왓	-9.15519
▁그만	-9.15575
▁스	-9.15602
천천히	-9.15912
▁책	-9.1601
▁탓	-9.16059
▁날씨	-9.16239
▁오구	-9.16431
▁신경	-9.16531
▁졍	-9.16538
게	-9.16588
▁귀	-9.17035
줘서	-9.17573
비	-9.17579
▁버	-9.17627
▁딩	-9.17638
▁테	-9.17802
▁느라	-9.17852
▁몰	-9.17968
▁썽	-9.19265
당	-9.19465
장	-9.19507
▁서울	-9.19777
귀찮	-9.20606
▁행복	-9.20684
▁학원	-9.20812
▁하구	-9.2082
▁한다고	-9.2092
그래두	-9.21394
이얌	-9.21423
▁박	-9.21694
▁정리	-9.21865
▁결혼	-9.22165
💕	-9.22186
▁봄	-9.22509
▁이래	-9.22573
마	-9.22672
▁알바	-9.22865
▁미친	-9.22874
걸로	-9.22919
▁랴	-9.22975
▁택시	-9.23017
그것	-9.23099
▁여부	-9.2323
와요	-9.23271
▁마자	-9.23284
봐요	-9.23339
어차피	-9.23412
▁우와	-9.23439
▁큰	-9.2375
▁ㅌ	-9.23786
▁알려	-9.23837
미	-9.24033
그래요	-9.24209
▁강	-9.24242
▁갸	-9.2428
▁어쩔	-9.24295
▁째	-9.24314
주	-9.24627
▁앜ㅋㅋㅋㅋㅋ	-9.24655
▁가능	-9.24849
로	-9.24874
▁안대	-9.25112
▁잼	-9.25179
▁굿	-9.25523
▁ㅌㅋㅋㅋㅋㅋ	-9.25539
▁아가	-9.25904
자마자	-9.25936
▁진심	-9.25945
▁자고	-9.25997
▁딴	-9.26081
▁천	-9.26081
바쁘	-9.26094
▁오빤	-9.2619
▁파	-9.26292
▁나갈	-9.26306
동	-9.26441
배고프	-9.26444
치	-9.26597
▁)	-9.26748
▁신기	-9.26768
▁아라	-9.2688
▁어떡	-9.26913
▁커피	-9.26984
▁점	-9.27126
▁동안	-9.2715
▁어때	-9.27468
▁에이	-9.27535
▁라니	-9.27991
▁금	-9.28337
아항	-9.28411
ㅋㅋㅋ	-9.28563
▁발	-9.28712
▁려	-9.28752
▁슈	-9.28831
▁얘	-9.28936
▁멍	-9.29159
▁지요	-9.29531
데	-9.29759
▁걸리	-9.29846
일	-9.29889
▁새	-9.29996
▁정신	-9.30174
▁쌤	-9.30219
▁실	-9.30457
▁넴	-9.3071
▁먼	-9.30759
▁쪼	-9.31296
▁작	-9.3148
▁티비	-9.31507
▁질	-9.31685
▁땅	-9.31824
▁백	-9.31886
▁이건	-9.31975
▁마지막	-9.32558
▁심심	-9.32688
▁덥	-9.32792
▁겨	-9.33084
▁시켜	-9.33125
역	-9.33154
▁바부	-9.33165
네	-9.33174
▁홍	-9.33567
▁매	-9.33607
▁줘야	-9.33686
▁나요	-9.33742
면	-9.34043
▁뿐	-9.34174
화이팅	-9.34481
▁기대	-9.35297
▁깅	-9.35456
▁헷	-9.36234
▁기여	-9.36308
▁혹시	-9.36524
▁으니	-9.36839
▁다리	-9.36866
▁버리	-9.36883
은	-9.37107
▁욕	-9.37804
▁밍	-9.37821
▁오오	-9.37989
▁깡	-9.3819
▁돼지	-9.38348
▁마다	-9.38701
▁는디	-9.38867
봐서	-9.38933
화장실	-9.39023
▁땐	-9.39085
▁토	-9.395
▁올게	-9.39631
▁ㅔ	-9.40046
▁맛나	-9.40137
▁셧	-9.40236
▁문	-9.40384
▁맥주	-9.40707
만	-9.4072
▁끊	-9.40801
▁카	-9.41
▁갖	-9.41439
▁기다려	-9.41617
▁앙앙	-9.41652
못하	-9.4192
▁그러면	-9.42136
소	-9.42207
▁볼까	-9.4272
▁똑같	-9.4273
▁배고파	-9.43044
▁쿠	-9.43301
▁등	-9.43373
▁됨	-9.43569
▁덜	-9.4363
▁젤	-9.43946
에	-9.44754
▁#	-9.4578
▁엄	-9.46122
▁햐	-9.46217
랑	-9.46366
▁껀	-9.46448
ㅋㄷ	-9.46565
▁욥	-9.46567
▁는다	-9.46671
유	-9.46851
▁쳐	-9.46978
▁꺼야	-9.47035
▁자주	-9.47052
ㅎ	-9.47371
▁따뜻	-9.47398
▁저런	-9.47404
오랜만	-9.47583
▁별	-9.47639
▁뽑	-9.47655
▁정	-9.47764
이따가	-9.48058
▁그래야	-9.48162
토요일	-9.4835
두	-9.48366
목소리	-9.48516
▁둥	-9.48542
▁선	-9.48747
▁놔	-9.48883
▁ㅂ	-9.48884
ㅅㅂ	-9.49261
래	-9.49312
▁쓸	-9.49426
▁여행	-9.4952
▁대로	-9.49666
▁빡	-9.49886
▁닝	-9.49946
▁합니다	-9.49946
▁띠	-9.4999
부	-9.50087
▁란	-9.50368
▁뷰	-9.50645
▁시키	-9.50741
페북	-9.50808
▁선물	-9.50878
▁돌	-9.50905
▁어쩌	-9.51077
▁푸	-9.5141
▁된다	-9.51495
▁뻔	-9.51496
할꺼	-9.51767
▁오키	-9.51884
▁르	-9.51891
▁으응	-9.52529
▁감기	-9.52717
▁자긴	-9.52719
▁바람	-9.53132
성	-9.53507
ㅠ	-9.53544
금요일	-9.53566
▁????	-9.53768
이잉	-9.53846
▁운	-9.5403
▁뚜	-9.54145
거나	-9.5436
▁비슷	-9.54615
▁뜨	-9.54671
▁교수	-9.54677
▁요오	-9.54702
▁얼	-9.55124
▁벌	-9.55211
▁으면서	-9.55343
내	-9.5541
▁잠시	-9.55433
▁초	-9.55709
디	-9.55966
▁연습	-9.55984
▁운전	-9.55992
▁안녕	-9.56044
▁샀	-9.56296
▁붙	-9.56342
제	-9.56514
영	-9.56635
▁ㅐ	-9.56648
모	-9.56652
▁겻	-9.56784
없이	-9.56944
▁짓	-9.5732
▁추워	-9.57333
비싸	-9.57392
▁듀	-9.57475
부럽	-9.57525
▁빠르	-9.57629
▁뀨	-9.57641
▁저기	-9.57838
편하	-9.57915
▁냄새	-9.58105
▁하고	-9.58172
▁뇽	-9.58793
▁내려	-9.59328
▁싯	-9.59455
웃기	-9.59501
정	-9.59613
▁절대	-9.59621
히	-9.59715
남친	-9.59749
▁자나	-9.5983
▁놈	-9.59898
▁혀	-9.59928
▁오디	-9.60215
▁퓨	-9.60262
▁인지	-9.60268
▁동	-9.60318
크크	-9.60319
▁곤	-9.60462
▁아닌가	-9.60552
▁할래	-9.60709
▁상	-9.60822
▁새벽	-9.60955
▁아용	-9.61056
▁이유	-9.61109
▁청소	-9.61386
▁껄	-9.61414
▁만날	-9.61528
▁카드	-9.6156
▁~~~~	-9.61653
▁그걸	-9.61703
▁확인	-9.61826
▁얍	-9.61936
▁웃겨	-9.62227
▁층	-9.62454
▁시퍼	-9.62457
▁새끼	-9.62564
오잉	-9.626
▁서로	-9.62652
▁우린	-9.62977
핸드폰	-9.63073
▁병	-9.63108
자용	-9.63425
▁터	-9.63695
닼	-9.63899
▁샤워	-9.63903
한	-9.63944
▁중요	-9.64076
답장	-9.64103
▁염	-9.6412
약간	-9.64319
▁담주	-9.64327
▁더워	-9.64586
▁컴	-9.64757
▁가족	-9.64849
▁오호	-9.65044
▁프사	-9.65048
괜히	-9.65157
고맙	-9.65247
▁그러니까	-9.6525
▁첨	-9.65295
▁나올	-9.65406
일요일	-9.65596
▁껭	-9.65603
스트레스	-9.66284
▁미리	-9.66467
▁굳	-9.66885
▁ㅑ	-9.66922
▁빨	-9.66931
조	-9.66937
▁순	-9.66973
전	-9.66986
▁따라	-9.67006
▁화장	-9.67102
▁넝	-9.67164
▁해라	-9.67252
▁망	-9.67346
▁/	-9.6735
나와서	-9.67934
▁자자	-9.68099
▁할께	-9.68149
드	-9.68186
▁캐	-9.68208
인나	-9.68214
▁퍼	-9.68321
원	-9.68412
▁자라	-9.68563
▁대신	-9.68573
▁겅	-9.68653
그러게	-9.68731
▁.....	-9.68787
ㅎㅎ	-9.68841
▁세상	-9.68977
암튼	-9.69074
어머니	-9.69231
아저씨	-9.69742
▁메	-9.69816
▁번호	-9.69821
▁노력	-9.70022
▁려나	-9.70087
▁설마	-9.70094
▁제발	-9.70096
▁예약	-9.70161
▁식	-9.70692
▁내리	-9.70727
▁암	-9.70823
▁삐	-9.70935
상	-9.7121
▁영어	-9.71313
▁틀	-9.71413
▁낮	-9.71499
▁커	-9.71502
▁나온	-9.71585
▁시원	-9.71758
▁검색	-9.71859
▁무섭	-9.72082
▁닮	-9.72162
▁늘	-9.72184
▁매일	-9.72203
▁지나	-9.7227
▁럼	-9.72579
근처	-9.72736
▁널	-9.72829
▁산	-9.72919
▁아아아	-9.73113
▁생일	-9.7317
솔직히	-9.73334
▁담배	-9.73532
▁쟝	-9.73603
▁졌	-9.73751
▁중간	-9.7386
당연히	-9.7404
▁나쁜	-9.74205
여친	-9.74478
▁몬	-9.74526
바	-9.74651
▁히히히	-9.74899
▁부르	-9.75093
▁대충	-9.75154
▁이당	-9.75174
▁는구나	-9.75208
▁와야	-9.75508
▁흑	-9.75539
▁아픈	-9.75545
봐도	-9.75627
▁><	-9.75728
▁고파	-9.76059
▁됬	-9.76382
선배	-9.76383
▁이야	-9.76493
▁오후	-9.76805
▁헝	-9.76966
▁겜	-9.77054
▁사이	-9.77065
만큼	-9.77083
▁즁	-9.7712
▁일어	-9.77244
제대로	-9.77567
▁우산	-9.77689
▁예전	-9.77946
▁인정	-9.7811
불편	-9.78214
선	-9.7827
▁우왕	-9.78275
▁죵	-9.78285
슬슬	-9.78287
▁칭	-9.7848
▁추	-9.78877
▁입니다	-9.78918
호	-9.78932
▁생겼	-9.78949
▁아쉽	-9.79043
월요일	-9.79111
▁뛰	-9.79137
▁상황	-9.79221
▁에게	-9.79471
개	-9.79552
▁가방	-9.79569
차	-9.7969
더	-9.79692
대답	-9.79728
방	-9.8009
▁며	-9.80105
▁시러	-9.80116
▁쿤	-9.80393
▁덩	-9.8047
▁도서관	-9.80828
▁거짓말	-9.80925
▁심	-9.81011
▁문자	-9.8106
▁뮤	-9.81075
▁침대	-9.81163
▁한가	-9.81232
봐야지	-9.81241
종일	-9.81274
▁척	-9.81297
▁팀	-9.813
▁맨	-9.81506
▁부모	-9.81526
ㅎㅅㅎ	-9.81552
▁아예	-9.81714
무	-9.81953
▁에휴	-9.81977
▁피자	-9.82098
▁롤	-9.82104
▁맛난	-9.82131
도록	-9.82131
▁대단	-9.82204
▁큰일	-9.82303
▁튼	-9.82367
▁갈게	-9.82501
▁감사	-9.82911
▁베	-9.83006
예요	-9.83009
임	-9.83014
▁굼	-9.83017
ㅜ	-9.83124
▁재미	-9.8324
▁커플	-9.83357
▁나이	-9.83411
▁닷	-9.83441
▁데리	-9.83617
▁;;	-9.83742
▁하하	-9.83813
감	-9.83868
▁밑	-9.83911
▁바지	-9.84167
▁주일	-9.84286
▁괜차나	-9.84439
어휴	-9.84881
▁가끔	-9.84989
▁시발	-9.85009
▁온다	-9.8502
▁구경	-9.85032
까먹	-9.85489
▁그리	-9.85643
▁어떻	-9.85897
▁도와	-9.85899
▁바꾸	-9.85953
▁뭔데	-9.8596
▁예쁘	-9.86059
▁으니깐	-9.86163
ㅇ	-9.86212
모야	-9.86263
올라가	-9.86399
데이트	-9.86684
아무것	-9.87095
▁으아	-9.87256
▁집중	-9.87605
▁찬	-9.87659
▁.!	-9.87822
한번	-9.87983
쟁이	-9.88014
▁혼	-9.88029
▁귀여	-9.88032
배터리	-9.88079
▁몰랐	-9.88105
러	-9.88117
▁허허	-9.8814
▁빨래	-9.88194
▁했었	-9.8856
네에	-9.88611
▁댱	-9.88661
▁급	-9.88845
▁줭	-9.88861
▁을래	-9.88973
▁봥	-9.89117
보단	-9.89169
▁쥐	-9.89181
애	-9.89268
▁힘드	-9.89471
▁팡	-9.89571
▁고마워요	-9.89739
▁탈	-9.89777
▁부산	-9.89889
회식	-9.89896
스럽	-9.8998
▁그날	-9.90035
▁잔다	-9.9039
는데	-9.90505
재	-9.90627
▁할머니	-9.90646
▁무리	-9.90845
▁충전	-9.90857
▁려면	-9.90998
▁댓	-9.91167
▁다아	-9.91167
▁다녀	-9.91537
▁상관없	-9.91544
▁나라	-9.91563
▁첫	-9.91595
▁인사	-9.91612
▁먄	-9.9162
▁칼	-9.91701
▁표정	-9.91739
▁쟤	-9.91856
▁녜	-9.91861
모습	-9.91937
실	-9.92024
▁다섯	-9.92275
▁무서워	-9.92366
▁허리	-9.92421
▁아니면	-9.92579
들어오	-9.92645
▁마치	-9.92738
▁불러	-9.92808
▁줌	-9.9298
▁군대	-9.93084
▁짧	-9.93086
신	-9.9314
▁들어왔	-9.93172
▁회	-9.93244
열공	-9.93451
▁찡	-9.93774
산	-9.93806
▁땜	-9.93838
▁건지	-9.93996
▁드리	-9.94232
▁결국	-9.9424
공	-9.94365
경	-9.94509
▁다르	-9.94524
▁핳	-9.94642
▁공주	-9.94651
😍	-9.9476
▁갈래	-9.94877
까	-9.9505
니당	-9.95083
▁그런데	-9.95114
▁바빠	-9.95166
▁몰랑	-9.95233
▁냉	-9.95336
ㄱ	-9.95434
양	-9.95512
▁아구	-9.95807
▁민	-9.964
▁는대	-9.96671
▁오전	-9.9672
▁삿	-9.96733
▁악	-9.96757
▁편	-9.96914
옛날	-9.96997
▁안자	-9.97017
▁켜	-9.97049
야겠다	-9.97076
그래그래	-9.97127
▁최고	-9.9733
▁인터넷	-9.97369
▁아기	-9.97435
▁햄	-9.97502
▁아오	-9.97512
써요	-9.97561
집	-9.97566
▁색	-9.97646
물	-9.9768
▁셔서	-9.97695
단	-9.9773
▁건강	-9.97827
세	-9.97901
▁마셔	-9.9792
▁자야	-9.98308
▁불안	-9.98513
▁난리	-9.98623
▁내용	-9.98795
▁벗	-9.98822
▁우우	-9.98856
▁땡	-9.98879
▁눈치	-9.98897
▁충	-9.9897
▁'	-9.99096
▁역	-9.99149
▁교회	-9.99321
▁닭	-9.99359
▁씹	-9.99423
행	-9.99485
▁땀	-9.99558
▁고마	-9.99563
할게요	-9.99656
▁숨	-9.99657
아파서	-9.99863
거양	-9.9996
▁이리	-10.002
들	-10.0034
간다고	-10.0038
▁아야지	-10.0044
▁오타	-10.005
동영상	-10.0053
▁트	-10.0058
▁뿅	-10.0065
식	-10.0069
▁요새	-10.0081
▁하트	-10.0081
▁핫	-10.0082
▁지각	-10.0098
▁축구	-10.0103
▁상태	-10.0111
줘요	-10.0141
▁뎁	-10.0144
▁눙	-10.0183
▁따로	-10.0186
▁한잔	-10.0187
▁회의	-10.0188
▁끈	-10.02
▁존	-10.0205
▁간당	-10.0214
▁헤헤헤	-10.0231
▁던가	-10.0247
▁걸려	-10.025
▁떵	-10.0252
▁여유	-10.0259
▁♡♡♡	-10.0262
져	-10.0267
▁거리	-10.028
▁아녀	-10.0286
▁~♡	-10.0287
▁만났	-10.0309
그	-10.0309
말	-10.0331
편의점	-10.0337
자낭	-10.0363
▁포기	-10.0364
▁앵	-10.0371
▁드라마	-10.0375
트	-10.0387
에용	-10.0418
질	-10.0419
▁사장	-10.0446
▁동네	-10.0459
▁쉽	-10.0464
▁생기	-10.0473
▁ㅛ	-10.0473
▁휴가	-10.0474
세여	-10.0482
린	-10.0499
▁가용	-10.0504
▁흑흑	-10.0506
▁연애	-10.0529
▁신발	-10.0537
저	-10.0546
▁때리	-10.0546
중	-10.0557
▁끝내	-10.0559
나옴	-10.0567
▁할지	-10.0568
▁근	-10.0571
화	-10.0573
▁콩	-10.0574
잉	-10.0576
▁다며	-10.0578
빠지	-10.0579
강	-10.0581
▁김밥	-10.0582
▁싸우	-10.0585
생각나	-10.0585
▁노노	-10.0593
▁^	-10.0599
▁버려	-10.0608
문	-10.0615
▁깔	-10.0619
▁레	-10.0622
▁이불	-10.0622
▁아아아아	-10.0625
▁칠	-10.0659
▁기차	-10.0666
▁팩	-10.0669
▁그르	-10.0675
▁학년	-10.0675
▁귀여운	-10.0683
▁신청	-10.0686
▁답답	-10.0688
세용	-10.069
▁보냈	-10.0703
▁까진	-10.0708
르	-10.0715
▁그려	-10.0717
▁멋	-10.0722
▁큐	-10.0727
▁롱	-10.0736
▁윤	-10.0742
선생	-10.0745
▁봣	-10.0761
▁쬬	-10.0777
간	-10.0796
▁사귀	-10.0802
▁떼	-10.0825
▁샵	-10.0845
▁쨔	-10.0852
▁서운	-10.0857
▁끼리	-10.0866
착하	-10.0869
떡볶이	-10.0881
▁부탁	-10.0884
▁차이	-10.0892
▁저게	-10.0901
▁썼	-10.0902
픈	-10.0908
현	-10.0919
▁위험	-10.0925
▁플	-10.0929
▁어렵	-10.0932
▁한국	-10.094
▁우유	-10.0942
▁아도	-10.0956
▁상상	-10.0962
▁자랑	-10.0982
▁그리구	-10.099
▁갈께	-10.0994
▁지롱	-10.1002
▁연	-10.1013
▁놉	-10.1017
▁각	-10.1034
▁긔	-10.1045
가게	-10.1054
▁네네	-10.1059
목요일	-10.106
려	-10.1065
슝	-10.1067
▁걷	-10.1086
연	-10.1106
▁냇	-10.1117
▁부분	-10.1124
▁비밀	-10.1125
▁다면	-10.113
▁뉴	-10.1138
▁효	-10.1156
▁인생	-10.1158
▁처	-10.1169
▁대화	-10.1175
나쁘	-10.119
▁ㅍ	-10.1196
▁요리	-10.12
▁꽃	-10.1218
▁떡	-10.122
냐	-10.122
▁어머님	-10.1246
▁사고	-10.1248
▁교육	-10.125
▁흐흐	-10.125
▁엉엉	-10.1254
▁렁	-10.1258
▁이럴	-10.1261
▁쓴	-10.1267
▁가장	-10.1267
▁깼	-10.1267
별루	-10.1269
▁꿀	-10.1289
▁뎌	-10.1304
와	-10.1305
▁이것	-10.1307
▁빈	-10.1329
▁인제	-10.1337
▁난다	-10.1352
이모티콘	-10.1352
타	-10.1366
전혀	-10.1368
▁가슴	-10.1381
▁누웠	-10.1391
▁긱	-10.1395
▁갑	-10.1399
네여	-10.1401
노	-10.1403
너무너무	-10.1414
▁냠	-10.1418
▁츄	-10.1433
▁힘든	-10.1443
▁잊	-10.1449
▁줄께	-10.1464
▁변태	-10.1465
▁미치	-10.1472
앙	-10.1475
운	-10.1496
그니깐	-10.1501
▁마셨	-10.1504
▁홀	-10.1506
▁핵	-10.1516
루	-10.1523
ㅇㅎ	-10.1533
▁쿄	-10.1551
▁으앙	-10.1564
▁달라	-10.1575
심	-10.1578
▁송	-10.1585
▁살짝	-10.1602
▁여섯	-10.1609
걸어가	-10.1613
▁나갔	-10.1632
▁다녀와	-10.1641
▁♥♥	-10.1647
노래방	-10.1648
▁취소	-10.166
▁엌ㅋㅋㅋㅋㅋ	-10.1676
▁셈	-10.1679
수요일	-10.168
▁우선	-10.169
혼나	-10.1699
▁면접	-10.1715
파	-10.1718
▁미쳤	-10.175
▁왤케	-10.1754
구요	-10.1795
_	-10.1804
▁높	-10.1818
엉	-10.1825
▁내려가	-10.1828
적당히	-10.1844
발	-10.1848
민	-10.1849
▁힛	-10.1851
▁뇨	-10.1854
분위기	-10.186
▁어떠	-10.1862
▁룸	-10.1872
▁평소	-10.1874
▁과자	-10.1885
▁음식	-10.189
▁방학	-10.1891
▁미니	-10.1895
▁신나	-10.1897
▁꺄	-10.1902
▁침	-10.1909
▁프로	-10.1918
▁당근	-10.1932
▁헤어지	-10.194
림	-10.1944
▁쩡	-10.1945
▁다운	-10.1951
▁나용	-10.1967
▁딸	-10.197
▁글쎄	-10.1975
ㄹㅇ	-10.1997
▁외	-10.2025
다요	-10.2029
▁근대	-10.2057
▁키키	-10.206
▁들어갔	-10.2065
▁사과	-10.2068
▁먼가	-10.2069
▁나바	-10.2087
느끼	-10.2093
다녀오	-10.2094
▁닦	-10.2109
▁어느	-10.2118
화나	-10.2129
▁억	-10.2139
▁철	-10.2144
히잉	-10.2147
▁우울	-10.2152
▁발표	-10.2166
ㄴ	-10.219
▁가구	-10.2196
아아아아아	-10.2198
▁으으	-10.2202
▁승	-10.2206
▁부족	-10.2207
▁(	-10.2233
에여	-10.2233
▁어유	-10.2262
▁슬	-10.2269
▁당황	-10.2282
▁곰	-10.2289
▁자신	-10.2299
▁순간	-10.2299
저렇게	-10.2302
▁내렸	-10.2302
으루	-10.2304
▁표현	-10.233
관	-10.2341
▁줄까	-10.2347
▁몽	-10.2357
▁버렸	-10.2361
▁프	-10.2368
사무실	-10.2369
▁셋	-10.2374
▁갈아입	-10.239
▁ㅌㅋ	-10.2399
▁ㅇㅁㅇ	-10.2401
▁무시	-10.2404
▁만약	-10.2412
▁쉴	-10.2414
▁지이	-10.2414
▁들어갈	-10.2445
▁샤	-10.2445
▁닫	-10.2452
😘	-10.2464
▁깨워	-10.2469
▁항	-10.2479
▁셤	-10.2487
▁누워서	-10.249
▁뜻	-10.2491
▁포	-10.2492
교	-10.2493
▁우아	-10.25
규	-10.2503
가져가	-10.2504
아뇨	-10.2524
▁더라고	-10.2534
▁투	-10.2534
▁보통	-10.2535
▁권	-10.2538
멋있	-10.2556
▁잘래	-10.257
▁관심	-10.2577
▁왠	-10.2579
▁계획	-10.2581
▁농	-10.2585
▁헛	-10.2591
▁맞춰	-10.2607
▁솔	-10.261
▁어라	-10.2621
챙기	-10.2623
▁여름	-10.2629
▁슬프	-10.2632
레	-10.2638
▁아닐	-10.2644
▁을지	-10.2652
▁친	-10.2654
▁바꿔	-10.2659
▁현	-10.2664
▁말씀	-10.2667
▁아이고	-10.267
징	-10.2673
▁예뻐	-10.2679
▁욘	-10.2693
포	-10.2698
▁영상	-10.2707
피	-10.2708
▁절	-10.271
▁해두	-10.271
▁뻥	-10.2712
▁닌	-10.2717
▁겨울	-10.2718
▁어머	-10.2731
▁롬	-10.2744
▁반응	-10.2745
▁초코	-10.2747
티	-10.2748
▁양치	-10.275
으잉	-10.2774
무조건	-10.2777
▁쮸	-10.28
▁올리	-10.2808
▁소주	-10.2808
▁콜	-10.2828
▁~?	-10.2842
▁관리	-10.2854
▁마이	-10.2855
▁+	-10.2864
▁저건	-10.2864
▁댐	-10.2872
▁훔	-10.2875
▁냠냠	-10.2876
이젠	-10.2884
ㅃ	-10.289
▁만드	-10.2895
▁입술	-10.2896
▁퇴	-10.291
차라리	-10.2915
의	-10.2925
▁던지	-10.2926
▁강아지	-10.293
▁엽	-10.2932
난	-10.2948
▁녀	-10.2965
갈	-10.299
▁으음	-10.2994
▁어딜	-10.2994
▁털	-10.2999
▁통	-10.3002
왠지	-10.3021
▁쩔	-10.3021
▁애교	-10.3024
▁눈물	-10.3029
엇다	-10.3034
▁마실	-10.3053
에엥	-10.3058
석	-10.3069
▁링	-10.3075
군요	-10.3081
▁이모	-10.3089
▁료	-10.3094
▁희	-10.3101
▁비오	-10.3103
▁성격	-10.3119
ㅎㅎㅎ	-10.3141
▁계란	-10.3144
▁묻	-10.3148
▁종	-10.3158
▁헹	-10.316
근	-10.3176
▁졋	-10.3181
▁므	-10.3192
▁짜리	-10.3202
▁마무리	-10.3204
▁애매	-10.3225
금	-10.3235
▁골	-10.3244
▁기간	-10.3257
▁부담	-10.3267
말투	-10.3273
약	-10.3275
▁미워	-10.3282
▁축하	-10.3284
▁지내	-10.3286
래요	-10.329
▁심하	-10.3294
▁바르	-10.3307
▁자는	-10.3314
▁랩	-10.3319
너	-10.332
▁찾아보	-10.3324
▁자아	-10.333
▁채	-10.3365
▁여긴	-10.3372
▁총	-10.3377
▁비트윈	-10.3382
시포	-10.3397
카	-10.341
ㅅ	-10.3413
▁으시	-10.3416
▁김치	-10.3418
▁내려서	-10.3427
▁브	-10.3456
▁일본	-10.3457
▁감동	-10.3468
▁어찌	-10.3469
▁하지만	-10.3471
노트북	-10.3491
을	-10.3495
▁평생	-10.3517
▁편지	-10.3518
먹	-10.3518
▁~!	-10.3524
옹	-10.3525
▁가려	-10.3527
▁상처	-10.353
▁바바	-10.354
▁강남	-10.3544
햄버거	-10.3554
준	-10.3577
▁긋	-10.3579
▁예정	-10.3584
▁에어컨	-10.3592
▁죄송	-10.3604
▁불쌍	-10.3606
▁자유	-10.361
▁붕	-10.3613
▁냐구	-10.3614
▁주문	-10.3616
😊	-10.3619
▁즐	-10.3623
모든	-10.3629
▁령	-10.3657
▁할라	-10.3664
▁돌아가	-10.3682
▁검사	-10.3687
▁쪽쪽	-10.3699
▁다와	-10.3701
딱히	-10.3705
▁새로	-10.3709
▁홍대	-10.3709
▁람	-10.3712
▁설명	-10.372
야근	-10.372
▁앜ㅋㅋㅋ	-10.373
▁합	-10.3732
▁마리	-10.3733
▁청	-10.3734
̈	-10.3749
울	-10.3753
▁치즈	-10.3757
▁올려	-10.3761
▁예쁜	-10.3763
▁기다	-10.3765
▁이기	-10.3766
▁볼래	-10.3774
키	-10.3778
군	-10.3781
▁써야	-10.3795
▁묜	-10.3797
▁에에에	-10.3813
크	-10.3818
물론	-10.3819
그대로	-10.3822
▁한숨	-10.3831
▁ㅁㅊ	-10.3835
▁껴	-10.3849
▁확	-10.3849
▁밀	-10.3853
▁보낸	-10.3878
▁학	-10.3886
배	-10.3887
▁탱	-10.3899
쪄요	-10.3909
염	-10.3913
일부러	-10.3925
히힛	-10.3935
▁마저	-10.3946
▁구우	-10.3963
으	-10.3974
반	-10.398
▁떨	-10.3982
▁씀	-10.3987
▁쳇	-10.3999
▁ㅌㅋㅋ	-10.4
ㅇㅈ	-10.4003
▁얏	-10.4004
▁일어날	-10.4008
▁피부	-10.4019
▁이양	-10.4036
배부르	-10.4041
으면	-10.4044
▁됭	-10.4056
▁드라	-10.4059
▁은지	-10.4059
▁더라구	-10.4062
드디어	-10.4071
▁ㅇㅂㅇ	-10.4074
병	-10.4081
▁검	-10.4112
칭찬	-10.4121
▁다니까	-10.4123
토	-10.4142
▁마요	-10.4159
▁땨	-10.4163
▁고양이	-10.4164
▁여서	-10.4172
나듀	-10.4173
▁낳	-10.4177
▁이사	-10.4178
▁동기	-10.4187
▁눌	-10.4191
▁최	-10.4193
▁학기	-10.4194
천	-10.4206
▁긍	-10.421
당신	-10.421
▁대구	-10.4223
▁나름	-10.4227
▁자여	-10.4232
컴퓨터	-10.4233
▁꾼	-10.4237
돼요	-10.4241
▁런	-10.4247
▁얔ㅋㅋㅋㅋㅋ	-10.4249
알아보	-10.4249
▁한다는	-10.425
▁이틀	-10.4262
▁>_<	-10.4271
▁의미	-10.4273
▁진지	-10.4282
▁나눈	-10.4282
습니당	-10.429
▁결정	-10.429
▁생리	-10.4334
▁된다고	-10.4337
▁안경	-10.435
▁표	-10.4354
▁만지	-10.4369
▁쭈	-10.4372
▁스타일	-10.4372
▁읭	-10.4379
▁아홉	-10.4383
▁점점	-10.4386
▁쇼핑	-10.4397
▁가치	-10.4406
▁텐	-10.4409
뭔지	-10.4414
▁저장	-10.4423
코	-10.4424
▁아버지	-10.4437
머	-10.4438
기엽	-10.4449
▁대학	-10.4452
▁고자	-10.4466
학	-10.4469
통	-10.4485
명	-10.4488
화요일	-10.4499
▁아푸	-10.4503
▁얼릉	-10.4509
▁]	-10.4518
▁자구	-10.4535
프	-10.4544
▁는다고	-10.4553
▁익	-10.4561
[	-10.4572
아잉	-10.4579
▁팅	-10.4581
▁직접	-10.4588
▁기사	-10.4589
봉	-10.459
▁화내	-10.459
▁완	-10.459
▁산책	-10.4593
▁낸	-10.4596
소름	-10.4606
▁자전거	-10.4616
▁방법	-10.4629
재미없	-10.463
▁어깨	-10.4634
당장	-10.4639
▁본다	-10.4642
▁졸라	-10.465
궁	-10.4651
▁가격	-10.4652
▁엉덩이	-10.4657
▁나빠	-10.4667
▁밤새	-10.467
▁미아	-10.4671
▁이후	-10.4671
터지	-10.4674
매력	-10.4677
건	-10.4684
▁뉘	-10.4688
▁기운	-10.4688
▁끌	-10.47
▁앜ㅋㅋㅋㅋ	-10.4717
▁아이구	-10.4745
▁~.~	-10.4757
▁설레	-10.4758
▁배우	-10.4762
▁돌리	-10.4763
줘야지	-10.4766
▁질투	-10.4772
망	-10.4783
▁킹	-10.4785
함	-10.4791
▁남편	-10.4792
꼬야	-10.4792
▁할게	-10.4809
▁마트	-10.481
▁후후	-10.481
담	-10.4814
▁평일	-10.4816
▁탕	-10.4816
목	-10.4823
▁쓰레기	-10.4824
▁겠다	-10.4826
거야	-10.4827
언	-10.4832
숙소	-10.4833
▁그림	-10.4834
▁판	-10.4846
▁자르	-10.4859
▁예매	-10.4871
▁맛없	-10.4871
▁끝날	-10.4877
▁마감	-10.4888
▁은행	-10.4888
▁델	-10.4893
형	-10.4894
후	-10.49
▁차나	-10.4911
과외	-10.4911
▁설거지	-10.4912
륵	-10.494
▁바다	-10.494
남	-10.4964
▁에선	-10.4967
▁걸릴	-10.4974
▁키스	-10.4992
▁자체	-10.5007
▁데려다	-10.5009
▁혜	-10.5027
▁지원	-10.5028
▁ㅌㅋㅋㅋ	-10.5037
▁겸	-10.5046
▁주변	-10.5056
▁일곱	-10.5057
▁와우	-10.5067
굳이	-10.507
▁☜	-10.5082
▁설	-10.5098
▁내년	-10.5099
▁기절	-10.5103
그래야지	-10.512
▁배불러	-10.5125
ㄹ	-10.5128
국	-10.5128
▁실수	-10.5137
▁아우	-10.5148
▁짤	-10.515
▁클	-10.5155
낭	-10.5177
▁수원	-10.5179
▁가바	-10.5227
▁태	-10.5227
▁보낼	-10.5233
▁쭉	-10.5241
▁행동	-10.5252
▁선택	-10.5254
▁실망	-10.5256
▁공원	-10.5258
▁모임	-10.5258
▁경	-10.5258
태	-10.5262
팀장	-10.5269
진짜로	-10.5273
▁는가	-10.5276
▁후딱	-10.5279
▁멀리	-10.5291
▁꽤	-10.5293
고프	-10.5295
메롱	-10.5299
▁군데	-10.5316
▁가져	-10.5318
▁대리	-10.5322
▁어색	-10.5323
▁쇼	-10.5343
지나가	-10.535
▁심각	-10.535
라며	-10.5357
▁덕	-10.536
▁들어와	-10.5364
으어	-10.537
헤헤헤헤	-10.5388
▁오예	-10.5411
▁그럴까	-10.5423
그랴	-10.5428
대요	-10.5455
▁슬퍼	-10.5469
가만히	-10.5483
▁한대	-10.5485
하긴	-10.5503
▁대전	-10.5505
교시	-10.5511
▁도시락	-10.5514
▁듬	-10.5514
▁으려고	-10.5529
숙제	-10.5543
▁으려나	-10.556
▁렴	-10.556
력	-10.556
▁추천	-10.5563
▁확실	-10.5569
▁달래	-10.5571
▁오바	-10.5574
▁칫	-10.5587
▁수학	-10.5587
할	-10.5593
▁어딘데	-10.5601
맞추	-10.5607
▁방해	-10.5617
▁상관	-10.5617
희	-10.5623
업	-10.5627
▁최대한	-10.5643
▁됴	-10.5644
가야지	-10.5645
배고파서	-10.5649
▁빤	-10.5651
▁고고	-10.5661
▁아이스크림	-10.5661
▁신고	-10.5664
체	-10.5671
▁져서	-10.5671
▁기숙사	-10.5674
▁읍	-10.568
녕	-10.5687
▁찜	-10.569
메시지	-10.5692
▁골라	-10.5693
▁세수	-10.5697
▁복	-10.5709
넘어가	-10.5714
▁무서운	-10.5715
▁부리	-10.5718
▁에에	-10.5719
게요	-10.5723
쩐	-10.5726
▁뺏	-10.5728
색	-10.5748
▁히히히히	-10.5754
▁쎄	-10.5762
▁라니까	-10.5766
▁슴	-10.5773
▁갈라	-10.578
▁월급	-10.5783
▁귀차	-10.5785
점	-10.5789
▁지수	-10.579
▁작년	-10.5797
▁여러	-10.5797
귀요미	-10.58
잖아요	-10.5801
막	-10.5808
웅	-10.5811
▁수정	-10.5812
위	-10.5814
▁지우	-10.5818
우우웅	-10.5823
▁한당	-10.5824
▁인증	-10.5838
듯이	-10.5838
▁위해	-10.5844
▁저러	-10.5848
회	-10.5848
▁늦잠	-10.5853
▁어엉	-10.5854
빠빠	-10.5856
▁써서	-10.5868
▁다닐	-10.5868
▁넨	-10.5878
생	-10.5879
봉봉	-10.588
▁아유	-10.5898
▁해결	-10.5905
▁밧	-10.5928
릴	-10.594
▁으까	-10.5953
겄	-10.5954
▁때려	-10.5954
길	-10.5957
▁근무	-10.5961
창	-10.5961
▁치마	-10.5962
함께	-10.5979
▁국	-10.5985
▁탐	-10.599
▁몰래	-10.599
굿모닝	-10.6002
택배	-10.6016
▁뎀	-10.6017
▁뚱	-10.6019
날	-10.6032
적	-10.6036
▁쪼금	-10.604
▁편한	-10.6042
와이파이	-10.6048
▁올라	-10.6049
▁잉잉	-10.6056
곡	-10.6068
개웃	-10.6074
▁시내	-10.6081
께요	-10.6082
▁쑤	-10.6082
▁댈	-10.6088
▁대체	-10.6092
달	-10.6095
▁욧	-10.6105
아줌마	-10.6116
▁육	-10.6119
잠	-10.612
▁바라	-10.6121
개월	-10.6136
▁에구	-10.6153
내사랑	-10.6153
거긴	-10.6168
▁웟	-10.617
▁인디	-10.6172
▁강의	-10.6173
▁잃	-10.6184
▁생활	-10.6185
▁샷	-10.6186
😭	-10.6191
▁야아	-10.6195
▁꽁	-10.6196
매	-10.6203
터미널	-10.6204
▁지용	-10.6207
▁맞아	-10.621
▁토끼	-10.6212
▁생겨	-10.6213
놔야	-10.6216
몰라서	-10.6222
▁아퍼	-10.6229
그쪽	-10.6232
▁구용	-10.6238
▁는군	-10.624
▁됫	-10.6241
▁으라고	-10.6252
종	-10.6255
려구요	-10.6258
글구	-10.6259
▁봣어	-10.6265
▁매우	-10.6269
즈	-10.6271
▁윽	-10.6273
분	-10.6273
아니요	-10.6288
▁식사	-10.629
▁내사	-10.6297
▁착한	-10.63
▁법	-10.6304
박	-10.6309
▁쀼	-10.6312
▁소개	-10.6313
막히	-10.6319
▁지니	-10.6322
▁크림	-10.6329
▁생긴	-10.6342
구야	-10.6342
▁굴	-10.635
▁됑	-10.636
▁기다릴	-10.6364
▁옵	-10.6367
▁냄	-10.637
▁만난	-10.6373
피시방	-10.6374
확실히	-10.638
▁분명	-10.6388
▁계	-10.6391
▁심장	-10.6393
▁...?	-10.6399
▁을께	-10.6399
란	-10.6401
▁인천	-10.6404
준다고	-10.6409
▁다이어트	-10.6413
▁간단	-10.6422
터	-10.643
▁패딩	-10.6436
▁건대	-10.6444
허락	-10.6451
드가	-10.6454
▁렌즈	-10.6456
류	-10.646
▁셩	-10.6465
▁이용	-10.6468
거리	-10.6472
▁모기	-10.6475
▁바쁜	-10.6478
▁헬스	-10.6478
떨어지	-10.648
잘	-10.6515
▁만두	-10.6517
▁앜ㅋㅋ	-10.6526
허	-10.6534
▁자세	-10.6535
▁오해	-10.6535
▁ㅌㅋㅋㅋㅋ	-10.6544
▁덮	-10.6553
▁탄	-10.6554
▁일정	-10.6557
▁대기	-10.6563
▁단어	-10.6579
▁망했	-10.6593
덕분	-10.6599
▁후회	-10.66
었	-10.6613
▁긴장	-10.6613
복	-10.6618
▁모자	-10.662
😢	-10.6624
▁올께	-10.6624
꺼내	-10.6628
독서실	-10.6635
▁지혜	-10.6646
▁랬	-10.6672
해유	-10.6676
낮잠	-10.6686
▁말리	-10.6689
▁식당	-10.6689
아버님	-10.6695
▁졸업	-10.6701
▁상담	-10.6704
▁맡	-10.6707
아무리	-10.6707
▁펴	-10.6711
ㅈㅅ	-10.6712
피방	-10.6714
컨디션	-10.6722
알	-10.6726
쏭	-10.673
▁류	-10.6761
▁♥♥♥	-10.6769
▁히이	-10.677
▁머지	-10.6773
▁충격	-10.6773
아이폰	-10.6774
▁꽉	-10.6776
▁예상	-10.6781
▁인강	-10.6785
ㅡ	-10.6786
▁패	-10.6797
▁놀라	-10.6802
▁감정	-10.6807
▁이랬	-10.681
살	-10.6814
▁띵	-10.6818
▁욱	-10.6828
▁시켰	-10.683
각	-10.6832
갈게요	-10.6835
삼겹살	-10.6836
쭈쭈	-10.6838
▁어우	-10.6843
▁기도	-10.6846
▁엌ㅋㅋㅋ	-10.6847
맘마	-10.6847
▁비싼	-10.6854
▁걸렸	-10.6857
▁맥	-10.6858
▁꾸꾸	-10.6859
▁기회	-10.6862
?!	-10.6863
▁쌀	-10.6872
아휴	-10.6873
아부지	-10.6874
▁다치	-10.6874
▁롭	-10.688
▁전부	-10.6882
▁하늘	-10.6897
▁놨	-10.6901
▁딸기	-10.6903
▁서방	-10.691
ㅎㅇ	-10.6917
▁스티커	-10.6931
▁이래서	-10.6933
▁음성	-10.6936
▁타임	-10.6937
▁먼데	-10.6961
훨씬	-10.6964
▁비행기	-10.6964
▁깜짝	-10.6981
▁치과	-10.6995
한텐	-10.7003
▁아내	-10.7007
▁버릴	-10.7008
이것저것	-10.701
▁정해	-10.7018
▁게여	-10.7021
다고	-10.7024
▁자면	-10.703
바뀌	-10.7038
여어	-10.7039
▁만든	-10.7048
▁준다	-10.7049
▁기본	-10.7051
▁조용	-10.7054
▁든지	-10.7054
예	-10.7069
▁인간	-10.7073
들리	-10.7077
계	-10.7081
▁늙	-10.7082
▁질문	-10.7086
▁키우	-10.7095
▁메뉴	-10.7111
▁아싸	-10.7125
한참	-10.7125
▁시장	-10.7131
▁뽕	-10.7131
▁ㅠㅡㅠ	-10.7134
▁호텔	-10.714
▁똑똑	-10.717
▁놀리	-10.7175
▁자네	-10.7181
▁샘	-10.7189
▁이궁	-10.719
온	-10.7196
떠요	-10.7199
▁학생	-10.7202
▁지랄	-10.7203
▁교	-10.7207
▁초밥	-10.7213
▁손가락	-10.7218
▁앜	-10.7218
▁했잖아	-10.7224
▁빠져	-10.7232
▁굶	-10.7233
▁자연	-10.7239
▁싼	-10.7241
▁계산	-10.7244
▁섹시	-10.7261
거든요	-10.7262
▁지갑	-10.7264
▁까스	-10.7267
▁관	-10.7274
▁소화	-10.7284
▁알람	-10.7301
▁과장	-10.7301
▁빨라	-10.7302
졸려서	-10.7316
▁잌ㅋㅋㅋㅋㅋ	-10.7317
▁..!	-10.7325
▁아들	-10.733
응	-10.733
▁데이터	-10.7337
▁인기	-10.7342
▁예민	-10.7349
▁만족	-10.7368
더워서	-10.7369
그나마	-10.7371
▁줫	-10.7378
▁값	-10.7392
▁주인	-10.7428
▁엌ㅋㅋ	-10.7429
타이밍	-10.7444
▁드려	-10.7449
▁수영	-10.7451
▁작업	-10.7457
▁둔	-10.7463
는겨	-10.7464
ㅏ	-10.7472
▁결제	-10.7474
▁닿	-10.7483
입	-10.7487
머글	-10.7491
▁창	-10.7493
렸	-10.7494
▁유리	-10.7495
▁하하하	-10.751
▁논	-10.751
▁흫	-10.7535
판	-10.7542
▁지도	-10.7543
좋아하	-10.7545
애기야	-10.7552
▁바야	-10.7553
삭제	-10.7557
▁헣	-10.7557
▁얀	-10.7559
어뜨케	-10.756
노답	-10.7571
붙이	-10.7573
▁수술	-10.758
▁치료	-10.7589
▁으려	-10.7595
따	-10.7607
▁어려워	-10.7625
▁~~~~~	-10.7626
▁어딨	-10.7627
▁전철	-10.7629
▁추가	-10.7632
▁비와	-10.7636
▁정신없	-10.7649
▁듕	-10.7662
했	-10.7662
와도	-10.7668
▁코코	-10.767
▁버거	-10.7679
증	-10.7688
▁쿨	-10.7694
덕	-10.7696
▁급하	-10.7707
▁매운	-10.7709
조용히	-10.771
▁될까	-10.7712
▁야해	-10.7713
▁빌려	-10.7717
▁배달	-10.7719
▁곱창	-10.7728
▁정상	-10.7755
▁모양	-10.7766
▁아깝	-10.7774
▁출구	-10.7776
니까	-10.7785
▁을라	-10.7788
온다고	-10.7807
▁봣는데	-10.7813
▁체력	-10.7816
▁배경	-10.7816
올게요	-10.7819
▁자식	-10.782
니랑	-10.7822
▁뒷	-10.7831
▁할인	-10.7832
새	-10.7832
승	-10.7836
눈감	-10.7837
▁홈	-10.7838
▁튀	-10.7838
량	-10.7842
▁그치만	-10.7845
충분히	-10.7845
▁뜯	-10.7855
거실	-10.7864
▁매장	-10.7864
▁직	-10.7864
▁젖	-10.7874
▁삘	-10.7874
맘대로	-10.7881
▁야구	-10.7882
똑같이	-10.7889
▁물어봐	-10.7889
▁얻	-10.7893
▁=	-10.7894
▁한다구	-10.79
으이구	-10.7901
▁직원	-10.7919
▁성공	-10.792
속	-10.7937
불	-10.7948
▁핸	-10.7953
▁외박	-10.7965
▁"	-10.7967
▁챠	-10.7971
▁ᆞ	-10.7974
우잉	-10.7984
▁친한	-10.7984
▁랄	-10.7986
▁바닥	-10.7986
▁다는데	-10.7994
▁요기	-10.8004
정류장	-10.8006
▁보장	-10.801
▁쥴	-10.8013
▁반찬	-10.8015
이어폰	-10.8019
꿈꾸	-10.8028
을껄	-10.8034
▁물어본	-10.8037
ㄱㅊ	-10.8045
사이즈	-10.8045
▁대서	-10.8048
직	-10.8051
▁주사	-10.8052
ㄱㄷ	-10.8057
▁소원	-10.8068
▁배불	-10.8081
버	-10.8083
▁스러워	-10.809
▁녹	-10.8091
▁착해	-10.8096
악	-10.8105
▁엠	-10.8112
돠	-10.8116
▁네이버	-10.8117
추	-10.8126
령	-10.8136
▁뗘	-10.8137
▁잘라	-10.8138
▁돼서	-10.8143
▁어이없	-10.8154
짬뽕	-10.8156
▁아플	-10.8177
무튼	-10.8181
▁어른	-10.8182
▁어플	-10.8186
▁정하	-10.8195
▁온대	-10.8197
▁민망	-10.8198
▁으이	-10.8202
▁옥	-10.8206
▁알려줘	-10.8209
▁북	-10.8219
▁호호	-10.8231
해서	-10.8236
▁꺼져	-10.824
▁간식	-10.8244
▁릉	-10.8249
▁과일	-10.8256
▁룽	-10.8263
▁어어어어	-10.8268
▁날짜	-10.8276
▁깐	-10.8277
아파트	-10.8285
맞춰서	-10.829
▁즈	-10.8303
▁될지	-10.8308
▁팟	-10.8314
는데요	-10.8318
▁거지	-10.833
꺼지	-10.834
▁점수	-10.8346
아여	-10.835
▁댄	-10.8351
▁넓	-10.8354
아마도	-10.8365
넹	-10.8368
들어와서	-10.8377
▁공연	-10.8381
글고	-10.8382
케	-10.8383
녀	-10.8383
▁신데	-10.8389
▁고야	-10.8409
▁ㅏㅏ	-10.8413
▁쪼끔	-10.8415
▁보여서	-10.8418
▁어째	-10.8422
▁바나나	-10.843
▁어두	-10.8433
▁계시	-10.8433
▁반지	-10.8434
걸	-10.8437
쳐서	-10.8441
▁볼꺼	-10.8441
▁별거	-10.8442
초	-10.8456
▁엑	-10.8467
스터디	-10.8468
흐아	-10.8489
잇	-10.8493
▁현실	-10.8493
돌아다니	-10.8494
또	-10.8496
▁꿈꿔	-10.8498
▁갯	-10.85
▁발라	-10.85
▁들려	-10.85
댓글	-10.8508
락	-10.851
▁떠나	-10.8513
올꺼	-10.8531
환	-10.8531
▁싱	-10.8564
▁훗	-10.8564
초딩	-10.8566
부끄럽	-10.8569
▁콘	-10.8571
고럼	-10.8573
▁닥	-10.858
▁추우	-10.8597
▁아무튼	-10.8606
▁버티	-10.8609
웹툰	-10.8612
암	-10.8614
ㅈㄴ	-10.862
▁할라고	-10.8621
▁입장	-10.8626
나머지	-10.864
▁으악	-10.8642
▁ㅕ	-10.8643
▁꼴	-10.8644
▁짠	-10.8654
😂	-10.8656
▁지워	-10.8657
▁놀래	-10.866
찌	-10.8664
설	-10.8664
▁족발	-10.8671
▁느껴	-10.8674
▁하장	-10.8679
▁이걸	-10.868
▁아나	-10.8692
▁~!!	-10.8694
셀카	-10.8696
▁농담	-10.8702
▁자서	-10.8703
자나	-10.8706
충전기	-10.8717
▁소중	-10.8736
▁지연	-10.8738
▁팬	-10.8747
▁뿡	-10.875
취하	-10.877
움직이	-10.8774
▁훙	-10.8781
~	-10.8786
▁염색	-10.8791
▁ㅊ	-10.8799
▁출	-10.8802
▁똑	-10.8834
▁!?	-10.8842
▁한두	-10.885
에다가	-10.8854
▁졋어	-10.8858
과	-10.8864
▁추워서	-10.8877
▁지영	-10.8883
재미있	-10.8887
응응응	-10.8887
▁접	-10.8888
▁민지	-10.8894
▁구먼	-10.8896
철	-10.8907
▁으으으	-10.891
▁차리	-10.891
▁결과	-10.891
때	-10.8914
▁고르	-10.8915
▁짝	-10.8921
토닥토닥	-10.8924
▁기다렸	-10.8934
▁.??	-10.8941
▁필	-10.8944
케익	-10.895
▁구라	-10.895
▁중국	-10.8964
▁반대	-10.8972
▁공항	-10.8979
▁결혼식	-10.8981
▁얼렁	-10.8983
▁턱	-10.8992
▁머그	-10.8996
▁책상	-10.8999
▁아래	-10.8999
▁헤에	-10.9003
작	-10.9009
▁처리	-10.902
누	-10.902
라고	-10.9023
그걸로	-10.9024
▁파티	-10.9025
😆	-10.9026
▁해줘	-10.9037
▁;;;	-10.9039
▁다매	-10.9047
▁에고	-10.9049
▁도움	-10.905
▁와라	-10.9057
마져	-10.9074
열	-10.9077
▁은디	-10.9084
▁른	-10.9089
▁만져	-10.909
▁새로운	-10.9095
▁혼내	-10.9101
▁뜸	-10.9114
찬	-10.9129
▁오우	-10.9141
▁간대	-10.9151
▁편해	-10.9178
▁야행	-10.9184
청	-10.9184
▁룰	-10.9188
▁쳣	-10.9191
▁대한	-10.9192
ㄷ	-10.9194
노잼	-10.9195
▁축제	-10.92
버스타	-10.9202
가깝	-10.9209
언제나	-10.9224
▁내방	-10.9226
▁모름	-10.9228
▁시바	-10.9238
▁으라	-10.9239
▁하아	-10.9252
▁닠ㅋㅋㅋㅋㅋ	-10.9264
갈아타	-10.9265
캡쳐	-10.9276
▁치우	-10.9278
건물	-10.9283
▁으려구	-10.9284
▁남겨	-10.929
▁끙	-10.9291
▁응가	-10.93
▁긍데	-10.9305
▁유명	-10.9319
▁긁	-10.932
고딩	-10.9329
동아리	-10.9333
▁카레	-10.935
▁풀리	-10.9358
▁쫄	-10.9361
가지마	-10.9362
▁메일	-10.9364
▁오픈	-10.9376
▁못했	-10.9384
테	-10.9386
▁내내	-10.9386
▁한지	-10.9387
▁병신	-10.9392
▁빌	-10.9398
▁아픈데	-10.9401
▁갈지	-10.9402
▁저래	-10.9411
워	-10.9412
▁누르	-10.9418
항	-10.942
▁밝	-10.942
▁공기	-10.9423
심쿵	-10.9426
겨	-10.9428
▁우째	-10.9433
▁화면	-10.9433
▁든가	-10.9434
▁친해	-10.9435
▁광주	-10.9436
▁볼께	-10.944
▁응원	-10.944
올라오	-10.9444
▁꿍	-10.9448
봐라	-10.9461
ㅂㄷㅂㄷ	-10.9461
추운데	-10.9462
▁저렇	-10.9473
▁그지	-10.9482
▁해졌	-10.9493
▁껏	-10.9497
▁적응	-10.9501
▁왜냐면	-10.9501
▁뻗	-10.9502
오히려	-10.9512
▁롯데	-10.9515
▁개운	-10.9523
▁댔	-10.9534
갔다오	-10.9535
▁창문	-10.9538
▁한판	-10.9547
▁씨발	-10.9569
▁아포	-10.9574
올해	-10.9574
▁은가	-10.9581
▁박스	-10.9587
▁오케이	-10.9588
▁예배	-10.9591
▁깊	-10.9592
▁추석	-10.9595
극혐	-10.9612
▁현지	-10.9614
아무래도	-10.9614
▁가여	-10.9627
냉장고	-10.9631
▁슨	-10.9634
▁기다려야	-10.9639
▁차려	-10.9642
기억나	-10.9646
▁휘	-10.9652
▁갱	-10.9658
롱	-10.9665
하당	-10.9681
용돈	-10.9687
▁일루	-10.9699
▁충분	-10.9709
▁음악	-10.9713
사촌	-10.9722
눈	-10.9723
▁해져	-10.9723
▁컷	-10.9729
▁감자	-10.9733
▁숑	-10.9734
▁@	-10.9741
▁엘	-10.9742
▁어울리	-10.9743
모텔	-10.9743
할아버지	-10.9781
▁야한	-10.9783
거절	-10.9791
▁컵	-10.9799
ㅁ	-10.9809
생겨서	-10.9811
▁캔	-10.9812
▁익숙	-10.9816
▁임마	-10.9825
정거장	-10.9826
▁물어볼	-10.9827
▁다용	-10.9833
구여	-10.9839
과연	-10.9846
열받	-10.9853
▁퐁	-10.9855
▁귀신	-10.9858
▁랄까	-10.9868
▁챙	-10.9869
▁무도	-10.987
▁냈	-10.9874
▁곱	-10.9874
▁앤	-10.9877
▁>	-10.9882
▁고구마	-10.9887
▁나무	-10.9888
▁무서	-10.9888
▁쌍	-10.9892
이쁜데	-10.9899
▁여덟	-10.9903
둥이	-10.9905
▁들으면	-10.9906
▁개인	-10.9908
씨	-10.9921
▁전해	-10.9923
앞머리	-10.9925
▁인형	-10.9925
왕	-10.9927
▁엘베	-10.9931
▁근육	-10.9934
백화점	-10.9937
▁자다	-10.9938
▁뎈ㅋㅋㅋㅋㅋ	-10.9944
걸루	-10.9944
투	-10.9947
엄빠	-10.9948
▁늠	-10.9957
▁태그	-10.9961
▁묶	-10.9971
▁지났	-10.9973
진짜	-10.9977
▁코트	-10.9981
▁멀쩡	-10.9999
▁더라도	-11.0006
▁실패	-11.0008
ㅓ	-11.0011
▁ㆍ	-11.0011
▁보인다	-11.0014
▁짱짱	-11.0014
▁방송	-11.0017
줄	-11.0017
졸립	-11.0021
▁완료	-11.0024
▁빠른	-11.0037
▁ㅇㄴ	-11.0042
▁심해	-11.0049
▁돌려	-11.0049
근디	-11.0052
▁의자	-11.0053
메	-11.0072
ㅠㅠㅠ	-11.0072
읽씹	-11.0091
맛집	-11.0104
쳐	-11.0113
▁에다	-11.0119
▁준대	-11.0121
자려	-11.0144
▁클럽	-11.015
▁체	-11.0153
▁삶	-11.0165
▁자지	-11.017
▁이마트	-11.0171
께	-11.0175
▁할텐데	-11.0177
▁잘까	-11.0178
▁갑니다	-11.0196
▁엌	-11.0202
멋지	-11.0204
ㅣ	-11.0204
왼쪽	-11.021
▁들어야	-11.0212
▁복잡	-11.0213
..	-11.022
디게	-11.0229
▁돋	-11.0231
▁고백	-11.0232
순	-11.0233
▁달달	-11.0246
▁훈련	-11.025
입맛	-11.0254
▁모찌	-11.0261
추억	-11.0265
술집	-11.0267
심지어	-11.0267
▁잠실	-11.0272
긴	-11.0279
▁무엇	-11.0281
▁통장	-11.0282
▁섹스	-11.0284
▁엄청나	-11.0291
▁이렇	-11.0299
▁나간	-11.0302
▁홧팅	-11.0303
▁달리	-11.0305
▁걸린	-11.0306
하궁	-11.0308
▁엌ㅋㅋㅋㅋ	-11.0312
링	-11.0314
▁빠졌	-11.0314
▁후배	-11.0315
▁웃긴	-11.0316
줘도	-11.0325
토익	-11.0328
▁바꿀	-11.0342
▁취향	-11.0344
▁여태	-11.0351
어때요	-11.0352
죠	-11.0354
셔요	-11.0357
▁무거	-11.0358
▁케이스	-11.036
▁춤	-11.0361
▁얇	-11.0363
도대체	-11.0364
▁얔ㅋㅋㅋ	-11.0379
▁와따	-11.0387
▁내릴	-11.0393
▁연기	-11.0397
▁케케	-11.0398
바빠서	-11.04
화났	-11.0404
출	-11.0407
▁을라고	-11.0409
를	-11.041
▁썻	-11.0415
▁주차	-11.0416
▁센터	-11.0424
고등학교	-11.0429
해쥬	-11.0436
▁신촌	-11.0448
▁쳤	-11.0452
💋	-11.0455
?	-11.0457
▁쎠	-11.0471
마사지	-11.0472
▁사기	-11.0473
써	-11.0476
▁미래	-11.0481
▁속상해	-11.0482
▁ㅆ	-11.0483
▁전공	-11.0492
▁손잡	-11.0497
▁헌	-11.0512
▁뻐	-11.0514
▁수준	-11.0518
▁깔끔	-11.0519
▁그런지	-11.0526
▁싹	-11.0533
▁갔다왔	-11.0542
땡기	-11.0546
뉸	-11.055
▁미국	-11.056
▁연결	-11.0562
▁효과	-11.0563
▁모하	-11.0573
▁참나	-11.058
▁무릎	-11.0583
▁시미	-11.0586
냉면	-11.0605
수현	-11.0613
빈	-11.0614
론	-11.0617
▁오징어	-11.0619
▁은근	-11.0622
▁위치	-11.0635
▁뼈	-11.0644
쿠폰	-11.0645
▁낑	-11.0647
▁진정	-11.0648
▁제주	-11.0648
▁취	-11.0653
▁쿠나	-11.0654
▁잘께	-11.0656
▁구하	-11.0657
꿀잠	-11.066
처	-11.0664
마누라	-11.0664
▁당하	-11.0669
헐랭	-11.0671
▁방구	-11.0678
▁아따	-11.0681
▁바꿨	-11.0687
▁극	-11.0697
▁경기	-11.0701
▁그대	-11.0704
▁꺅	-11.0705
▁탑	-11.0706
▁딧	-11.0709
▁관계	-11.071
▁아이디	-11.0713
버렷	-11.0717
▁석	-11.0717
▁비교	-11.0722
▁그라	-11.0743
▁정보	-11.0751
오른쪽	-11.0759
할려고	-11.076
▁넼ㅋㅋㅋㅋㅋ	-11.0762
▁거자	-11.0771
▁붙여	-11.0775
참치	-11.0784
▁~~?	-11.0791
▁전주	-11.0802
이야	-11.0803
▁된대	-11.0805
▁블	-11.0805
▁아껴	-11.0807
없	-11.0809
▁집안	-11.0812
▁들렸	-11.0815
럽	-11.0818
▁미쳐	-11.0819
흐엉	-11.0819
▁포장	-11.082
밥	-11.082
라는데	-11.0828
그분	-11.0829
멍청이	-11.0831
▁올래	-11.0838
다행이	-11.0844
▁깨끗	-11.0851
▁모두	-11.0852
▁압	-11.0855
▁웃음	-11.0856
쓰	-11.0861
▁보여줘	-11.0869
원피스	-11.0876
꾸	-11.0886
▁광	-11.089
▁어려운	-11.0894
▁향	-11.0894
조앙	-11.0895
▁딥	-11.0901
▁자료	-11.0904
이뿌니	-11.0908
▁셔틀	-11.0909
▁등록	-11.0911
▁거래	-11.0927
▁넷	-11.0931
수능	-11.0932
람	-11.0933
송	-11.0935
▁낰ㅋㅋㅋㅋㅋ	-11.0936
▁가까운	-11.0942
잔	-11.0945
▁헬	-11.0946
▁카메라	-11.0948
▁일반	-11.0978
몰라요	-11.0986
미팅	-11.0988
▁가을	-11.099
진짜루	-11.0991
▁둬	-11.1001
봐	-11.1005
헐ㅋ	-11.1008
으휴	-11.1014
▁양말	-11.1027
▁끓여	-11.1032
파스타	-11.1032
속상하	-11.1034
까요	-11.1037
잘게요	-11.1047
▁킨	-11.1051
▁못해	-11.1058
▁기준	-11.106
댜	-11.1067
▁살까	-11.1078
합	-11.1078
난당	-11.1079
▁마나	-11.1086
▁모지	-11.1091
울지마	-11.1091
▁드립	-11.11
▁검정	-11.1107
▁눕	-11.1109
주무시	-11.1118
▁무지	-11.1125
으니	-11.1128
▁구리	-11.1128
▁거등	-11.1133
▁속옷	-11.1146
야지	-11.1148
▁놧	-11.1153
▁황	-11.1159
▁파일	-11.1165
▁나눠	-11.1168
움	-11.1179
꺄아	-11.118
▁취업	-11.1182
▁%	-11.119
▁일어난	-11.1191
▁들어간	-11.1195
슬	-11.1197
▁지하	-11.1198
볼	-11.1199
료	-11.121
▁데이	-11.1211
▁마스크	-11.1216
▁떳	-11.1222
▁뭉	-11.1223
▁시계	-11.1232
▁~♥	-11.1232
▁실험	-11.1233
어짜피	-11.1234
호오	-11.1234
▁기달	-11.1243
▁의심	-11.1248
소고기	-11.125
셔	-11.1257
우짜	-11.1262
ㅌ	-11.1264
▁ㅉ	-11.1264
▁떨어져	-11.127
▁크리스마스	-11.1274
글	-11.1281
침	-11.1283
▁부턴	-11.1286
외우	-11.1292
년	-11.1293
▁!?!	-11.1297
▁겁	-11.1297
▁안주	-11.1299
켓	-11.1318
▁학점	-11.1326
▁빨간	-11.1329
▁려는	-11.1331
▁솔직	-11.1331
▁못자	-11.1339
▁~~!!	-11.134
▁멋져	-11.134
▁쿠키	-11.1342
▁으론	-11.1344
▁영통	-11.1354
공강	-11.1358
며칠	-11.1358
▁락	-11.1364
▁합격	-11.1368
▁줄래	-11.1372
▁놀러	-11.1374
▁몀	-11.1374
할께요	-11.1377
▁쭁	-11.138
왜	-11.138
▁수다	-11.1381
▁모닝	-11.1385
▁아닐까	-11.1386
▁빠이	-11.1391
▁👍	-11.1392
끼	-11.1399
살빼	-11.1408
봉이	-11.1415
입구	-11.1415
▁보험	-11.1416
▁주제	-11.1416
▁이미지	-11.1421
렁	-11.1429
▁스타	-11.143
▁가시	-11.143
▁봉사	-11.1433
▁와아	-11.1436
계좌	-11.1441
▁전체	-11.1442
▁치카	-11.1443
▁래서	-11.1446
▁이자	-11.1448
▁당구	-11.145
했어요	-11.1465
친하	-11.1471
▁특히	-11.1473
▁땡겨	-11.1474
▁본인	-11.1475
▁재우	-11.1477
▁딘	-11.1486
▁걸까	-11.1493
을게요	-11.1497
해영	-11.1497
▁굽	-11.1506
▁커서	-11.1506
▁나온다	-11.1507
▁빵빵	-11.151
▁진아	-11.1511
▁콜라	-11.1514
볶음밥	-11.1525
옮기	-11.1529
▁벼	-11.1534
있	-11.1534
고얌	-11.1542
▁거려	-11.1544
▁갈비	-11.1546
▁어려	-11.1554
▁잠자	-11.1556
뱃살	-11.1557
▁재워	-11.1557
▁바루	-11.1558
▁먼지	-11.1561
▁흡	-11.1569
▁깜	-11.1574
▁참고	-11.1574
표	-11.1579
▁졸린	-11.1589
▁젠장	-11.1597
▁과목	-11.1597
▁고치	-11.1601
록	-11.1602
졌	-11.1607
▁젊	-11.161
▁고추	-11.1614
▁더만	-11.1616
그만큼	-11.1616
국밥	-11.1619
▁생김	-11.1622
▁으께	-11.1622
막걸리	-11.1626
▁하필	-11.1634
▁좁	-11.1637
비번	-11.164
▁시렁	-11.1641
▁수강	-11.1647
시간표	-11.1651
향	-11.1667
▁갈라고	-11.1667
범	-11.1668
▁사회	-11.1671
미용실	-11.168
어요	-11.169
밥맛	-11.1693
래여	-11.1698
짐	-11.1699
▁<	-11.1699
수빈	-11.1699
져요	-11.17
▁라인	-11.1701
본	-11.1702
▁곡	-11.1703
▁막혀	-11.1705
제주도	-11.171
▁세트	-11.1711
▁뺄	-11.1712
▁빙수	-11.1712
▁보였	-11.1717
▁ㅏㅇ	-11.172
▁안가	-11.1723
애인	-11.1723
▁조절	-11.1729
슈	-11.1734
▁아팠	-11.1734
▁.!!	-11.1737
▁드릴	-11.1737
▁업무	-11.1745
▁지망	-11.1746
뭐	-11.1747
▁얔ㅋㅋ	-11.1753
▁인스타	-11.1773
선풍기	-11.1775
▁사용	-11.1779
▁론	-11.1782
▁위해서	-11.1791
▁율	-11.1792
죽	-11.1792
▁실습	-11.1796
▁환승	-11.1798
▁삼성	-11.1801
이쁨	-11.1803
▁쥰	-11.1805
▁무니	-11.1807
▁스러운	-11.1807
개이득	-11.1808
▁한강	-11.1826
▁의사	-11.1828
떠	-11.183
▁품	-11.1837
▁척하	-11.1844
김치찌개	-11.1846
▁춘	-11.1852
못	-11.1853
▁더럽	-11.1856
▁흐으	-11.1861
▁귱	-11.1861
▁볶	-11.1865
▁틈	-11.1867
▁햏	-11.1867
▁가태	-11.1869
▁큼	-11.187
탕	-11.1872
▁공유	-11.1873
▁목표	-11.189
▁애서	-11.1896
▁취했	-11.1899
▁멍청	-11.19
등	-11.1902
▁자도	-11.1913
▁일까	-11.1916
▁기계	-11.1917
▁쉅	-11.192
▁칸	-11.1921
▁금지	-11.1928
▁쵸	-11.193
!	-11.1934
▁능력	-11.1934
짜장면	-11.1943
▁이겨	-11.1945
▁시기	-11.1946
▁랰ㅋㅋㅋㅋㅋ	-11.1947
▁온데	-11.1955
▁자취	-11.1959
▁기름	-11.196
광	-11.1966
▁부장	-11.1979
▁쫑	-11.1979
▁겨우	-11.1984
개꿀	-11.1989
▁목욕	-11.1996
▁부러워	-11.1999
▁억울	-11.2
▁균	-11.2002
▁찐	-11.2002
스벅	-11.2005
▁지현	-11.2007
절	-11.2008
▁귤	-11.2011
▁주무	-11.2012
▁엠티	-11.2014
▁아고	-11.2026
매번	-11.2041
▁힐링	-11.2053
▁아웃	-11.2057
따아	-11.2062
채	-11.2063
▁혁	-11.2064
▁흰	-11.2074
▁젼	-11.2075
▁안행	-11.2075
억지로	-11.2078
법	-11.2079
빡세	-11.2083
다잉	-11.2089
▁도전	-11.209
되	-11.2112
▁벙	-11.2114
▁장소	-11.2115
♡	-11.2116
▁터져	-11.212
포인트	-11.2121
어딘지	-11.2121
▁구해	-11.2123
▁증	-11.2144
▁안전	-11.2153
▁느리	-11.2154
짜	-11.2162
권	-11.2162
▁성적	-11.2167
▁계단	-11.2172
▁̆	-11.2172
▁경찰	-11.2175
▁됏	-11.2175
▁페	-11.2176
▁나간다	-11.2185
▁누우	-11.219
▁주소	-11.2197
▁비니	-11.2198
▁화난	-11.22
▁다녀올	-11.2201
시당	-11.2209
▁야간	-11.221
▁손톱	-11.2211
도망가	-11.2214
▁흥분	-11.2217
딩	-11.2218
아니	-11.2225
이뻐서	-11.2227
▁완벽	-11.2227
샌드위치	-11.2232
▁우이	-11.2234
▁어쩐지	-11.2234
▁새우	-11.2237
야대	-11.2246
▁뭇	-11.2246
▁야식	-11.2249
▁쌔	-11.2257
편히	-11.2262
▁차단	-11.2271
▁변	-11.2272
찜질방	-11.2273
▁신호	-11.2275
ㅂ	-11.2276
▁야동	-11.2285
▁현금	-11.2292
▁찌찌	-11.2294
혹시나	-11.2294
▁태워	-11.2294
무러	-11.2304
충	-11.2316
햇	-11.2317
▁ㅂㅂ	-11.2318
내꺼야	-11.2324
강의실	-11.2336
▁닛	-11.2343
▁으래	-11.2344
정확히	-11.2346
실제로	-11.2346
▁곸ㅋㅋㅋㅋㅋ	-11.2352
온당	-11.2355
▁막상	-11.2355
닝	-11.236
▁섭섭	-11.2364
취	-11.2368
▁샹	-11.2369
▁눌러	-11.237
▁상하	-11.2371
▁행사	-11.2372
▁떄	-11.2376
▁천안	-11.2378
▁리얼	-11.2379
화장품	-11.2379
우어	-11.238
▁그릇	-11.2382
▁괜춘	-11.2388
때메	-11.239
술	-11.2391
▁구워	-11.2393
▁습니까	-11.2395
▁시킬	-11.2407
▁순수	-11.2407
▁쿠쿠	-11.2415
▁모를	-11.2416
▁망해	-11.2417
데요	-11.2423
▁추운	-11.2425
▁다면서	-11.2434
ㅅㄱ	-11.2436
▁가유	-11.2443
거덩	-11.2447
▁유정	-11.2447
▁묘	-11.2451
▁여지	-11.2455
▁쨩	-11.2455
괴롭히	-11.2459
다머	-11.2459
▁좋아해	-11.2462
▁핑크	-11.2467
▁훈	-11.2468
▁어릴	-11.2473
▁구로	-11.2476
▁..??	-11.2481
던	-11.2483
▁저리	-11.2487
▁바빴	-11.2488
▁셔츠	-11.249
▁썩	-11.2494
▁을걸	-11.2497
▁챙겼	-11.2501
▁뎃	-11.2505
핑계	-11.2507
▁지키	-11.2508
▁ㄱㅅ	-11.2509
▁올까	-11.252
증말	-11.2522
▁자니	-11.2526
▁~^^	-11.2527
든	-11.2527
▁마신	-11.2528
▁녹음	-11.2532
▁림	-11.2535
▁기침	-11.2542
▁흉	-11.2547
▁즘	-11.255
브	-11.2553
▁물건	-11.2554
▁터질	-11.2555
엄	-11.2557
▁때릴	-11.2559
▁쌈	-11.2573
▁착	-11.2574
▁잔소리	-11.2575
자소서	-11.2576
▁뱅	-11.2576
▁이놈	-11.2581
삐지	-11.2589
▁부대	-11.259
▁겐	-11.2591
너희	-11.2598
▁가사	-11.2604
는구만	-11.2606
파이팅	-11.2622
모루	-11.2632
😁	-11.2649
우씨	-11.2653
소리야	-11.2656
▁젤리	-11.2661
▁간데	-11.2665
▁최근	-11.2669
▁훅	-11.2669
바뿌	-11.2672
씨방	-11.2673
▁오리	-11.2677
.	-11.2677
▁보일	-11.268
▁종이	-11.2687
막차	-11.269
▁응아	-11.269
▁경험	-11.2692
다며	-11.2693
펜션	-11.2694
▁천사	-11.2695
▁수지	-11.2698
▁평	-11.2709
냥	-11.2711
커	-11.2711
느	-11.2719
▁....?	-11.2733
▁흰색	-11.2738
▁사당	-11.2738
▁설치	-11.2738
▁맹	-11.2747
바쁜가	-11.2752
💓	-11.2754
▁도망	-11.2759
뻥치	-11.2761
▁얔ㅋㅋㅋㅋ	-11.2763
▁거울	-11.2764
▁산다	-11.2766
▁해봐야	-11.2767
▁푼	-11.2767
쁘	-11.277
소연	-11.2771
▁초대	-11.2771
쪄	-11.2778
인데	-11.2778
▁든데	-11.278
나갓	-11.2781
▁정확	-11.2787
▁놀랐	-11.2797
삼	-11.2799
▁모해	-11.28
▁서류	-11.2802
▁ㅜㅡㅜ	-11.2804
▁설정	-11.2805
▁걸어서	-11.2807
걱정하지마	-11.281
▁오이	-11.2811
▁후드	-11.2813
▁흥흥	-11.2815
른	-11.2822
▁범	-11.2825
▁으신	-11.2826
▁집착	-11.2826
에잇	-11.2827
친척	-11.283
ㅔ	-11.2833
▁잏	-11.2833
▁마쳤	-11.2834
▁패스	-11.2843
데려가	-11.2846
▁잌	-11.2848
욱	-11.285
안함	-11.2853
▁럿	-11.2854
놔서	-11.2854
로션	-11.2858
▁환자	-11.2859
으엉	-11.2862
피피티	-11.2868
▁물리	-11.2869
▁팬티	-11.2869
▁음음	-11.2871
▁죽이	-11.2872
▁나누	-11.2873
▁뿌리	-11.2874
▁크으	-11.2876
▁유진	-11.2877
▁거라	-11.2886
요번	-11.2887
려다가	-11.2894
원장	-11.2894
▁따듯	-11.2903
▁반팔	-11.2904
귀여워서	-11.2904
▁지켜	-11.291
▁모래	-11.291
▁깻	-11.2919
▁달려	-11.2933
나왕	-11.2941
▁썰	-11.2945
그른가	-11.2948
😚	-11.2952
배려	-11.2953
▁노트	-11.2953
▁니께	-11.2955
▁깎	-11.2964
ㅍ	-11.2964
▁망할	-11.2969
▁가입	-11.2971
ㅐ	-11.2971
▁장보	-11.2972
▁가르쳐	-11.2973
▁어니	-11.2979
▁대해	-11.2985
찝찝	-11.2992
▁괘	-11.2993
▁자제	-11.2996
얌	-11.2997
▁나잇	-11.2999
▁끝난	-11.3003
머금	-11.3003
▁입금	-11.3009
▁방가	-11.3025
▁뚀	-11.3026
▁섭	-11.3033
▁꼭꼭	-11.3034
▁하도	-11.3041
▁왜지	-11.3048
인가요	-11.3051
▁놀이	-11.3057
▁한태	-11.3057
반바지	-11.306
▁시르	-11.3061
▁활동	-11.3061
▁었었	-11.3067
야죠	-11.3083
흘리	-11.3087
▁센	-11.3087
▁든든	-11.3093
▁비안	-11.3106
▁부자	-11.3108
어염	-11.3113
▁먀	-11.3114
▁딱딱	-11.3119
교복	-11.312
▁현수	-11.3123
▁셀	-11.3127
▁사자	-11.3128
친	-11.313
▁송이	-11.3135
▁부천	-11.3138
▁빙	-11.3142
머리	-11.3151
욕먹	-11.3153
다행히	-11.3156
▁초콜릿	-11.3163
▁어뜩	-11.3177
▁바쁠	-11.3185
▁프린트	-11.3188
▁연어	-11.3197
▁동물	-11.3201
▁구치	-11.3209
졸려요	-11.3209
▁시청	-11.3209
창피	-11.321
▁댄다	-11.3212
▁시골	-11.3212
▁진자	-11.3216
옥	-11.3216
▁쯔	-11.3231
모으	-11.3236
포함	-11.3237
▁드셨	-11.3239
잘생긴	-11.3244
▁마쳐	-11.3249
▁취한	-11.325
▁레알	-11.3257
보임	-11.3273
▁은비	-11.3275
닭발	-11.3277
▁부러	-11.328
▁코오	-11.3284
▁기타	-11.3286
▁관련	-11.3287
▁울산	-11.3289
▁드렸	-11.3294
▁엣	-11.3297
▁유지	-11.3298
▁짘ㅋㅋㅋㅋㅋ	-11.3298
▁모아	-11.3299
▁아씨	-11.33
흐	-11.3303
굉장히	-11.3304
그동안	-11.3327
베	-11.3333
간단히	-11.3336
▁이때	-11.3338
▁빠진	-11.3342
▁라두	-11.3343
▁시켜서	-11.3345
▁귀여우	-11.3346
▁상대	-11.3348
▁국물	-11.335
▁대회	-11.3352
▁에스	-11.3353
▁으다	-11.3354
▁킼	-11.3368
따위	-11.3372
▁소식	-11.3374
▁의지	-11.3375
을까요	-11.3387
▁깨우	-11.3388
이라도	-11.3394
-	-11.3398
케이크	-11.3402
돌아오	-11.3411
▁컨	-11.3413
...	-11.3415
다녀왔	-11.3417
▁만화	-11.3417
▁부끄러워	-11.3417
▁부부	-11.3425
▁내요	-11.3427
▁피해	-11.3431
▁걸려서	-11.3445
▁점장	-11.3446
▁블랙	-11.3449
부들부들	-11.3456
▁냔	-11.3458
▁할걸	-11.346
▁가까워	-11.3462
▁슈퍼	-11.3465
▁지지	-11.3467
▁름	-11.3469
▁순대	-11.3472
▁체크	-11.3473
▁멀미	-11.3474
▁긍까	-11.3476
엇	-11.3477
오지마	-11.3484
▁대표	-11.3484
편	-11.35
▁차장	-11.3501
▁케이	-11.3507
▁손님	-11.3508
▁럴	-11.351
▁예지	-11.3513
버림	-11.3515
▁서비스	-11.3516
▁안정	-11.352
▁건너	-11.3523
▁그러니깐	-11.3525
▁힌	-11.353
▁제도	-11.3531
할껄	-11.3543
t	-11.3548
평	-11.3549
▁당직	-11.3561
밴드	-11.3562
색깔	-11.3564
장난치	-11.3571
▁제목	-11.3578
윤	-11.3584
쳐다보	-11.3586
글쿠나	-11.3592
▁핑	-11.3594
▁모드	-11.3598
츠	-11.3599
능거	-11.3602
▁벽	-11.3603
▁뎡	-11.3606
▁콧물	-11.3606
▁막내	-11.3608
▁종류	-11.3609
▁다녀야	-11.3617
월	-11.3617
▁신가	-11.3623
▁티켓	-11.3639
▁경우	-11.3641
▁슬픈	-11.3646
▁결론	-11.365
좀	-11.3653
▁추울	-11.3655
▁무서워서	-11.3657
품	-11.3657
▁프리	-11.3658
▁찢	-11.366
▁기달려	-11.3663
▁불렀	-11.3664
니다	-11.3664
▁꾸미	-11.3665
▁할까봐	-11.367
왔	-11.3679
▁모이	-11.3682
▁군인	-11.3683
무겁	-11.3689
▁다던데	-11.3695
하고	-11.3697
▁가리	-11.3698
▁ㅏㄴ	-11.3699
▁피아노	-11.3706
내말이	-11.3714
▁경주	-11.3717
▁됫어	-11.3719
삐졌	-11.3727
쿠	-11.3729
▁렇	-11.3731
름	-11.3731
요거	-11.3733
▁디자인	-11.3735
▁컄	-11.3739
▁뿌듯	-11.374
▁뎈ㅋㅋㅋ	-11.3742
▁무료	-11.3742
▁뉴스	-11.3746
▁당당	-11.3746
▁나을	-11.375
▁신대	-11.3751
▁지루	-11.3757
▁뒹굴	-11.3761
▁농구	-11.3763
▁고서	-11.3763
▁샐러드	-11.3765
▁기능	-11.377
▁자동	-11.3771
▁앱	-11.3771
누난	-11.3772
▁테이블	-11.3777
암것도	-11.3778
▁확정	-11.3783
여보오	-11.3784
디야	-11.3788
▁마셔야	-11.3807
▁촬영	-11.3811
ㅈ	-11.3814
▁명동	-11.3815
▁우동	-11.3822
▁룩	-11.3826
▁적당	-11.3827
▁괜차낭	-11.383
사룽	-11.3831
▁~??	-11.3832
▁따시	-11.3833
▁가영	-11.3835
▁끔	-11.384
▁광고	-11.3852
▁끝났	-11.3853
▁헿ㅎ	-11.3854
▁야부	-11.3855
▁고모	-11.3857
핡	-11.3859
▁각자	-11.3871
▁수박	-11.3878
▁헤어	-11.3887
다녀와요	-11.3887
▁조각	-11.3887
▁뵈	-11.3888
▁해놨	-11.3888
독	-11.3894
▁밟	-11.3895
▁♡♡♡♡	-11.3905
님	-11.3907
▁데스	-11.3908
아파요	-11.3909
그나저나	-11.3909
▁뚫	-11.3911
▁내기	-11.3916
센스	-11.392
▁마장	-11.3923
것	-11.3927
▁마을	-11.393
▁곀ㅋㅋㅋㅋㅋ	-11.3933
누군지	-11.3936
▁약국	-11.3944
ㅂㅅ	-11.3946
▁지방	-11.3949
▁장애	-11.3951
여니	-11.3953
▁옙	-11.3956
백	-11.3963
▁*	-11.3966
▁드러	-11.397
▁깝	-11.3971
쌩얼	-11.3975
▁갈라구	-11.3979
▁중독	-11.3985
즐기	-11.3991
▁글씨	-11.3996
였	-11.3998
▁그면	-11.4001
마냥	-11.4003
전날	-11.4005
저것	-11.4006
▁와인	-11.4018
▁배워	-11.4021
▁구려	-11.4021
▁더운	-11.4023
▁킄	-11.4026
퍼	-11.4026
▁국어	-11.4027
학식	-11.403
▁슉	-11.4031
▁진료	-11.4043
중학교	-11.4047
▁국수	-11.4052
꿀잼	-11.4054
▁출장	-11.4065
구나	-11.4067
▁끗	-11.4067
돈	-11.407
저희	-11.4072
▁모레	-11.4073
▁멘탈	-11.4075
만남	-11.4075
▁탈출	-11.4075
칼국수	-11.408
▁부평	-11.408
▁개강	-11.4086
연예인	-11.4087
▁킁	-11.409
▁좆	-11.4091
잔다고	-11.4093
▁홓	-11.4094
▁당일	-11.4097
▁속도	-11.41
▁우우우	-11.4108
▁내림	-11.4109
이라두	-11.4112
▁썸	-11.4114
▁엊	-11.4114
괜찮아	-11.4127
▁엎	-11.4127
▁몸살	-11.413
레슨	-11.4136
▁독	-11.4136
▁파마	-11.4139
▁책임	-11.4141
▁웟어	-11.4147
▁쩝	-11.4153
▁사야	-11.4159
▁느려	-11.4162
▁조타	-11.4162
다는	-11.4164
▁어따	-11.4178
▁눈썹	-11.4179
▁쐬	-11.418
▁따가	-11.4187
▁멘	-11.4188
라규	-11.419
쓰이	-11.4196
▁삐져	-11.4197
헐헐	-11.4204
▁겹	-11.421
▁짬	-11.4213
▁낙	-11.4219
▁제출	-11.422
▁~!!!	-11.4223
운동가	-11.4226
▁ㄸ	-11.4228
헤	-11.4232
▁아웅	-11.4241
▁긍정	-11.4241
▁배송	-11.4241
스트	-11.4245
▁평가	-11.4246
짱나	-11.4246
▁힐	-11.4249
▁뜌	-11.4249
▁뜬	-11.425
▁이동	-11.4257
남음	-11.4259
▁살찌	-11.426
▁대지	-11.4268
점심때	-11.4269
▁☺	-11.4273
홍	-11.4274
▁깨물	-11.4274
잖아	-11.4274
▁강제	-11.4276
▁나감	-11.4283
▁구두	-11.4294
기얌	-11.4301
디요	-11.4307
▁된다는	-11.431
▁욕심	-11.4311
▁갔다와	-11.4312
▁뚝	-11.4315
▁누어	-11.4315
▁맵	-11.4315
▁정돈	-11.4316
▁존재	-11.4316
온제	-11.4316
▁안심	-11.4319
▁과학	-11.4327
▁에바	-11.4332
⫬	-11.4338
아무거	-11.4338
써도	-11.4362
▁깬	-11.4365
▁느냐	-11.437
▁짖	-11.4373
▁다네	-11.439
▁해조	-11.4399
당분간	-11.4399
▁어허	-11.4401
손	-11.4406
으이그	-11.4407
▁덴	-11.4413
▁셔야	-11.4414
그쵸	-11.4415
에잉	-11.4416
▁갔었	-11.4416
▁교대	-11.4428
▁섞	-11.4433
▁뭥	-11.4442
▁씽	-11.4444
▁반성	-11.4446
▁근뎅	-11.4446
▁힝힝	-11.4448
야보	-11.4458
▁룬	-11.4461
▁본다고	-11.4464
▁습관	-11.4466
▁드림	-11.4466
두근두근	-11.447
▁쟁	-11.4486
탄	-11.4488
불고기	-11.4489
즐겁	-11.449
맞음	-11.4492
▁사면	-11.4497
▁ㅓㅇ	-11.4504
▁유라	-11.4509
▁교양	-11.4515
▁먹여	-11.4518
허어	-11.452
▁마셔서	-11.4521
▁살려	-11.4523
컵라면	-11.4525
▁A	-11.4527
가까이	-11.453
▁깜빡	-11.4534
▁일산	-11.4536
▁댁	-11.4539
▁이마	-11.4541
▁나유	-11.4544
▁우래	-11.4545
▁연수	-11.4545
자세히	-11.4548
▁안마	-11.4555
▁선수	-11.4565
비온다	-11.4567
아끼	-11.457
▁부려	-11.4578
븐	-11.4581
▁더운데	-11.4584
▁뎈ㅋㅋ	-11.4586
치맥	-11.4589
급	-11.4591
▁여성	-11.4595
▁이쁠	-11.4606
그래	-11.4608
놀랬	-11.4609
정답	-11.4612
▁내시	-11.4614
▁찡찡	-11.4616
▁스스로	-11.4621
▁진다	-11.4625
김	-11.4627
▁가꾸	-11.4629
불러서	-11.4632
결	-11.4632
촌	-11.4634
▁코스	-11.4637
▁ㅡㅜ	-11.4638
▁못한	-11.464
네유	-11.4644
▁단지	-11.4647
🙈	-11.465
음료수	-11.4651
▁먹이	-11.4652
넘기	-11.4654
이벤트	-11.4655
▁삼촌	-11.4666
없애	-11.4667
▁갚	-11.4667
골	-11.4675
▁착각	-11.4686
▁임신	-11.4686
▁꽂	-11.4686
ᆞ	-11.469
▁깃	-11.4696
▁허허허	-11.4697
▁체육	-11.4701
▁쌀쌀	-11.4716
▁앜ㅋ	-11.4717
▁오케	-11.4718
▁옮	-11.4722
▁시도	-11.4727
▁빳	-11.4742
공짜	-11.4743
드세요	-11.4748
뵤	-11.4749
으세요	-11.4751
▁벌레	-11.4751
▁폭	-11.4755
▁바뻐	-11.4757
▁‥	-11.4764
ㅇㄷ	-11.4766
▁수연	-11.4768
▁음료	-11.4769
▁쿵	-11.4773
▁취해	-11.4776
등등	-11.4778
▁참으	-11.4779
▁살살	-11.4786
▁볼링	-11.4791
▁편할	-11.4791
▁향수	-11.4795
▁고쳐	-11.4797
▁허니	-11.4798
▁어딘	-11.4798
▁전쟁	-11.4801
▁세계	-11.4802
▁랍	-11.4803
효	-11.4807
▁아닙니다	-11.4811
데여	-11.4816
▁조사	-11.4821
▁아재	-11.4826
▁재료	-11.4831
▁션	-11.4833
더니	-11.4833
▁결	-11.484
▁지구	-11.4841
껴안	-11.4842
▁겉	-11.4854
▁통통	-11.4855
▁ㅇㅏ	-11.4862
▁읏	-11.4862
▁스킨	-11.4863
▁변하	-11.4864
▁계셔	-11.4868
▁보조	-11.4868
▁급행	-11.4868
▁쉬운	-11.487
▁비타민	-11.4871
귀찬	-11.4876
▁카지	-11.488
▁이럼	-11.4888
▁가득	-11.4889
▁밈	-11.4893
사이트	-11.4893
▁키로	-11.4898
▁이빨	-11.4899
▁모라	-11.4903
▁동방	-11.4905
▁볶음	-11.4906
▁망고	-11.4912
▁휴무	-11.4915
내려오	-11.4916
▁아픔	-11.4921
변	-11.4929
▁맴	-11.4934
끄러	-11.4949
▁갈려	-11.495
주차장	-11.4955
😀	-11.4956
▁날라	-11.4962
버려야	-11.4966
▁복귀	-11.4969
대루	-11.4979
사건	-11.4982
▁ㅜㅡ	-11.4982
▁사라	-11.4983
꼬	-11.4987
잔당	-11.4999
찾아가	-11.5008
쪼꼼	-11.501
▁>.<	-11.5011
쨋	-11.5012
▁저걸	-11.5013
▁알림	-11.5014
와중	-11.5019
▁애초	-11.5023
▁흙	-11.5028
더라구요	-11.5031
▁청주	-11.5031
후기	-11.5037
▁갈려고	-11.5045
▁보구	-11.5051
자기	-11.5059
▁와여	-11.5061
▁늬	-11.5063
▁으셨	-11.5066
▁릿	-11.5068
▁내린	-11.5071
▁램	-11.5071
▁부비	-11.5078
▁초반	-11.5079
건가요	-11.508
▁튜	-11.5083
▁힘든데	-11.5089
▁가네	-11.5092
▁붙잡	-11.5093
을려고	-11.5099
써야지	-11.5104
매니저	-11.5106
합시다	-11.5106
▁옮겨	-11.5107
수민	-11.5112
▁영등포	-11.5114
▁나와야	-11.5114
벌	-11.5116
▁자살	-11.5116
익	-11.5124
▁켯	-11.5127
한마디	-11.5127
▁마블	-11.5128
사라지	-11.5133
▁앟	-11.5134
▁유혹	-11.5134
▁깍	-11.5138
▁후우	-11.514
▁연속	-11.514
▁붓	-11.5141
▁빛	-11.5156
▁전이	-11.5158
밍밍	-11.516
▁칩	-11.5162
▁니트	-11.5163
▁히히히히히	-11.5167
▁외국	-11.5167
▁야하	-11.5175
▁드루	-11.5178
쉬	-11.5184
▁심한	-11.5184
▁싸울	-11.5187
▁후아	-11.5194
▁역사	-11.5196
▁전기	-11.5197
▁발견	-11.5209
▁정문	-11.5209
▁일기	-11.5209
▁부지런	-11.521
올	-11.5211
▁문화	-11.5212
▁하공	-11.5212
▁튼튼	-11.5213
훈	-11.5215
▁따지	-11.5215
▁시프	-11.5215
▁야야	-11.5216
▁단다	-11.5217
▁괜찬	-11.5219
▁진동	-11.5221
▁공감	-11.5221
▁죽여	-11.5225
▁할려	-11.5226
▁시무룩	-11.5229
▁이겼	-11.5232
▁다니깐	-11.5235
ㅠㅠㅠㅠㅠ	-11.5239
꺼	-11.5241
▁졋다	-11.5241
다영	-11.5242
귀	-11.5246
으으응	-11.5248
졸린데	-11.5252
허벅지	-11.5255
▁걘	-11.5258
청아	-11.5259
▁얄	-11.5261
토할	-11.5269
▁키워	-11.5278
소리	-11.5279
어어엉	-11.528
필	-11.5283
▁^_^	-11.5289
닭갈비	-11.5293
시펑	-11.5294
칠	-11.5294
▁아까워	-11.5297
큰일나	-11.5299
주무세요	-11.5313
▁용서	-11.5315
▁아으	-11.5318
▁마늘	-11.5319
▁지난	-11.532
▁훨	-11.532
신난다	-11.532
▁방향	-11.5323
▁야자	-11.5326
▁s	-11.5327
실장	-11.5327
▁봅	-11.5336
▁하규	-11.5339
▁간다구	-11.5352
▁❣	-11.5355
▁인대	-11.5355
▁보쌈	-11.5361
▁?!!	-11.5368
▁특별	-11.5373
▁연극	-11.5377
꙼	-11.5385
몰러	-11.5388
▁…	-11.5388
▁시켜야	-11.539
▁짘ㅋㅋㅋ	-11.5391
▁계약	-11.5396
여기저기	-11.5398
목금	-11.5401
▁그렁	-11.5403
슬기	-11.5406
▁흠흠	-11.5415
▁벚꽃	-11.5433
혜진	-11.5436
▁고양	-11.5437
▁두부	-11.5438
▁씬	-11.5442
▁연주	-11.5445
대부분	-11.5447
▁첫날	-11.5447
▁폭풍	-11.5449
따라가	-11.545
▁어린	-11.5451
별일	-11.5451
▁필기	-11.5455
▁전자	-11.5456
▁마중	-11.5457
댕기	-11.5462
▁죄	-11.5469
혀	-11.547
▁젱	-11.5471
▁휴식	-11.5474
가져오	-11.5474
▁유유	-11.5478
▁어린이	-11.5482
▁멋진	-11.5484
▁오지	-11.5489
▁엌ㅋ	-11.5499
답	-11.55
대해서	-11.5501
이랑	-11.5506
▁공지	-11.551
조만간	-11.5513
▁현장	-11.5514
ㅅㅅ	-11.5516
런	-11.5523
왜구	-11.5523
▁으아아	-11.5524
▁배고픈	-11.5526
▁남기	-11.5528
▁롸	-11.5529
▁실력	-11.5533
께서	-11.5534
담날	-11.5535
멘붕	-11.5549
보소	-11.5555
앗	-11.5562
▁아쉬워	-11.5563
▁추어	-11.5565
햇빛	-11.5573
▁누리	-11.5576
▁드려야	-11.5577
▁모델	-11.5579
▁논문	-11.5583
▁펜	-11.5583
▁소스	-11.5584
▁유니	-11.5586
▁단체	-11.5588
숙	-11.5591
▁햌ㅋㅋㅋㅋㅋ	-11.5591
▁엄청난	-11.5591
▁짘ㅋㅋ	-11.5601
▁배고플	-11.5608
불닭	-11.5609
탈	-11.5613
▁택	-11.5614
▁종로	-11.5615
▁간장	-11.562
▁시름	-11.5627
▁숭	-11.5631
참	-11.5638
▁^.^	-11.5639
이제야	-11.5643
▁여신	-11.5646
▁메이플	-11.5652
훗	-11.5652
▁취해서	-11.5656
▁다녔	-11.5657
😙	-11.5658
▁신입	-11.5659
▁가타	-11.5665
쟈	-11.5665
▁도로	-11.5674
다이소	-11.5675
♥	-11.5683
▁☆	-11.5693
▁룰루	-11.5693
그만두	-11.5703
을까	-11.5706
▁채우	-11.571
▁을라구	-11.5715
외롭	-11.5718
▁사탕	-11.5719
▁신다	-11.5724
▁피로	-11.5728
슴다	-11.5734
몸무게	-11.5735
▁할라구	-11.5737
능	-11.5737
▁빠질	-11.5739
▁다정	-11.5744
▁바요	-11.5747
▁시킨	-11.5757
▁^-^	-11.5761
▁해질	-11.5765
▁들으면서	-11.5774
▁보네	-11.5776
▁뷔페	-11.5776
▁꿔	-11.5786
맛	-11.5787
▁떨어졌	-11.5789
▁어젠	-11.5789
▁!♡	-11.5795
▁준거	-11.5811
▁지은	-11.5811
💖	-11.5814
▁특이	-11.5815
▁빨랑	-11.5816
볼게요	-11.5816
비빔밥	-11.5825
얼	-11.5826
환불	-11.5828
귀여움	-11.5836
▁올라와	-11.5837
▁껌	-11.5841
▁진작	-11.5841
▁걸림	-11.5842
집간	-11.5842
▁완성	-11.5843
껐	-11.5846
온몸	-11.5847
▁연장	-11.5848
▁반복	-11.5848
▁뚱뚱	-11.5857
추카	-11.586
▁걱	-11.5865
▁올렸	-11.5868
▁더우	-11.587
둥	-11.5875
한다며	-11.5876
렴	-11.5885
▁욬ㅋㅋㅋㅋㅋ	-11.5887
할땐	-11.5891
껴서	-11.5892
배불러서	-11.5893
너무	-11.5893
▁접수	-11.5893
세요	-11.5894
▁됩니다	-11.5903
▁놔두	-11.5906
▁막막	-11.591
▁쳣어	-11.5914
러네	-11.5914
소개팅	-11.5916
▁부정	-11.5917
일어남	-11.5919
▁딜	-11.592
▁아무렇	-11.5922
번	-11.5924
▁캄	-11.5932
▁토마토	-11.5933
듯	-11.5937
갈까요	-11.594
▁넼ㅋㅋㅋ	-11.594
▁우우우우	-11.594
▁자장	-11.5943
▁뇌	-11.5952
대학교	-11.5958
▁올라갈	-11.5961
▁렉	-11.597
냐아	-11.597
▁도시	-11.5974
▁수진	-11.5976
▁웤ㅋㅋㅋㅋㅋ	-11.5981
▁지여	-11.5982
▁비비	-11.5986
몽	-11.5987
▁폭발	-11.5991
쒸	-11.5994
정말로	-11.5994
▁모른	-11.601
▁샐	-11.601
캐릭터	-11.6014
뎅	-11.6015
우리	-11.6022
▁찔	-11.6025
▁~~♡	-11.6026
▁라이	-11.6027
▁헿ㅎㅎ	-11.603
▁현아	-11.603
▁왴ㅋㅋㅋㅋㅋ	-11.603
▁맑	-11.6031
▁가져와	-11.6033
믄서	-11.6033
▁성인	-11.6036
▁ㅇㅣ	-11.6037
▁지역	-11.6048
넘	-11.6052
▁베베	-11.6053
▁흐흐흐	-11.6057
할까요	-11.6061
▁튀김	-11.6063
휴게소	-11.6063
▁일가	-11.6064
아찌	-11.607
▁랜	-11.6071
▁쌓	-11.6074
울엄마	-11.6077
넘치	-11.6088
▁틴	-11.6096
▁장사	-11.6098
▁애정	-11.6099
정색	-11.6103
▁알라	-11.6108
▁쉰	-11.6114
▁잉여	-11.6116
싸	-11.6117
▁블로그	-11.612
▁자극	-11.6125
▁왔었	-11.6128
▁위한	-11.6133
▁혼났	-11.6136
▁과거	-11.6137
▁늉	-11.6147
▁액	-11.6153
▁테스트	-11.6153
었잖	-11.6154
▁헿헿	-11.6155
▁어울려	-11.6162
▁요미	-11.6166
사러가	-11.6169
지마	-11.6172
▁뭉이	-11.6174
▁직장	-11.6179
▁짜장	-11.6184
루루	-11.6185
태우	-11.6188
▁고통	-11.6189
가볍	-11.6192
엄니	-11.6195
▁회장	-11.6203
페이지	-11.6204
▁줄이	-11.6208
▁오궁	-11.621
토스트	-11.6215
윳	-11.6227
▁잠든	-11.6229
▁특	-11.6232
▁빌리	-11.6232
것다	-11.6232
▁제사	-11.6233
▁영혼	-11.6237
▁최소	-11.6238
돌	-11.624
▁해줄게	-11.6242
▁섹	-11.6243
▁뤼	-11.6244
▁타자	-11.6245
뭘로	-11.625
몸매	-11.626
▁현대	-11.6262
▁터졌	-11.6262
▁축	-11.6266
▁괴	-11.6266
▁느꼈	-11.6278
▁정장	-11.6278
모아서	-11.6286
▁녀석	-11.629
▁지모	-11.6291
▁씌	-11.6294
▁싸움	-11.63
▁킴	-11.6308
🤔	-11.6308
완	-11.631
갰	-11.6312
▁들어올	-11.6323
아메리카노	-11.6323
▁;;;;	-11.6324
따구	-11.6325
직전	-11.6327
ㅗ	-11.6327
▁면허	-11.6329
▁a	-11.6334
▁고객	-11.6338
▁진행	-11.634
꼬옥	-11.6341
▁그린	-11.6347
이제	-11.6356
▁팝	-11.6357
▁떴	-11.6362
▁부를	-11.6365
▁줫어	-11.6367
▁버린	-11.6368
▁주위	-11.6369
▁부끄	-11.6372
▁기특	-11.6376
시끄럽	-11.6377
▁탁	-11.638
▁열차	-11.6381
▁그닥	-11.639
▁야채	-11.6399
▁스케줄	-11.6403
영화관	-11.6407
▁♥♥♥♥	-11.6413
▁진저	-11.6417
▁중앙	-11.642
쿨쿨	-11.6427
가운데	-11.6432
▁닠ㅋㅋㅋ	-11.6434
건디	-11.6438
게유	-11.6443
▁개념	-11.6449
▁기기	-11.6451
▁부른	-11.6456
▁촌	-11.6458
풍	-11.6461
크기	-11.6462
▁이득	-11.6464
▁채워	-11.6476
▁오르	-11.6488
바꼈	-11.65
▁용산	-11.6501
▁일지	-11.6508
▁둉	-11.6509
▁-?	-11.6511
▁썬	-11.6517
▁해해	-11.6525
▁곸ㅋㅋㅋ	-11.6525
▁니야	-11.6528
양아치	-11.6533
▁주머니	-11.6536
▁금토	-11.6539
칰	-11.6541
!!	-11.6546
▁잌ㅋㅋㅋ	-11.6547
▁전역	-11.6547
▁웨	-11.6551
▁간지	-11.6562
ㅉㅉ	-11.6566
요가	-11.6566
▁스테이크	-11.6582
어쨋든	-11.6588
😄	-11.6595
▁기업	-11.6596
▁모모	-11.661
▁바꿔야	-11.6613
택	-11.6614
▁의견	-11.6617
척	-11.6618
사람	-11.6619
연휴	-11.6621
뒹굴뒹굴	-11.6622
▁소문	-11.6622
▁아악	-11.6624
▁더러워	-11.6632
▁아자	-11.6633
▁떨려	-11.6634
우응	-11.6635
▁헤어질	-11.6638
^	-11.6641
야호	-11.6648
▁지마	-11.6649
▁박력	-11.6651
무야	-11.6653
▁이태원	-11.6655
▁안양	-11.6655
랭	-11.6656
후다닥	-11.6658
팡팡	-11.6664
놓치	-11.6665
빡시	-11.6679
▁진이	-11.6681
의도	-11.6685
▁생각났	-11.6687
휴대폰	-11.6687
▁꿧	-11.6698
▁졸릴	-11.6701
▁어이구	-11.6707
▁든다	-11.6707
▁스러	-11.6723
▁카카오	-11.6723
▁워라	-11.6728
▁올린	-11.6728
▁신났	-11.6733
▁주니	-11.674
▁여의도	-11.674
▁잇대	-11.6741
▁템	-11.6741
▁그저	-11.6746
▁배그	-11.6747
댕이	-11.6747
▁이길	-11.675
감당	-11.6751
는거	-11.6752
케잌	-11.6755
▁른데	-11.6761
▁넼ㅋㅋ	-11.6763
다만	-11.6763
휴우	-11.6768
▁켰	-11.6777
▁누군데	-11.6781
▁풀렸	-11.6783
▁라니깐	-11.6784
▁해장	-11.6785
▁는다는	-11.6789
▁찾아볼	-11.679
까페	-11.679
▁화이	-11.6791
보당	-11.6794
▁얼음	-11.6797
실물	-11.6802
그람	-11.6802
▁구구	-11.6803
▁개봉	-11.6804
▁킬	-11.6813
▁인턴	-11.6815
▁찮	-11.6819
하이	-11.6822
▁❤❤	-11.6825
으니까	-11.6827
몰라도	-11.683
▁위로	-11.6831
▁쥼	-11.6831
▁그땐	-11.6833
▁흔들	-11.6838
쉬엄쉬엄	-11.6839
어쩜	-11.6846
▁찮아	-11.6848
▁시즌	-11.6854
▁구마	-11.686
렇게	-11.6867
▁들어온	-11.6868
▁꼽	-11.6869
본당	-11.6872
▁이케	-11.6872
▁해외	-11.6879
꺼도	-11.6891
▁노우	-11.6893
▁D	-11.6897
▁무거워	-11.6897
겟	-11.6899
▁건들	-11.6902
귀여운데	-11.6902
▁어구	-11.6902
▁고래	-11.6904
져서	-11.6905
▁발목	-11.691
▁순위	-11.6918
▁ㅍㅍ	-11.6919
션	-11.6923
▁잠수	-11.6923
▁c	-11.6926
▁어뜨	-11.6926
▁섬	-11.6927
▁뎈ㅋㅋㅋㅋ	-11.6928
▁헤어졌	-11.6931
▁샌	-11.6933
프로그램	-11.6941
와유	-11.6943
▁?!?	-11.6944
▁실내	-11.6945
그놈	-11.6947
▁엏	-11.6947
쳤	-11.6952
▁사귄	-11.6953
▁생선	-11.696
▁간다는	-11.6969
▁보라	-11.6975
▁궈	-11.6977
라면	-11.698
▁요금	-11.6982
▁워낙	-11.6984
좋	-11.6988
▁공사	-11.699
칭	-11.6997
▁라던데	-11.6999
네잉	-11.7005
해져서	-11.7012
▁마침	-11.7013
▁자두	-11.7017
진다	-11.7017
▁물어봐야	-11.7018
▁서면	-11.7024
▁해석	-11.7028
피하	-11.7028
▁판단	-11.7032
웠	-11.7043
▁쓔	-11.7043
▁즐거운	-11.7043
▁나보	-11.7047
▁헙	-11.7048
▁동이	-11.7055
아가씨	-11.7055
융	-11.7058
라떼	-11.7062
▁감성	-11.7064
갈께요	-11.7064
▁ㅡㅅㅡ	-11.7065
▁건조	-11.7073
▁바퀴	-11.7073
▁납	-11.7075
네네네	-11.7075
자격증	-11.7088
▁퉁	-11.7088
▁예의	-11.7091
▁눼	-11.7092
혁	-11.7093
▁컨셉	-11.7093
농	-11.7097
▁회복	-11.7098
▁습	-11.71
▁곸ㅋㅋ	-11.7101
▁봣다	-11.7111
▁롯	-11.7118
▁잔뜩	-11.7127
립	-11.7141
▁했으니	-11.7155
▁엡	-11.7156
▁스토리	-11.7157
▁해피	-11.7157
▁밉	-11.7163
▁대출	-11.7167
▁나갈까	-11.7169
▁우울해	-11.7177
뭔일	-11.7179
▁어쩌다	-11.718
▁출석	-11.7188
▁ㅏ아	-11.7191
생각	-11.7194
ㅛ	-11.7195
으아아아아	-11.7196
▁터치	-11.7202
▁바뀐	-11.7206
▁인상	-11.7209
▁코피	-11.721
▁회색	-11.7211
축	-11.7212
예뿌	-11.7215
▁뿜	-11.7217
가야	-11.7219
o	-11.722
▁터리	-11.7222
▁입원	-11.7224
하나하나	-11.7227
▁바래	-11.723
스트레칭	-11.7236
▁낄	-11.7236
▁려니	-11.7236
가디건	-11.724
▁ㅓㄴ	-11.7246
▁틱	-11.7248
▁구매	-11.7251
빵	-11.7252
▁지네	-11.7255
▁ᆢ	-11.7255
▁이란	-11.7255
▁산거	-11.7257
▁언젠가	-11.7259
랴	-11.7259
틀리	-11.726
▁~~~~~~	-11.7261
미역국	-11.7262
▁오라	-11.7271
다가	-11.7272
야말로	-11.7273
▁동갑	-11.728
▁지옥	-11.7285
겼	-11.7288
▁풀려	-11.7289
▁아진	-11.7289
으구	-11.7291
팅	-11.7292
▁복숭아	-11.7292
😅	-11.7293
▁오뎅	-11.73
오빠	-11.7301
최악	-11.7302
▁교환	-11.7302
▁외모	-11.7303
챙겨서	-11.7305
▁사지	-11.7306
낼	-11.7308
▁인성	-11.7309
▁풉	-11.7311
룡	-11.7312
혜	-11.7313
▁갈려구	-11.7314
춥다	-11.7317
▁귀요	-11.7319
▁공간	-11.7319
▁댕겨	-11.7327
▁가져왔	-11.7331
피곤하	-11.7334
윰	-11.7338
게다가	-11.7338
▁페이	-11.7343
ㅁㅎ	-11.7345
오늘	-11.7345
▁외식	-11.7346
허걱	-11.735
▁파워	-11.735
ㅎㄷㄷ	-11.7359
외국인	-11.7363
▁연이	-11.7366
휴	-11.7369
▁납치	-11.7377
▁눈뜨	-11.7377
사거리	-11.7377
천국	-11.7379
▁시대	-11.7381
지웠	-11.7383
밍	-11.7384
▁숩	-11.7386
팝콘	-11.739
▁평균	-11.7394
▁고집	-11.7395
▁낄낄	-11.7395
▁내놔	-11.7399
▁수건	-11.74
쥬	-11.7406
마찬가지	-11.7408
▁치러	-11.7412
유튜브	-11.7416
▁대용	-11.742
마세요	-11.7422
▁등산	-11.7425
일나	-11.7428
▁나영	-11.7428
▁조건	-11.7429
▁울리	-11.743
▁소영	-11.7438
▁유럽	-11.744
업데이트	-11.7442
▁귀염	-11.7444
😃	-11.7445
▁먹장	-11.7447
▁환	-11.7448
▁치워	-11.7449
▁컸	-11.745
▁구이	-11.7463
▁휴지	-11.7464
해쏘	-11.7465
▁해진	-11.7467
▁민주	-11.7467
▁미소	-11.747
▁♡.♡	-11.7475
▁토하	-11.7477
탕수육	-11.748
▁단계	-11.7485
내려요	-11.7486
▁S	-11.7489
▁쏴	-11.7495
▁양념	-11.7502
멀랑	-11.7502
▁화낼	-11.7506
▁지인	-11.7507
▁쒀	-11.7513
▁숴	-11.7514
▁모시	-11.7517
진짠데	-11.7518
ㅑ	-11.7527
▁공개	-11.7528
▁토리	-11.7539
외	-11.7547
▁까까	-11.7549
▁글자	-11.7553
▁꼇	-11.7558
빠져서	-11.7565
띠	-11.7571
끓이	-11.7571
▁혹	-11.7571
▁ㅛ어	-11.7575
▁뿔	-11.7579
▁이론	-11.7587
예용	-11.7588
▁햅	-11.7591
교실	-11.7592
족	-11.7593
▁가만	-11.7594
▁웬	-11.7595
▁기록	-11.7601
한다	-11.7602
▁한글	-11.7603
▁왕십리	-11.7604
청바지	-11.7605
▁기전	-11.7607
▁우구	-11.7611
▁천재	-11.7623
▁알아봐	-11.7625
터짐	-11.7628
▁보인	-11.7629
밧데리	-11.7632
바빠요	-11.7634
▁장어	-11.7635
못가	-11.7637
꿨	-11.7638
▁공격	-11.7642
흥	-11.7645
▁사정	-11.7645
▁노라	-11.7648
▁턴	-11.7652
▁고시	-11.7656
▁스파	-11.7659
▁공포	-11.766
▁소현	-11.7661
▁싱기	-11.7667
▁장기	-11.7667
▁가래	-11.7668
▁나방	-11.767
▁꼬치	-11.7673
북	-11.7678
는뎅	-11.768
어마어마	-11.7681
▁죤	-11.7684
▁단발	-11.769
귀욤	-11.7691
▁기상	-11.7695
▁알아들	-11.7701
▁겠어	-11.7702
▁밀리	-11.7705
▁성당	-11.7705
밤	-11.7706
▁치사	-11.7707
▁이성	-11.7708
가져갈	-11.7711
▁마용	-11.7711
얻어먹	-11.7717
▁포도	-11.772
맨	-11.7728
귀야	-11.7729
드라이브	-11.7732
들려서	-11.7734
▁버틸	-11.7743
한건데	-11.7743
▁득	-11.7743
슨	-11.7743
양파	-11.7747
▁일부	-11.7747
▁쇼파	-11.7748
롯데월드	-11.7748
어어어엉	-11.7748
▁뒈	-11.7752
▁~~~?	-11.7752
분차	-11.7755
▁부인	-11.7761
▁으믄	-11.7762
▁내려갈	-11.7763
례	-11.7764
▁춘천	-11.7766
린다	-11.7767
깜놀	-11.777
ㄲ	-11.777
▁생길	-11.7771
▁피시	-11.7775
버스	-11.7783
▁쓰리	-11.7783
▁!♥	-11.7783
▁신세계	-11.7784
▁둣	-11.7787
▁여우	-11.779
피부과	-11.7793
▁화안	-11.7795
▁전하	-11.7797
▁만질	-11.7797
지켜보	-11.7798
▁올라왔	-11.7798
▁챙길	-11.7801
▁아함	-11.7804
▁유미	-11.7808
▁고개	-11.781
여도	-11.7811
세희	-11.7811
▁~~^^	-11.7812
▁급한	-11.7812
💗	-11.7813
▁초등	-11.7815
▁헿ㅎㅎㅎ	-11.7815
▁낀	-11.7817
▁미루	-11.7819
▁아름	-11.7824
후잉	-11.7827
▁깻어	-11.7828
분명히	-11.7829
또라이	-11.783
▁됫다	-11.7834
▁지유	-11.7835
▁파스	-11.7836
▁필수	-11.7838
▁생신	-11.7838
볼라고	-11.784
덮밥	-11.7841
▁등급	-11.7842
ㅜㅜㅜ	-11.7843
ㄴ데	-11.7843
▁지민	-11.7844
▁..!!	-11.7847
▁솜	-11.7848
하핫	-11.7848
▁핏	-11.785
▁여야	-11.7851
▁유우	-11.7855
▁오용	-11.7858
면은	-11.7859
▁그램	-11.7861
▁쌩	-11.7862
쉿	-11.7864
▁니다	-11.7864
▁룡	-11.7865
▁국가	-11.7865
▁공장	-11.7867
▁서요	-11.7872
▁냐면	-11.7872
아아	-11.7874
▁잡혀	-11.7884
한디	-11.7887
▁풍	-11.7889
▁사라졌	-11.7889
▁당했	-11.7892
▁빅	-11.7893
▁싸웠	-11.7894
▁ㅏㅏㅏ	-11.7908
격	-11.7911
▁프로필	-11.7911
왜죠	-11.7913
몰르	-11.7916
▁하얀	-11.7932
▁마구	-11.7934
▁마칠	-11.7949
▁일상	-11.7949
줘	-11.7949
더위	-11.7951
▁뒤집	-11.7952
▁우주	-11.7954
▁드만	-11.7955
😶	-11.7956
▁낰ㅋㅋㅋ	-11.7958
흐응	-11.7959
맨투맨	-11.796
▁쏙	-11.796
▁-_-	-11.7964
▁덜덜	-11.7967
▁거부	-11.7977
▁홍콩	-11.798
▁뻣	-11.7981
▁보람	-11.7983
▁뷴	-11.7983
욤	-11.7986
그러	-11.7988
힘	-11.7988
▁뜨거운	-11.7989
▁친다	-11.799
▁안타깝	-11.7992
▁벅	-11.7994
못생겼	-11.7994
▁가두	-11.7995
적어도	-11.7996
자몽	-11.7996
▁라면서	-11.8
▁주도	-11.8001
농협	-11.8006
률	-11.8007
잡	-11.8011
▁의식	-11.8012
▁말려	-11.8012
▁배웠	-11.8018
▁수상	-11.8018
▁설사	-11.8019
▁싸워	-11.8021
뉴	-11.8024
▁x	-11.8024
▁닐	-11.8024
인데요	-11.8026
▁태풍	-11.8027
▁둠	-11.8028
긴데	-11.8033
더울	-11.8039
▁으아아아	-11.8039
거든	-11.8044
▁펑	-11.8044
▁미미	-11.8045
▁그랬었	-11.8045
▁~~!	-11.8048
▁어쨌든	-11.8057
▁숫자	-11.8058
내가	-11.8063
균	-11.8064
려고	-11.8064
민아	-11.8067
잠옷	-11.8067
▁섴ㅋㅋㅋㅋㅋ	-11.807
▁단호	-11.8073
텨	-11.8073
▁복사	-11.8074
패	-11.8077
▁나두	-11.8077
▁연구	-11.8079
▁강릉	-11.809
▁매워	-11.8099
▁현정	-11.8105
혼난다	-11.8106
▁목욕탕	-11.8107
▁휴학	-11.8113
졸	-11.8113
▁느낀	-11.8113
▁동시	-11.8116
해야	-11.8117
쭈니	-11.8117
▁·	-11.8118
▁켕	-11.812
태어나	-11.8122
싱	-11.8122
하구	-11.8122
▁반차	-11.8123
▁버텨	-11.8123
마니	-11.8123
고터	-11.8125
▁뭘까	-11.8126
▁서현	-11.8127
▁왠만	-11.813
고푸	-11.813
▁다신	-11.8134
덩	-11.8136
▁쩜	-11.8138
다아아	-11.8142
▁텔	-11.8148
▁온도	-11.815
같	-11.8151
▁한단	-11.8157
메세지	-11.8167
▁계절	-11.8175
▁아이스	-11.8175
▁서든	-11.8175
▁는걸	-11.8177
▁수리	-11.8178
▁희망	-11.818
▁닠ㅋㅋ	-11.8183
▁뒀	-11.8183
디만	-11.8186
늘	-11.8186
말래	-11.8189
▁온나	-11.8193
▁렛	-11.8196
▁코드	-11.8203
맡기	-11.8212
▁소설	-11.8224
▁어땠	-11.8224
▁휴강	-11.8236
▁진주	-11.8238
💜	-11.8238
헌	-11.8239
▁구미	-11.8243
▁♥.♥	-11.8244
▁철벽	-11.8251
추웠	-11.8254
굴	-11.8255
▁가스	-11.8257
엔	-11.8257
▁복수	-11.8263
▁보충	-11.827
▁양심	-11.8271
▁친절	-11.8274
▁!!!!!	-11.8278
▁라라	-11.8283
▁헤이	-11.8287
지금	-11.8288
▁가정	-11.8296
▁직업	-11.8298
▁앨범	-11.83
▁으으으으	-11.8303
주세요	-11.8305
▁낚	-11.8306
▁조교	-11.8307
중딩	-11.8309
▁틀린	-11.8309
▁차례	-11.8314
▁최선	-11.8317
예여	-11.8319
▁습니	-11.8329
▁ㅡㅇ	-11.833
▁잠드	-11.833
랄	-11.8334
▁둘째	-11.8335
▁살쪄	-11.8338
했어여	-11.8341
▁모른다	-11.8345
▁전문	-11.8346
▁벨	-11.8347
해줘요	-11.835
▁꾹	-11.8351
▁ㅇㅓ	-11.8355
똑바로	-11.8358
ㅊㅋ	-11.8361
▁세일	-11.8362
심히	-11.8368
혜지	-11.837
ㅎㅎㅎㅎㅎ	-11.8374
▁시비	-11.8375
실컷	-11.8375
개소리	-11.8383
▁정했	-11.8384
자러	-11.8385
▁m	-11.8386
뇨	-11.839
▁고만	-11.8391
▁ㅇ웅	-11.8396
▁ㅠ힝	-11.8396
나빴	-11.84
▁핀	-11.8403
▁삐진	-11.8406
볼까요	-11.8408
춤추	-11.841
볼일	-11.8412
▁정아	-11.8414
▁모여	-11.8417
스팸	-11.842
▁신림	-11.8421
▁무디	-11.8426
▁무한	-11.8432
ㆍ	-11.8432
땡큐	-11.8434
▁올릴	-11.8435
자존심	-11.8437
▁버터	-11.8437
▁ㅇㅅ	-11.844
해장국	-11.8444
잡히	-11.8446
▁동대문	-11.8447
강남역	-11.8448
▁멜	-11.8462
▁물어	-11.8463
▁손목	-11.8468
▁으흠	-11.8473
▁닥쳐	-11.8479
▁라네	-11.8483
쩌	-11.8485
혼	-11.849
빠	-11.8492
▁디지	-11.8499
콩깍지	-11.8501
▁노량진	-11.8505
▁그른	-11.8506
▁소녀	-11.8507
댕	-11.8507
▁한입	-11.851
▁현재	-11.8516
▁팍	-11.8518
세영	-11.852
아깐	-11.8521
▁읎	-11.8522
로또	-11.8524
▁텅	-11.8533
▁야아아	-11.854
▁엑스	-11.8545
▁빗	-11.855
마심	-11.855
학번	-11.855
또오	-11.8551
▁려다	-11.8551
▁바이	-11.8556
혜정	-11.8557
❤	-11.856
▁끝냈	-11.8562
▁심부름	-11.8567
▁투표	-11.8568
별	-11.8574
▁사업	-11.8578
▁할거	-11.8579
▁레벨	-11.8581
▁겅부	-11.8589
▁당해	-11.8592
▁바꾼	-11.8595
▁쉐	-11.8597
▁쳣다	-11.8599
간만에	-11.8604
▁확률	-11.8608
▁뺐	-11.8612
▁란다	-11.8612
ㅌㅋㅋㅋㅋㅋ	-11.8616
해성	-11.8619
▁츠	-11.862
▁영업	-11.8622
▁보냄	-11.8633
그딴	-11.864
갔	-11.8642
▁소심	-11.8646
▁러브	-11.8646
▁순서	-11.8652
취미	-11.8654
▁짴ㅋㅋㅋㅋㅋ	-11.8656
▁냐는	-11.8663
버려서	-11.8665
▁주먹	-11.8667
▁훔쳐	-11.867
▁갔다올	-11.8671
압	-11.8672
걸요	-11.8674
▁ㅏㄹ	-11.8674
오때	-11.868
▁배구	-11.8682
견	-11.8687
▁구멍	-11.8694
▁으셔	-11.8697
못생긴	-11.8697
▁치이	-11.8698
혜원	-11.8698
▁노예	-11.8712
▁언어	-11.8715
▁서용	-11.8717
▁닠ㅋㅋㅋㅋ	-11.8719
▁신랑	-11.8722
▁낰ㅋㅋ	-11.8723
숨기	-11.8725
▁퀴즈	-11.873
▁난데	-11.8732
▁폐	-11.8733
는대	-11.8733
다길래	-11.8734
▁보스	-11.8734
▁개그	-11.8734
엽	-11.8737
▁진상	-11.8738
▁취직	-11.8742
▁배운	-11.8748
▁놀려	-11.8749
데릴러	-11.875
▁약해	-11.8753
▁꿀꿀	-11.8755
▁딕	-11.8758
이라니	-11.8758
▁넼ㅋㅋㅋㅋ	-11.8759
▁잔인	-11.8759
▁대국	-11.876
▁괜	-11.8765
▁ㅠㅅㅠ	-11.8773
업체	-11.8776
▁알아볼	-11.8777
▁백만	-11.8778
▁한방	-11.8778
▁던져	-11.8779
레포트	-11.8786
▁주희	-11.8788
▁감독	-11.8791
극	-11.8797
▁앖	-11.8802
▁플러스	-11.8804
▁생명	-11.8804
▁조카	-11.8809
▁떠들	-11.8812
▁!??	-11.8812
▁해줌	-11.8816
▁활	-11.882
▁합정	-11.882
들어도	-11.8824
부대찌개	-11.8827
도저히	-11.883
▁삭	-11.883
팔찌	-11.8832
시다	-11.8833
그럼	-11.8841
떠서	-11.8851
▁쁜	-11.8852
▁덤	-11.8855
졍	-11.8862
▁누굴	-11.8863
닥	-11.8865
연차	-11.8868
▁서여	-11.8871
▁킁킁	-11.8872
▁괜찬아	-11.8873
▁에버랜드	-11.8874
▁여수	-11.8875
들어옴	-11.8877
쇼	-11.8877
▁봣지	-11.8882
캐리어	-11.8887
예비군	-11.8893
관심없	-11.8905
깸	-11.8907
▁십니까	-11.8909
▁캣	-11.8911
😉	-11.8912
줘야해	-11.8913
▁애앵	-11.8916
▁짘ㅋㅋㅋㅋ	-11.8917
망하	-11.892
▁멈	-11.8925
▁보일러	-11.8926
어후	-11.8931
준호	-11.8931
웃	-11.8934
꾸준히	-11.8935
투어	-11.8936
▁기말	-11.8942
▁파리	-11.8943
서울역	-11.8945
▁스톡	-11.8946
통하	-11.8951
하군	-11.8952
▁민기	-11.8952
▁폼	-11.8952
▁유나	-11.8961
▁내려와	-11.8976
요일	-11.8977
먼	-11.8979
▁킥	-11.8983
▁싸이	-11.8984
미세먼지	-11.899
▁봅시다	-11.8993
▁ㅇ아	-11.8993
▁향기	-11.8999
아닌디	-11.9001
달려가	-11.9002
▁비하	-11.9009
절레	-11.9009
맥날	-11.9014
▁야기	-11.9025
▁전달	-11.9026
▁~~??	-11.9028
따숩	-11.9029
연구실	-11.9029
▁둬야	-11.9033
i	-11.9041
엥	-11.9043
불금	-11.9051
▁주기	-11.9052
으며	-11.9059
래유	-11.9059
▁가져다	-11.9059
다공	-11.9061
장면	-11.9062
▁당첨	-11.9063
무음	-11.9064
▁니가	-11.9065
▁연말	-11.9067
종강	-11.9068
▁꿈꿨	-11.9072
난다고	-11.9074
▁챙겨야	-11.9078
▁뀨뀨	-11.9081
▁콤	-11.9091
▁찌이	-11.9093
버정	-11.9095
▁자궁	-11.9097
▁누군가	-11.9098
▁외출	-11.9099
다리	-11.9102
여전히	-11.9102
형아	-11.9105
녹차	-11.9105
▁아스	-11.9108
▁양보	-11.9108
놨는데	-11.911
▁공무원	-11.9111
떨리	-11.9114
았었	-11.9118
감자탕	-11.912
▁랰ㅋㅋㅋ	-11.9128
▁준다는	-11.9128
▁주로	-11.9129
▁힁	-11.9131
▁할려구	-11.9136
▁운명	-11.9136
▁젛아	-11.9139
황	-11.9143
욕	-11.9143
▁을려	-11.9145
수영장	-11.9147
▁상자	-11.9148
▁퉤	-11.9148
스파게티	-11.9152
▁반전	-11.9156
▁낚시	-11.9169
막창	-11.9174
▁연하	-11.918
▁와이	-11.9183
▁조심조심	-11.9184
무사히	-11.9185
지난번	-11.9187
e	-11.9187
▁깰	-11.9187
▁박사	-11.9188
퀴	-11.9188
▁씻겨	-11.9189
여보	-11.9189
▁오줌	-11.9189
매주	-11.9189
▁뎨	-11.9193
▁불가	-11.9195
▁편집	-11.9195
배고픈데	-11.9198
돈가스	-11.9198
▁최대	-11.9198
해줘도	-11.9201
마셔요	-11.9206
여권	-11.9209
▁지치	-11.9211
▁질려	-11.9213
▁미션	-11.9226
씨유	-11.9226
▁기념	-11.9232
▁봉가	-11.9235
▁원주	-11.9236
▁분당	-11.9237
ㄱㅋ	-11.9241
머리카락	-11.9244
▁에프	-11.9246
▁랐	-11.9247
▁햣	-11.9249
▁기술	-11.9249
곤	-11.925
구만	-11.9252
▁장갑	-11.9252
약하	-11.9257
집안일	-11.9262
던디	-11.9264
가슴살	-11.9264
버거킹	-11.9265
깨	-11.9266
해야죠	-11.9269
▁포항	-11.9274
▁뒤지	-11.9279
못함	-11.928
▁옶	-11.9284
▁적금	-11.9285
▁끔찍	-11.9286
릿	-11.9297
해염	-11.9298
이뻐요	-11.9302
▁의외	-11.9308
▁.♡	-11.9324
닌	-11.9326
!!!	-11.9329
▁된다구	-11.9329
▁시려	-11.9331
이짜	-11.9331
왕창	-11.9332
안감	-11.9334
사투리	-11.934
▁잡아먹	-11.9342
▁이쪽	-11.9343
하냥	-11.9345
나오늘	-11.9357
중국어	-11.9359
웃겼	-11.936
▁B	-11.9363
야앙	-11.9368
▁탄다	-11.9372
▁시야	-11.9373
▁다를	-11.9374
거봐	-11.9377
▁리스	-11.9382
▁메리	-11.9382
▁녓	-11.9382
수록	-11.939
망함	-11.9393
설빙	-11.9397
댱	-11.9399
▁펌	-11.9401
▁화학	-11.9402
확신	-11.9407
▁더러	-11.9414
▁싳	-11.9417
듀	-11.9417
▁;;;;;	-11.9421
▁말구	-11.9424
갈수록	-11.9426
쓰러지	-11.9429
▁대하	-11.9431
▁쥭	-11.9434
▁핥	-11.9439
이대로	-11.944
▁리아	-11.9445
버전	-11.9453
▁시크	-11.9459
담비	-11.9459
▁주방	-11.946
▁방문	-11.9461
▁족	-11.9463
막혀서	-11.9464
준이	-11.9464
▁쿡	-11.9464
▁다쳤	-11.9468
~~	-11.947
눈빛	-11.9482
▁욬ㅋㅋ	-11.9484
왔어요	-11.9484
으로	-11.9485
작가	-11.9486
킹	-11.9488
▁나드	-11.9495
▁볼라	-11.9498
▁옴마	-11.9499
▁썹	-11.9508
막판	-11.9509
▁마인드	-11.9514
려구	-11.9515
▁유치원	-11.9521
끊기	-11.9522
히익	-11.9523
▁탈락	-11.9527
썅	-11.9528
▁에너지	-11.9531
왔다갔다	-11.9536
▁허전	-11.9537
불럿	-11.9544
▁보리	-11.9547
까비	-11.9551
▁곤란	-11.9553
아가야	-11.9554
▁감겨	-11.9554
힌	-11.9556
▁무난	-11.9558
▁꼰	-11.9561
이씨	-11.9562
키보드	-11.9562
▁본데	-11.9572
▁탸	-11.9573
▁화해	-11.9575
▁편안	-11.9575
▁숙	-11.9578
헛소리	-11.9588
▁이응	-11.9589
▁징징	-11.959
▁하영	-11.9592
▁안다	-11.9597
초콜렛	-11.9599
▁사라져	-11.9601
▁파이	-11.9603
▁질리	-11.9604
▁담당	-11.9608
죽음	-11.9608
▁외워	-11.9609
▁워터	-11.9614
빨리빨리	-11.9615
*	-11.9616
▁민정	-11.9616
▁미칠	-11.9622
▁실화	-11.9624
▁잌ㅋㅋㅋㅋ	-11.9626
시절	-11.9628
▁오렌지	-11.9633
으라구	-11.9637
랏다	-11.9642
▁구자	-11.9643
계정	-11.9648
▁사냥	-11.9655
▁변경	-11.9655
시간	-11.9662
▁뜰	-11.9664
콘돔	-11.9664
삼계탕	-11.9665
▁불만	-11.9667
플	-11.9672
▁C	-11.9674
▁지렁	-11.9677
▁_?	-11.968
▁베이비	-11.968
▁중고	-11.9683
▁비용	-11.9683
▁붐	-11.9684
'	-11.9689
볼살	-11.9689
▁패션	-11.969
셈	-11.9694
▁주스	-11.9695
둔	-11.9697
▁취급	-11.9698
▁조개	-11.9698
▁평범	-11.97
▁오만	-11.9702
▁로그인	-11.9703
▁용인	-11.9707
▁꼬리	-11.9707
▁쏟	-11.9707
▁남치	-11.9708
▁캡	-11.9709
혔	-11.9709
려서	-11.9714
▁단거	-11.9718
▁대사	-11.9721
▁올리브	-11.9729
아랏	-11.9736
▁공대	-11.9736
▁찼	-11.9737
▁잌ㅋㅋ	-11.9737
다구	-11.9739
짱	-11.9741
▁투정	-11.9742
▁엘지	-11.9744
▁져야	-11.975
▁목도리	-11.9752
▁돌아와	-11.9761
보고	-11.9766
즤	-11.9766
▁꼬시	-11.9767
▁날까	-11.9767
▁러서	-11.9771
▁숨겨	-11.9773
▁느껴져	-11.9774
▁냨ㅋㅋㅋㅋㅋ	-11.9776
▁갈색	-11.978
▁하우스	-11.9782
련	-11.9782
▁고급	-11.9784
메르스	-11.9787
▁의정부	-11.9797
찰	-11.9797
▁\	-11.98
▁그래라	-11.9801
▁날리	-11.9804
▁반반	-11.9805
▁발랐	-11.9805
봉아	-11.9806
☜	-11.9807
▁카스	-11.981
▁파크	-11.9813
▁호구	-11.9818
채팅	-11.9822
웃겨서	-11.9827
▁호수	-11.9829
▁욬ㅋㅋㅋ	-11.984
▁하하하하	-11.9841
주인공	-11.9841
영이	-11.9841
▁는다구	-11.9842
▁ㅠㅍ	-11.9843
일안	-11.9844
▁흡입	-11.9845
▁걸린다	-11.9849
▁메인	-11.9851
▁변했	-11.9854
언젠간	-11.9855
▁골드	-11.9855
엽당	-11.9863
▁ㅘ	-11.9867
고마어	-11.9867
▁쥥	-11.9869
는디	-11.987
▁과정	-11.987
▁뱌	-11.9872
나타나	-11.9877
캐	-11.988
▁싸운	-11.9883
상대방	-11.9884
혜리	-11.9887
더라	-11.9888
맞	-11.989
▁수도	-11.9892
쳐먹	-11.9896
▁에헤	-11.9898
왕따	-11.9901
▁틀렸	-11.9901
▁캠	-11.9901
,	-11.9903
▁명절	-11.9903
😝	-11.9908
사이다	-11.9909
책	-11.9912
세탁기	-11.9915
이력서	-11.9919
휴일	-11.992
▁곸ㅋㅋㅋㅋ	-11.9921
▁용기	-11.9924
떨어져서	-11.9927
▁죽일	-11.9928
▁계곡	-11.993
▁급식	-11.9932
인분	-11.9932
개새끼	-11.9937
▁★	-11.9937
▁또르르	-11.9941
별명	-11.9947
▁쭈꾸미	-11.9959
▁줄라	-11.9964
▁구들	-11.9966
간다	-11.9967
놈	-11.997
디질	-11.9972
▁시방	-11.9973
▁보호	-11.998
▁마법	-11.9981
페메	-11.9983
와두	-11.9983
나도	-11.9985
▁월드	-11.9988
▁만날까	-11.9992
▁콘서트	-11.9995
▁스탈	-11.9997
▁하래	-11.9997
대따	-11.9999
▁한다면	-12.0001
자래	-12.0003
▁경제	-12.0014
해짐	-12.0016
용량	-12.0018
▁한창	-12.0018
▁뱉	-12.002
용용	-12.002
푸	-12.0023
▁그룹	-12.0024
▁ㅜㅋㅋ	-12.0024
▁d	-12.0031
▁이전	-12.0036
▁수면	-12.0036
▁립	-12.0039
▁커버	-12.0043
다닝	-12.0045
옷	-12.0045
▁찾아봐	-12.0049
▁태영	-12.0051
▁욕해	-12.0052
▁이여	-12.0054
지은이	-12.0055
▁'-'	-12.0056
▁일본어	-12.0057
감히	-12.0059
을라나	-12.0059
풀	-12.0063
▁긴팔	-12.0067
▁찌개	-12.0073
▁햤	-12.0077
▁섯	-12.0086
▁구파	-12.0087
▁뉭	-12.0087
주임	-12.0087
▁올지	-12.0088
사진	-12.0088
▁랰ㅋㅋ	-12.0091
▁발전	-12.0092
완전히	-12.0094
▁b	-12.0097
▁서울대	-12.0101
존잘	-12.0101
줘라	-12.0102
💛	-12.0103
▁어지럽	-12.0103
▁파트	-12.0108
육회	-12.0109
안녕히	-12.011
▁신혼	-12.0114
▁아점	-12.0119
▁맞췄	-12.0119
거용	-12.0121
▁^~^	-12.0122
휘	-12.0122
낫	-12.0125
▁고장	-12.0128
한쪽	-12.0129
▁갘ㅋㅋㅋㅋㅋ	-12.0131
▁촉	-12.0132
▁흔	-12.0132
▁민수	-12.0133
▁떨어질	-12.0133
▁노코	-12.0135
▁무서웠	-12.014
▁왕자	-12.0144
▁마르	-12.0145
▁에겐	-12.0147
▁쎈	-12.0149
났	-12.015
▁얘길	-12.0152
▁부네	-12.0156
▁쪘	-12.0166
충이	-12.0168
두유	-12.0171
▁심리	-12.0172
상민	-12.0175
▁럭	-12.0176
▁ㅇ이	-12.0176
놀	-12.0178
깅이	-12.0179
으유	-12.018
▁돔	-12.0181
▁낰ㅋㅋㅋㅋ	-12.0181
▁하네	-12.0186
▁방기	-12.0186
▁강사	-12.0187
▁인원	-12.0188
▁라나	-12.0195
짜파게티	-12.0196
▁분석	-12.0197
에유	-12.0199
좆같	-12.0202
▁골목	-12.0213
▁만만	-12.0214
갈껄	-12.0215
라매	-12.0215
쿠만	-12.0217
딱	-12.0217
혈	-12.0219
꼬미	-12.0227
▁ㅛ다	-12.023
▁쓴다	-12.0231
▁ㅡㄴ	-12.0233
▁브이	-12.0234
해야겠다	-12.0234
근데	-12.0235
셨	-12.0235
▁얔ㅋ	-12.0237
▁기구	-12.0239
???	-12.0241
▁샛	-12.0257
▁시루	-12.0258
▁러시	-12.026
아이유	-12.0267
우체국	-12.0271
▁개발	-12.0273
▁뛰어가	-12.0274
▁하하하하하	-12.0275
▁~_~	-12.028
@	-12.0284
▁딧어	-12.0287
라길래	-12.0287
으려면	-12.0292
▁소라	-12.0294
모마	-12.0295
▁노원	-12.0305
▁시끄러	-12.0308
아아아	-12.0313
잘려고	-12.0316
▁냅	-12.0317
▁바버	-12.0317
▁논다	-12.0319
;	-12.0319
▁마디	-12.032
당구장	-12.0323
▁신다고	-12.0327
▁조치	-12.0335
샤	-12.0336
전기장판	-12.0336
▁내면	-12.0337
▁일러	-12.0346
▁기다린	-12.0349
럼	-12.0351
▁햌ㅋㅋㅋ	-12.0351
▁실타	-12.0354
▁짜르	-12.0355
▁애슐리	-12.0358
▁나시	-12.0363
오구구	-12.0363
▁중도	-12.0368
▁꾸리	-12.0368
앍	-12.0369
▁필름	-12.0369
▁바디	-12.0371
▁치치	-12.0373
액정	-12.0376
▁시리	-12.0378
땅	-12.0379
이라	-12.038
튼	-12.0381
▁랔ㅋㅋㅋㅋㅋ	-12.0384
특강	-12.0385
▁윤지	-12.0386
대놓고	-12.039
▁들렀	-12.0395
▁담임	-12.0399
눈데	-12.04
▁닉	-12.0407
▁부서	-12.0409
▁내손	-12.0412
▁맥도날드	-12.0413
▁진짠	-12.0417
▁지쳐	-12.0417
▁띄	-12.0418
🤗	-12.0418
무룩	-12.0419
▁빼빼	-12.0421
▁분노	-12.0423
▁봤었	-12.0424
▁정은	-12.0425
▁링크	-12.0425
▁뤠	-12.0427
▁금액	-12.043
▁도리	-12.043
▁천둥	-12.0431
▁밀려	-12.0433
쌀국수	-12.0434
틀	-12.0437
칼로리	-12.0437
▁질러	-12.0437
▁사양	-12.0442
▁버릇	-12.0444
퍼서	-12.0451
옴	-12.0452
라구요	-12.0454
▁이왕	-12.0459
▁다기	-12.046
▁내린다	-12.0466
놀러가	-12.047
▁그러나	-12.0472
갑	-12.0472
▁소소	-12.0473
▁우에	-12.0474
▁랗	-12.0474
▁몬데	-12.0477
분후	-12.0486
소세지	-12.0489
▁레몬	-12.0493
▁폭탄	-12.0495
냅두	-12.0495
안왕	-12.0499
▁반납	-12.0503
▁날려	-12.0504
▁부당	-12.0506
해요	-12.0507
▁변명	-12.0509
식욕	-12.0511
▁김포	-12.0514
▁사갈	-12.0516
▁어리	-12.0518
라구	-12.0519
리스트	-12.0523
▁피티	-12.0523
▁식이	-12.0524
저녁때	-12.0525
▁폈	-12.0527
▁대여	-12.0527
▁유후	-12.0528
▁계신	-12.053
▁슥	-12.0533
▁겝	-12.0537
▁점호	-12.0538
므	-12.0538
▁수목	-12.0539
슬리퍼	-12.0539
▁댘ㅋㅋㅋㅋㅋ	-12.0539
차타	-12.0544
👀	-12.0545
▁겁니다	-12.0545
▁레드	-12.0547
▁윗	-12.0549
▁심했	-12.0553
▁섴ㅋㅋㅋ	-12.0562
▁됏어	-12.0569
▁어렸	-12.057
▁뀽	-12.057
▁두둥	-12.0572
▁꼐	-12.0573
▁두세	-12.0575
▁백수	-12.0578
▁사귈	-12.0582
스타킹	-12.0584
▁픽	-12.0585
왔음	-12.0585
▁쓸데없	-12.0587
▁가라	-12.0592
▁시급	-12.0593
니까요	-12.0596
▁예스	-12.0596
아아악	-12.0598
능자	-12.0599
a	-12.0599
̎	-12.06
▁버린다	-12.0603
다녀서	-12.0608
다는데	-12.0612
▁~~♡♡	-12.0612
점검	-12.0615
보러	-12.0619
▁깟	-12.0619
▁가라앉	-12.0621
▁못할	-12.0621
▁웩	-12.0622
▁교정	-12.0626
껏	-12.0628
▁열려	-12.0629
▁바쁜데	-12.0632
악몽	-12.0634
▁미술	-12.0643
▁보여준	-12.0645
💙	-12.0645
잠잘	-12.0646
아영	-12.0646
단호박	-12.0646
▁치고	-12.0651
▁엎드려	-12.0651
장학금	-12.0654
정식	-12.0654
귀여웠	-12.0656
▁ㅛㅓ	-12.0657
와영	-12.0657
▁까불	-12.0659
▁갤	-12.066
▁속상	-12.0662
u	-12.0663
날래	-12.0663
민폐	-12.0669
▁창원	-12.067
알아듣	-12.0676
!!!!!	-12.0678
▁그니	-12.0684
▁약한	-12.0685
▁매점	-12.0686
▁스포	-12.0686
▁종합	-12.0687
▁안산	-12.0688
시킴	-12.0689
▁강하	-12.0689
먹방	-12.0691
미친년	-12.0693
나와요	-12.0695
맥	-12.0698
한심	-12.0699
▁선임	-12.0701
핫도그	-12.0701
▁소희	-12.0703
착	-12.0705
▁늑대	-12.0707
들으니까	-12.0713
▁봉지	-12.0714
▁초기	-12.0715
▁배드민턴	-12.0715
▁들어	-12.0716
▁정훈	-12.0716
▁우니	-12.0718
▁파토	-12.0718
▁해줘야	-12.072
▁회원	-12.0722
간다며	-12.0724
짓	-12.0726
후문	-12.0727
▁솔로	-12.073
였으면	-12.073
센치	-12.0731
▁통해	-12.0732
▁이상해	-12.0735
▁몫	-12.0737
왜에	-12.074
프렌즈	-12.0741
세끼	-12.0741
▁노랑	-12.0742
▁쌌	-12.0744
통과	-12.0748
▁으리	-12.0749
▁작성	-12.0749
▁눙데	-12.075
▁브랜드	-12.0754
▁투자	-12.0759
▁대장	-12.0763
▁버섯	-12.0765
▁자습	-12.0767
갓	-12.0771
▁타구	-12.0772
▁열정	-12.0773
▁쉰다	-12.0775
다녀와서	-12.0778
▁화이트	-12.0782
▁단순	-12.0782
밀당	-12.0784
다냐	-12.0785
▁도장	-12.0789
▁돌아왔	-12.079
▁사도	-12.0795
▁ㅓㅓ	-12.0799
▁꽈	-12.0801
러면	-12.0801
런가	-12.0803
▁땜시	-12.0803
▁봣엉	-12.0809
열씨	-12.0813
▁혜화	-12.0819
😮	-12.082
▁큭	-12.0821
▁어울릴	-12.0827
▁찻	-12.0832
▁자영	-12.0837
▁해봄	-12.0844
클	-12.0848
▁떨어진	-12.0851
너무나	-12.0851
▁춰	-12.0855
타요	-12.0861
▁구석	-12.0863
땀나	-12.0866
은데요	-12.0868
으쌰	-12.0868
▁시집	-12.0871
😡	-12.0872
▁멜론	-12.0875
닭강정	-12.0877
▁진도	-12.088
토일	-12.0884
장난친	-12.0889
▁터로	-12.0893
▁흘	-12.0899
▁구르	-12.0903
??	-12.0903
▁순천	-12.0906
▁괜차나요	-12.0907
▁조차	-12.0908
😥	-12.0909
▁그루	-12.091
승현	-12.091
럴	-12.0919
▁셍	-12.0923
▁가진	-12.0925
▁다오	-12.0927
▁오메	-12.0929
▁한식	-12.0929
▁펀	-12.0933
▁@@	-12.0934
▁을려구	-12.0939
할꾸	-12.0944
▁좌	-12.0946
▁섴ㅋㅋ	-12.0947
▁겪	-12.0948
▁목적	-12.0951
▁아리	-12.0953
▁운동장	-12.0955
▁젠	-12.0959
▁여드름	-12.0959
▁드렁	-12.096
▁민규	-12.0961
보영	-12.0964
▁둥둥	-12.0965
▁썻어	-12.0965
널널	-12.0965
간호사	-12.0969
▁어떨	-12.097
▁말라	-12.097
그냥	-12.0972
▁굥이	-12.0976
▁안구	-12.0976
l	-12.0984
ㄱㄱ	-12.0987
▁제육	-12.0988
나아	-12.0989
▁레이	-12.0989
▁마마	-12.099
▁예림	-12.0994
ㅓㅆ	-12.0996
데이	-12.0998
▁리리	-12.1
조림	-12.1002
조퇴	-12.1003
시차	-12.1006
▁구청	-12.1006
쪙	-12.1007
존예	-12.1008
줄라고	-12.1008
밀	-12.1012
▁열쇠	-12.1013
싸가지	-12.1013
▁설계	-12.1015
민디	-12.1017
마주치	-12.1019
▁.^^	-12.1019
쿠우	-12.102
포즈	-12.1022
뜨	-12.1023
들으러	-12.1024
▁표시	-12.1025
청소기	-12.1028
m	-12.103
영원히	-12.1031
티나	-12.1034
후하	-12.1034
▁자동차	-12.1034
▁낙지	-12.1035
봐두	-12.1043
▁빨개	-12.1046
▁헤어져	-12.1049
눈앞	-12.1058
▁이분	-12.1059
▁땃	-12.1062
시벌	-12.1064
가눈	-12.1065
▁날씬	-12.1067
▁주히	-12.1082
▁하드	-12.1086
김치볶음밥	-12.1092
이징	-12.1095
▁베개	-12.1097
샴푸	-12.11
세미나	-12.1101
▁쌋	-12.1101
달라서	-12.1113
▁🙆	-12.1115
떡	-12.1115
끄	-12.1117
▁-!	-12.1118
g	-12.1127
▁옥수수	-12.113
▁은혜	-12.1131
갈꼬	-12.1134
▁라지	-12.1135
빕스	-12.1139
히힝	-12.1139
▁고미	-12.1141
춘	-12.1141
하하하하하하	-12.1143
마카롱	-12.115
▁신도림	-12.1153
페	-12.1157
폐인	-12.1159
▁바른	-12.117
▁평택	-12.1176
습	-12.1179
해소	-12.1181
다양	-12.1181
▁물고기	-12.1181
^^	-12.1183
올께요	-12.1189
▁국제	-12.1189
▁가평	-12.1194
깽이	-12.1201
▁그럴듯	-12.1207
태리	-12.1213
▁뺨	-12.1214
▁ㅜㅇ	-12.1221
조별	-12.1222
▁홍보	-12.1226
▁하여튼	-12.123
▁꼬꼬	-12.1233
누울	-12.1234
▁량	-12.1236
온다구	-12.1236
▁무대	-12.1237
기다려요	-12.1238
▁디비	-12.1243
▁뵙	-12.125
▁오마	-12.1251
배거	-12.1254
왓	-12.1256
▁따와	-12.1259
쪼매	-12.1263
묘	-12.1264
▁마른	-12.1264
▁지나갔	-12.127
▁주세	-12.1271
▁~♡♡	-12.1271
▁찌질	-12.1271
▁쥬스	-12.1272
눌렀	-12.1273
많	-12.128
▁반말	-12.1283
▁창고	-12.1287
샤브샤브	-12.1287
▁아이디어	-12.1287
앙해	-12.1288
▁쑥	-12.13
껨	-12.1302
▁파랑	-12.1303
▁재수	-12.1306
▁연인	-12.1306
▁넘겨	-12.1307
▁기요	-12.1307
▁등장	-12.1308
▁라따	-12.1308
▁마취	-12.1311
늘어나	-12.1311
▁진실	-12.1313
▁제자	-12.1315
는지	-12.1317
▁한복	-12.1317
것어	-12.1319
▁미정	-12.1324
▁왬	-12.1324
▁강원도	-12.1324
잘려구	-12.1328
▁번개	-12.1329
▁한계	-12.1335
▁의원	-12.1336
▁유행	-12.1337
▁벤	-12.1339
먹눈	-12.1342
▁나대	-12.1351
▁톤	-12.1352
▁야야야	-12.1352
▁들릴	-12.1353
잘랐	-12.1353
▁이수	-12.1353
▁랰ㅋㅋㅋㅋ	-12.1353
▁초록	-12.1354
>	-12.1354
▁봣자	-12.1355
▁본사	-12.136
▁비꼬	-12.1367
▁꺄륵	-12.137
▁들어간다	-12.137
비빔면	-12.1372
/	-12.1373
목걸이	-12.1375
▁혓	-12.1376
▁까꿍	-12.1379
▁맡겨	-12.1383
▁즐겨	-12.1384
▁라이언	-12.1386
▁g	-12.1387
▁팍팍	-12.1398
오오오옹	-12.1398
▁상한	-12.1398
그녀	-12.1399
기달리	-12.1399
스킬	-12.14
▁기자	-12.1401
▁안기	-12.1401
▁뿌려	-12.1403
끝남	-12.1403
온지	-12.1404
▁갈고	-12.141
▁오름	-12.141
▁버튼	-12.1411
복습	-12.1411
자켓	-12.1413
▁보도	-12.1417
▁해운대	-12.1419
▁핰	-12.1422
▁남산	-12.1422
▁퍼센트	-12.1428
숙취	-12.1432
모여서	-12.1433
차안	-12.1434
상메	-12.1436
쪄서	-12.1437
단비	-12.1438
▁해준다	-12.1442
▁녱	-12.1447
▁주민	-12.145
▁비웃	-12.1453
▁ㅇ응	-12.1454
사놓	-12.1454
짱구	-12.146
▁고칠	-12.1461
▁발음	-12.1461
▁거마	-12.1462
겠	-12.1465
▁주글	-12.1465
후식	-12.1466
▁정성	-12.1466
릉	-12.1469
▁힉	-12.1472
오래오래	-12.1474
졸림	-12.1477
▁근로	-12.1481
긋	-12.1488
▁매직	-12.1489
곰돌이	-12.149
▁온천	-12.1491
▁소맥	-12.1493
♥♥	-12.1495
예뻐서	-12.1501
▁쓰여	-12.1503
▁이공	-12.1506
몰	-12.1507
▁ㅢ	-12.1512
▁껑	-12.1514
▁월화	-12.1518
닥치	-12.1519
▁상품	-12.1527
▁사항	-12.1528
▁켘	-12.1528
적극	-12.1529
론가	-12.1529
▁겔	-12.1529
▁꼬마	-12.153
려는데	-12.1544
▁빡빡	-12.1546
▁슌	-12.1549
▁인도	-12.1552
넘어지	-12.1553
출첵	-12.1553
▁@.@	-12.1555
▁협박	-12.1559
참내	-12.1561
▁뀨우	-12.1562
▁우엉	-12.1562
▁스키	-12.1565
▁그름	-12.1568
▁선미	-12.1568
▁미드	-12.1572
된장찌개	-12.1575
▁당한	-12.1576
▁항공	-12.1577
▁살래	-12.1577
▁디마	-12.1578
검	-12.1583
▁유일	-12.1585
▁대비	-12.1586
잫	-12.1587
▁소장	-12.1587
▁멀티	-12.1589
▁뜨겁	-12.159
▁서경	-12.1594
▁조합	-12.1596
▁상해	-12.1597
▁증거	-12.1599
▁파주	-12.1599
▁현주	-12.16
▁뫄	-12.16
▁보미	-12.16
혜린	-12.1602
솔	-12.1605
렌	-12.1606
▁내구	-12.1607
쪽	-12.161
▁가디	-12.161
자취방	-12.162
하면	-12.1622
▁국민	-12.1624
빨리	-12.1627
다녀야지	-12.1627
▁스무	-12.163
▁학회	-12.1632
▁상했	-12.1633
▁비중	-12.1635
▁가수	-12.1635
▁송도	-12.1635
▁원하	-12.1636
햐	-12.1641
보여요	-12.1641
▁뭣	-12.1641
▁함정	-12.1645
▁상쾌	-12.1646
▁빚	-12.1646
▁제우	-12.1648
▁젛	-12.1654
▁느낄	-12.1655
▁앎	-12.1658
▁맞출	-12.1658
얌전히	-12.1659
엇거든	-12.1659
물어봐서	-12.1661
▁놓쳤	-12.1664
복근	-12.1665
▁옄ㅋㅋㅋㅋㅋ	-12.1666
▁남녀	-12.1669
팁	-12.1673
▁오야	-12.1679
▁형제	-12.1679
▁아디	-12.1681
둘	-12.1683
▁곁	-12.1684
▁경영	-12.169
▁움직여	-12.1693
▁은대	-12.1695
▁믕	-12.1698
▁범계	-12.1699
에서	-12.1699
▁실까	-12.17
▁덧	-12.17
뮨	-12.1701
그럴께	-12.1705
아앙	-12.1706
▁오와	-12.1708
귀염둥이	-12.1708
육	-12.1712
▁구름	-12.1714
▁폴	-12.1717
랴고	-12.172
▁격	-12.1725
▁나이트	-12.1726
돌이	-12.1727
▁려던	-12.1729
▁대만	-12.173
▁드라이	-12.1733
문제지	-12.1735
▁븅	-12.1736
어서	-12.1736
▁멤버	-12.1739
▁제품	-12.1741
▁환경	-12.1743
기양	-12.1744
▁스물	-12.1745
▁구랑	-12.1746
▁햌ㅋㅋ	-12.1747
▁세차	-12.1752
을꼬	-12.1753
▁손해	-12.1754
애요	-12.1755
파악	-12.176
▁아두	-12.177
대학생	-12.1773
▁천만	-12.1774
▁모자라	-12.1774
▁어영	-12.1774
▁배아	-12.1776
▁기요미	-12.1777
▁떽	-12.1785
한동안	-12.1786
▁여쭤	-12.1791
▁니이	-12.1793
▁영주	-12.1794
쳐도	-12.1797
▁ㅜㅋ	-12.1797
▁한건	-12.1801
▁토론	-12.1802
▁복지	-12.1803
쏘리	-12.1803
떡국	-12.1803
▁쪗	-12.1805
모닝콜	-12.1805
▁고파서	-12.1806
▁줫는데	-12.1811
▁매트	-12.1811
▁비벼	-12.1813
▁온다는	-12.1818
▁드셔	-12.1819
▁사망	-12.1819
▁돌아	-12.182
▁유디	-12.1826
▁소금	-12.1826
▁광화문	-12.1826
투썸	-12.1827
▁딤	-12.1828
바꿔서	-12.1831
득	-12.1832
▁딱지	-12.1832
▁건전	-12.1834
▁비행	-12.1836
럭	-12.1837
웬일	-12.1838
나아지	-12.1839
볼려고	-12.1839
부터	-12.1845
술자리	-12.1846
새끼야	-12.1847
▁노곤	-12.1852
입력	-12.1853
▁앰	-12.1855
▁뺀	-12.186
▁홋	-12.1863
졸업식	-12.1865
사소	-12.1867
▁쮸쮸	-12.1868
해줘서	-12.1873
▁기르	-12.1873
▁고마운	-12.1877
▁멍멍	-12.188
h	-12.1882
빛	-12.1882
다니	-12.1884
▁인자	-12.1887
▁어째서	-12.1889
▁왁	-12.1893
▁말랐	-12.1897
아구래	-12.1897
츄리닝	-12.1899
▁선선	-12.1903
▁적절	-12.1903
▁여대	-12.1908
▁흐르	-12.1908
냄새나	-12.1909
p	-12.1912
가서	-12.1918
모의고사	-12.1918
▁체험	-12.1918
▁좋아할	-12.192
만점	-12.1922
🏻	-12.193
▁지훈	-12.193
▁가위	-12.1938
▁민트	-12.1939
▁뮬	-12.1941
▁ㅔㅔ	-12.1946
블	-12.1946
▁수련	-12.1952
▁청년	-12.1952
그쯤	-12.1952
위주	-12.1953
▁갇	-12.1953
자신감	-12.1956
▁쉬워	-12.1958
▁영향	-12.1958
드럽	-12.196
러서	-12.1961
▁경쟁	-12.1966
▁도림	-12.1969
스타	-12.1969
엘	-12.1977
▁덩어리	-12.1978
▁느라고	-12.1979
▁들켰	-12.198
마음대로	-12.1982
수영복	-12.1983
▁입니까	-12.1984
▁디스	-12.1985
지머	-12.1986
....	-12.1989
라꼬	-12.1995
장실	-12.1997
▁옥상	-12.1998
▁시네	-12.1998
▁마스터	-12.2
팔	-12.2
▁기네	-12.2
▁ㅡㅠ	-12.2005
▁회계	-12.2005
▁꼬집	-12.2008
ㄷㅊ	-12.2011
악마	-12.2012
▁꼈	-12.2012
▁보수	-12.2014
짜식	-12.2014
▁아닌지	-12.2016
라셔	-12.202
▁세워	-12.202
▁마우스	-12.2022
▁지울	-12.2022
▁퇴사	-12.2023
▁검진	-12.2024
▁.♥	-12.2034
나바	-12.2036
▁녁	-12.2042
뮤지컬	-12.2043
꺼졌	-12.2043
ㅌㅋㅋ	-12.2045
할래요	-12.2046
▁가루	-12.2047
▁노무	-12.2049
패턴	-12.205
▁쁠	-12.2053
밀가루	-12.2056
은데	-12.2058
▁ㅓㄹ	-12.2058
▁뿅뿅	-12.2059
▁안겨	-12.2059
▁정지	-12.2061
체하	-12.2067
▁이루	-12.2068
▁로운	-12.2071
쿠팡	-12.2078
▁라아	-12.2078
▁경대	-12.2078
▁놀릴	-12.2079
오토바이	-12.2082
▁탠	-12.2084
▁정화	-12.2087
▁호호호	-12.2089
▁강한	-12.2089
▁존중	-12.2089
▁구글	-12.209
▁장미	-12.2092
멍멍이	-12.2093
홍홍	-12.2095
▁보강	-12.2096
배탈	-12.2098
▁얔	-12.2101
▁새기	-12.2101
▁쌩쌩	-12.2104
▁먕	-12.2105
틈틈히	-12.2114
▁음란	-12.2116
▁..!!!	-12.2118
▁멈추	-12.2121
액	-12.2121
될까요	-12.2122
발급	-12.2128
어야	-12.2129
▁예술	-12.2129
▁대상	-12.2134
별말	-12.2137
▁배울	-12.2137
▁개미	-12.2145
으윽	-12.2146
똥	-12.2148
▁찝	-12.2152
셔도	-12.2158
▁약사	-12.2164
▁련	-12.2166
날아가	-12.2174
▁한다니까	-12.2175
입음	-12.218
▁띡	-12.2181
▁뻐근	-12.2184
▁사와	-12.2184
경아	-12.2185
고파요	-12.2188
▁세우	-12.219
혜림	-12.2197
▁자존	-12.2197
▁제대	-12.2198
▁마아	-12.2201
ㅂㅇ	-12.2204
▁증상	-12.2208
▁막말	-12.2209
▁실기	-12.2212
몇일	-12.2213
▁됌	-12.2215
▁까만	-12.2215
?????	-12.2216
▁얼만큼	-12.2217
▁지리	-12.2224
▁얼만데	-12.2236
렬	-12.2236
▁줍	-12.2239
▁렌트	-12.2241
▁무거운	-12.2243
▁샥	-12.2243
제정신	-12.2244
▁난중	-12.2247
▁카트	-12.2251
받	-12.2251
▁안내	-12.2254
▁민서	-12.2255
우아아아	-12.2265
오빠생각	-12.2265
갗	-12.2268
▁예진	-12.2272
▁요런	-12.2272
▁풀릴	-12.2273
▁~❤	-12.2274
▁버릴까	-12.2279
▁안타	-12.2279
v	-12.2282
▁렙	-12.2283
▁역할	-12.2285
을때	-12.2285
▁밀린	-12.2287
▁벗어나	-12.2291
래도	-12.2296
맴매	-12.2299
삭	-12.2301
소리지르	-12.2303
▁미얀	-12.2312
▁쩨	-12.2314
▁~~!!!	-12.232
겟다	-12.2323
▁두꺼운	-12.2334
써먹	-12.2339
여오	-12.234
▁수염	-12.234
▁헿헤	-12.2344
▁냣	-12.2347
지겹	-12.2349
▁만보	-12.235
오버워치	-12.235
아주머니	-12.2351
▁망치	-12.2354
하품	-12.2355
▁다닌	-12.2355
▁울려	-12.2355
▁다더니	-12.2358
▁풀린	-12.2361
▁그러다	-12.2362
▁주간	-12.2365
탱이	-12.2366
아울렛	-12.2367
▁봐줄	-12.2369
유투	-12.2371
미워하	-12.2372
이다	-12.2372
▁강요	-12.2373
▁드나	-12.2373
k	-12.2374
▁콕	-12.2375
▁뻔해	-12.2377
▁걸어야	-12.2378
▁댑	-12.2379
거려서	-12.2383
주먹밥	-12.2385
y	-12.2385
▁하악	-12.2387
▁찰	-12.2387
▁논리	-12.2388
이불속	-12.239
😌	-12.239
뜬금없이	-12.2396
보내	-12.2397
▁인식	-12.2398
▁쳐야	-12.2405
▁구분	-12.2405
두우	-12.2407
이업	-12.2408
와서	-12.2409
▁가져갔	-12.2414
구거	-12.2416
그새	-12.2417
승질	-12.2424
▁뎈ㅋ	-12.2428
▁머니	-12.2428
▁T	-12.2428
▁은영	-12.2429
▁랬는	-12.2432
▁유치	-12.2432
▁베이	-12.2433
▁대학원	-12.2434
▁깨울	-12.2434
V	-12.2437
켜	-12.2441
▁코야	-12.2442
▁와구	-12.2442
이걸로	-12.2444
억	-12.2445
슬픔	-12.2447
▁거트	-12.2449
▁다친	-12.2449
▁ㅝ	-12.2455
범위	-12.246
라멘	-12.2461
▁눠	-12.2462
힐	-12.2463
틴	-12.2464
▁꾜	-12.2464
▁넘어갈	-12.2468
▁기염	-12.247
▁갬	-12.2471
▁간호	-12.2473
절반	-12.2476
▁땽	-12.2479
▁갈구	-12.2479
▁다던	-12.249
▁성남	-12.2492
▁후니	-12.2495
▁도라	-12.2495
▁릅	-12.2496
▁고로	-12.2499
▁시티	-12.25
▁내놓	-12.2501
▁공룡	-12.2507
하셈	-12.2508
이드	-12.251
▁경기도	-12.2514
▁인연	-12.2514
▁보건	-12.252
및	-12.2521
r	-12.2523
▁마루	-12.2528
▁심술	-12.2528
에라이	-12.2529
▁거북	-12.253
▁.;;	-12.2532
재원	-12.2541
몬	-12.2544
▁독일	-12.2546
섭	-12.2548
스타벅스	-12.2548
▁변화	-12.255
▁깨지	-12.2551
▁짘ㅋ	-12.2552
▁ㅓㅅ	-12.2555
▁지윤	-12.2557
▁기어	-12.2561
▁라요	-12.2562
렀	-12.2563
홈페이지	-12.2563
▁읕	-12.2567
▁사전	-12.2569
▁언재	-12.2572
▁지진	-12.2573
▁교통	-12.2573
▁조기	-12.2573
맣	-12.2581
슴	-12.2582
함부로	-12.2582
▁얘긴	-12.2582
물어봄	-12.2582
▁영광	-12.2584
할꼬	-12.2587
뿐이	-12.2588
▁얹	-12.2591
▁자시	-12.2603
▁접속	-12.2603
오랫만	-12.2604
▁만난다	-12.2605
▁메이	-12.2606
▁망한	-12.2606
▁쇠	-12.2606
▁라우	-12.2608
존	-12.2609
▁놋	-12.261
섹시해	-12.261
▁..♡	-12.261
인척	-12.2612
다뇨	-12.2614
!!!!	-12.262
▁내자	-12.2624
조음	-12.2627
따라서	-12.2629
▁봅니다	-12.263
▁대영	-12.2631
아침밥	-12.2634
터져서	-12.2637
▁마라	-12.2638
엽사	-12.2639
귀여울	-12.2642
▁한게	-12.2643
줄께요	-12.2649
화난다	-12.2654
▁영하	-12.2657
달라지	-12.2658
▁장염	-12.2659
▁성형	-12.2662
프로젝트	-12.2664
유빈	-12.2669
▁드릴게	-12.2669
▁플레이	-12.267
▁마이크	-12.2671
▁영지	-12.2674
기냥	-12.2684
▁헤어진	-12.2687
▁^^*	-12.2689
▁생각난	-12.269
▁첫째	-12.2692
식빵	-12.2693
요정	-12.2695
감기약	-12.2695
▁생각난다	-12.2695
▁옛	-12.2696
저렴	-12.2701
▁코엑스	-12.2702
보고서	-12.2707
벌리	-12.2712
▁지킬	-12.2716
▁읔	-12.2716
▁구조	-12.2718
▁...!	-12.272
▁알려준	-12.2726
▁럇	-12.2728
▁마안	-12.2729
찬물	-12.2732
붜	-12.2733
▁옵니다	-12.2733
▁매너	-12.2735
재수없	-12.2735
▁정산	-12.2736
▁강화	-12.2737
▁이슬	-12.2738
르르	-12.2738
거애	-12.2739
▁기용	-12.2739
홈플러스	-12.274
▁진수	-12.2741
▁정자	-12.2742
▁양재	-12.2743
▁꽁꽁	-12.2747
▁전환	-12.2763
▁세대	-12.2765
▁키울	-12.2766
▁안방	-12.2766
탁	-12.2766
꼬맹이	-12.2769
▁나아졌	-12.2769
▁미뤄	-12.2769
본능	-12.2772
▁욬ㅋㅋㅋㅋ	-12.2773
▁걸음	-12.2775
육개장	-12.2778
▁주물러	-12.2792
▁쓸쓸	-12.2792
▁마주	-12.2793
올라와서	-12.2798
▁사가	-12.28
▁날개	-12.2804
여서	-12.2806
▁강변	-12.2808
렉	-12.2808
▁오류	-12.2811
뿌	-12.2815
▁이히히	-12.2815
려고요	-12.2817
▁핼	-12.2818
▁설득	-12.2823
불러야	-12.2828
던데	-12.283
▁거제	-12.283
을께요	-12.2835
언제	-12.2835
오세용	-12.2837
▁호에	-12.284
▁해줄까	-12.2841
기억력	-12.2841
▁통신	-12.2846
▁다쳐	-12.2851
▁속초	-12.2857
▁평화	-12.286
▁데려	-12.2863
한편	-12.2866
▁정현	-12.2868
잉가	-12.2868
▁보정	-12.2873
각오	-12.2873
▁머구	-12.2876
커지	-12.2876
안쪽	-12.2876
▁깨달	-12.2883
▁민경	-12.2891
▁주가	-12.2893
갑시다	-12.2899
세금	-12.29
말해줘	-12.2901
▁서버	-12.2903
▁지점	-12.2904
이구	-12.2905
▁괴롭혀	-12.2906
푸욱	-12.2911
▁넉	-12.2916
▁연봉	-12.2917
▁주미	-12.2921
구나아	-12.2922
▁고용	-12.2925
▁땟	-12.2929
▁👏	-12.2929
▁터진	-12.293
▁영아	-12.2931
▁통닭	-12.2932
후후후	-12.2934
▁겹치	-12.2935
▁피파	-12.2935
▁나른	-12.2936
▁호감	-12.2939
도랏	-12.294
▁냅둬	-12.294
▁보관	-12.2941
▁전국	-12.2943
▁ㅔㅎ	-12.2945
▁막힐	-12.2945
포차	-12.2948
▁마크	-12.2951
▁교사	-12.2952
▁여고	-12.2952
▁공차	-12.2953
▁길거리	-12.2959
녘	-12.296
💚	-12.296
▁조회	-12.2961
쭘	-12.2963
뉴뉴	-12.2966
가자	-12.2966
▁숙박	-12.2967
▁양식	-12.2967
은근히	-12.2968
▁어딘가	-12.2969
▁텐트	-12.2973
▁나부	-12.2974
▁한자	-12.2975
율	-12.2975
뎌	-12.2977
념	-12.2978
▁자매	-12.298
한데	-12.2983
ᆢ	-12.2983
헷갈리	-12.2984
▁사상	-12.2987
상남자	-12.2989
으으음	-12.2992
▁원해	-12.2998
▁랜드	-12.3001
만두	-12.3002
▁느니	-12.3007
▁한다니	-12.3009
▁누군	-12.3009
목사	-12.3013
▁메모	-12.3013
다님	-12.3013
▁장비	-12.3015
달링	-12.3015
진다고	-12.3016
▁실제	-12.3018
역가	-12.3019
▁떤	-12.3027
지하철역	-12.3027
▁낭비	-12.303
😣	-12.3031
▁지선	-12.3033
▁무이	-12.3033
하눈	-12.3035
▁손발	-12.3039
▁끌려	-12.3043
중간고사	-12.3045
자는데	-12.3046
갸	-12.3048
▁아네	-12.305
▁가르치	-12.3052
옆집	-12.3055
▁실가	-12.3055
외근	-12.3055
😤	-12.3055
지만	-12.3056
▁..???	-12.3057
방식	-12.306
▁봉구	-12.3061
어야죠	-12.3064
▁챡	-12.3064
해야겠네	-12.3064
▁영국	-12.3066
▁겠지	-12.3068
돗자리	-12.307
▁서점	-12.307
더러운	-12.3072
빠샤	-12.3073
댓다	-12.3074
클라스	-12.3075
▁인감	-12.3077
▁줄여	-12.3079
▁졋네	-12.3083
큰일날	-12.3084
▁거니	-12.3087
▁삥	-12.3088
▁ㅙ	-12.3088
▁선재	-12.3088
이뻐라	-12.309
와이프	-12.309
친추	-12.309
세유	-12.3091
스터	-12.3096
▁내려왔	-12.3097
▁자꼬	-12.3098
▁해방	-12.3103
▁깽	-12.3106
다이어리	-12.3107
발톱	-12.3112
▁기한	-12.3112
이크	-12.3115
▁천호	-12.3116
▁빽	-12.3117
▁마녀	-12.3121
▁길이	-12.3124
▁르네	-12.3126
아이	-12.3127
특별히	-12.3129
▁놧어	-12.3132
승희	-12.3139
낼모레	-12.3141
▁심야	-12.3142
하나님	-12.3145
꿀맛	-12.3147
얐	-12.3149
▁좌석	-12.3149
▁태양	-12.3149
러요	-12.3155
▁박수	-12.3156
바꿈	-12.3157
▁똘	-12.3159
▁희희	-12.3161
▁변해	-12.3164
수원역	-12.3167
▁이익	-12.317
커플링	-12.317
▁웁	-12.317
바서	-12.3178
▁오버	-12.3179
냐고	-12.3184
▁워크	-12.3184
▁성원	-12.3185
▁왕복	-12.3187
▁윈	-12.3189
▁흐리	-12.3191
▁소정	-12.3194
▁오프	-12.3195
아배	-12.3197
▁ㅑㅇ	-12.3197
무행	-12.3198
사랑	-12.3199
할무니	-12.3199
▁쓰러져	-12.3199
콜	-12.3202
▁그레	-12.3205
▁어떤지	-12.3208
▁정해져	-12.3212
▁고마우	-12.3214
팡	-12.3214
▁으나	-12.3225
▁한솔	-12.3226
▁그런다	-12.3229
▁~~♥	-12.3231
귀걸이	-12.3233
으려구요	-12.3236
산역	-12.3236
▁정기	-12.3237
▁췌	-12.324
▁그래그	-12.3241
▁북한	-12.3242
▁비어	-12.3244
▁갘	-12.3244
▁멈춰	-12.3248
▁윙	-12.3251
줄려고	-12.3252
▁말짱	-12.3253
▁떰	-12.3254
누님	-12.3255
▁다이아	-12.3259
긍가	-12.3261
칼	-12.3264
▁끓	-12.3265
▁연대	-12.3265
삼각김밥	-12.3268
▁즉	-12.3269
▁선주	-12.3269
▁봇	-12.3271
랍니다	-12.3272
♡♡	-12.3275
열일	-12.3275
▁👉	-12.3277
▁읶	-12.3281
▁부동산	-12.3283
힌트	-12.3284
이디야	-12.3289
쟐	-12.329
▁옳	-12.3291
존댓말	-12.3293
▁비트	-12.3296
에염	-12.3298
잠은	-12.33
▁쭉쭉	-12.3301
통금	-12.3301
▁오라방	-12.3302
카드	-12.3303
▁종종	-12.3304
▁포포	-12.3307
▁ㅡㅎ	-12.3309
▁답변	-12.3314
▁웨딩	-12.3319
▁못해서	-12.3326
아라	-12.3326
눈치보	-12.3327
▁z	-12.3327
▁따른	-12.3328
▁G	-12.3332
▁그쳐	-12.3335
▁번역	-12.3336
▁지르	-12.3339
연락줄	-12.3339
▁우디	-12.3341
터널	-12.3343
좋아	-12.3345
퇴원	-12.3347
뚜껑	-12.3349
▁뜬금	-12.3357
아앗	-12.3358
▁수신	-12.3358
아행	-12.3359
▁굵	-12.3363
여행가	-12.3366
와야지	-12.3373
▁원인	-12.3374
원룸	-12.3377
▁배워야	-12.3378
▁흥미	-12.3379
부팅	-12.3381
x	-12.3382
▁콱	-12.3384
▁깜박	-12.3387
▁고려	-12.3391
▁기모	-12.3392
▁미인	-12.3394
뀨	-12.3397
▁모니터	-12.3399
▁아르미	-12.34
▁고여	-12.3401
더나	-12.3401
▁찌르	-12.3403
▁펑펑	-12.3404
▁왴ㅋㅋㅋ	-12.3404
뙇	-12.3411
츄	-12.3413
시푼	-12.3414
영수증	-12.3414
군것질	-12.3415
▁보상	-12.3418
▁쓸까	-12.3419
깅	-12.342
무서움	-12.342
▁다크	-12.3426
핑	-12.3428
▁ㅇㄹ	-12.3429
▁주현	-12.3433
▁믈	-12.3433
▁바뀔	-12.3435
맘껏	-12.3438
▁경력	-12.3439
▁텐디	-12.344
드립니다	-12.3441
▁조명	-12.3442
봉투	-12.3444
▁소파	-12.3445
담요	-12.3447
▁파란	-12.3449
골라서	-12.3452
▁솥	-12.3455
그럴게요	-12.3455
▁무기	-12.3458
▁고정	-12.346
세연	-12.346
▁넼ㅋ	-12.3463
▁오려	-12.3465
화팅	-12.347
꼬박꼬박	-12.347
▁❤❤❤	-12.3475
할수록	-12.3475
인가	-12.3476
하루하루	-12.3476
객	-12.3476
단점	-12.3476
으네	-12.3476
정신없이	-12.348
자농	-12.3481
▁화질	-12.3482
▁서영	-12.3484
▁엄만	-12.3485
▁골프	-12.3487
▁호이	-12.3488
설렘	-12.3489
나이스	-12.3495
▁애플	-12.3498
▁오라버	-12.35
▁열나	-12.3504
엌ㅋㅋㅋㅋㅋ	-12.3505
▁갘ㅋㅋㅋ	-12.3506
▁맥스	-12.3507
▁성대	-12.3508
😳	-12.3511
▁윤주	-12.3512
계셔서	-12.3512
설렌다	-12.3512
매진	-12.3513
빙	-12.3516
▁스프	-12.352
▁껄껄	-12.3523
▁산다고	-12.3523
▁닳	-12.3529
▁왤캐	-12.353
<	-12.3532
▁는데도	-12.3535
▁발가락	-12.3535
▁현진	-12.3538
ㅌㅋ	-12.354
▁섴ㅋㅋㅋㅋ	-12.3541
짝	-12.3542
▁아조	-12.3542
걸려요	-12.3546
성욕	-12.3547
말아먹	-12.3549
깨워서	-12.3552
▁안사	-12.3552
▁사무	-12.3553
▁달콤	-12.3554
▁당산	-12.3554
설날	-12.3555
싸움	-12.3556
큐	-12.3559
없음	-12.356
무한도전	-12.3563
><	-12.3564
중임	-12.3565
▁공학	-12.3565
▁깤ㅋㅋㅋㅋㅋ	-12.3566
생얼	-12.3566
▁캐리	-12.3572
▁숲	-12.3572
▁컬	-12.3574
개귀	-12.3574
신호등	-12.3576
▁그쳤	-12.3578
▁잘려	-12.358
▁멸치	-12.3584
▁촉촉	-12.3586
▁끝난다	-12.3588
▁장가	-12.3589
▁올려야	-12.359
▁횽	-12.3596
들키	-12.3597
▁도둑	-12.3598
깨웠	-12.3599
▁돌아올	-12.3601
▁올라갔	-12.3602
▁붙였	-12.3603
▁웟다	-12.3607
▁현우	-12.3608
▁익산	-12.361
▁출출	-12.3613
▁한국인	-12.3615
▁화낸	-12.3617
텐	-12.3617
▁대본	-12.3623
온다는데	-12.3626
▁말랑	-12.3627
씐	-12.3627
쫍	-12.3627
▁둑	-12.3629
한거	-12.3629
▁랔ㅋㅋㅋ	-12.3629
▁진영	-12.363
▁씨씨	-12.3632
▁아바	-12.3634
▁햌ㅅ	-12.364
▁밍구	-12.364
▁👈	-12.3641
널	-12.3643
여덜	-12.3644
▁배신	-12.3645
▁여주	-12.3646
▁집사	-12.3649
▁판교	-12.3649
▁구역	-12.3651
▁끝낼	-12.3652
▁분식	-12.3653
▁기세	-12.3655
희진	-12.3656
꺼라	-12.3656
몰라	-12.3657
▁시더	-12.366
빨간색	-12.3661
엊그제	-12.3661
논	-12.3666
실시간	-12.3669
▁포켓몬	-12.3669
▁세종	-12.3672
▁베리	-12.3676
▁새해	-12.3676
알차	-12.3678
고마웠	-12.368
뷰	-12.368
리야	-12.3684
▁기러	-12.3687
▁마미	-12.3687
▁저자	-12.3695
▁일월	-12.3696
와바	-12.3697
j	-12.3699
▁깔깔	-12.3702
▁쫙	-12.3703
머릿속	-12.3703
▁예비	-12.3704
▁이른	-12.3706
▁나마	-12.3707
▁읍니다	-12.3708
▁암거	-12.3708
▁자격	-12.3711
▁개학	-12.3712
▁그까	-12.3712
려니까	-12.3713
f	-12.3714
▁괜츈	-12.3717
나눠서	-12.3718
▁뺘	-12.3721
▁졋엉	-12.3721
▁오니	-12.3725
▁아뉴	-12.3729
▁쓰려	-12.3729
▁노리	-12.3729
▁호두	-12.3731
너구리	-12.3732
▁내려야	-12.3734
▁느긋	-12.3735
▁스포츠	-12.3738
▁찜질	-12.3748
선크림	-12.375
까묵	-12.3754
▁겤ㅋㅋㅋㅋㅋ	-12.3754
스런	-12.3758
▁쟉이	-12.3758
▁구체	-12.376
▁부끄러운	-12.376
두용	-12.3762
빈아	-12.3763
가징	-12.3765
▁뒤져	-12.3773
▁학과	-12.3773
이안나	-12.3774
쓰다듬	-12.3774
N	-12.3775
▁주년	-12.3776
▁미사	-12.3776
룰	-12.3777
어쩌다가	-12.3777
▁리더	-12.3778
센	-12.3781
▁질질	-12.3782
▁칫솔	-12.3784
방콕	-12.3784
▁옿	-12.3785
바쁨	-12.3785
겠다	-12.3786
▁멩	-12.3787
▁매달	-12.3788
그르게	-12.379
도롱이	-12.3792
부름	-12.3795
▁엑소	-12.3798
잠바	-12.38
▁학생회	-12.3802
여동생	-12.3805
▁주식	-12.3805
미리미리	-12.381
들이	-12.3812
▁처먹	-12.3814
쏘	-12.3814
▁투명	-12.3817
▁헥헥	-12.3817
아냐	-12.382
▁기다릴게	-12.382
빌려서	-12.3821
▁못난	-12.3822
▁들어줄	-12.3824
까지	-12.3824
n	-12.3826
▁이르	-12.3828
▁빠짐	-12.3828
깡	-12.383
▁까진데	-12.3834
그런	-12.3835
나잘	-12.3839
히히	-12.3839
빙구	-12.3842
삼실	-12.3843
고장나	-12.3845
▁외가	-12.3846
값	-12.385
▁장판	-12.385
▁조선	-12.3854
▁싀	-12.3857
▁설탕	-12.3857
▁쓰러질	-12.386
아껴야	-12.3861
▁런닝	-12.3861
▁삽	-12.3865
▁분홍	-12.3866
▁코자	-12.3867
묵	-12.387
다함	-12.387
▁파여	-12.3875
▁기획	-12.3877
어요오	-12.3878
▁픽업	-12.388
규칙	-12.3882
▁대나	-12.3882
▁ㅌㅋㅌ	-12.3883
▁개똥	-12.3884
▁ㅏㄱ	-12.3886
퍼야	-12.3888
▁예쁜데	-12.389
▁뜨거워	-12.389
▁로망	-12.3897
▁신부	-12.3899
▁미터	-12.3901
▁~~~!	-12.3902
▁살인	-12.3904
▁마려	-12.3905
▁칙	-12.391
▁훠	-12.3912
찐따	-12.3913
▁전시	-12.3914
▁환영	-12.3916
▁아쉬운	-12.3919
안해	-12.3921
▁개구리	-12.3924
됴	-12.3924
▁시끄러워	-12.3925
▁라다	-12.3927
▁정시	-12.3927
▁햌ㅋㅋㅋㅋ	-12.3935
▁고속도	-12.3941
▁맙	-12.3942
찍	-12.3943
울디	-12.3946
세염	-12.3948
▁추위	-12.3953
선영	-12.3957
렌지	-12.3957
▁이브	-12.3957
▁니꺼	-12.3958
▁외로워	-12.3958
어린애	-12.3962
빛나	-12.3966
고냥	-12.3968
▁웹	-12.3969
먹어	-12.3974
빠른데	-12.3975
▁문장	-12.3976
끈	-12.3976
▁무서우	-12.3977
=	-12.3981
▁적혀	-12.3981
▁푸드	-12.3982
▁신용	-12.3982
▁으실	-12.3988
깨워줄	-12.399
▁출퇴근	-12.3992
▁성질	-12.3994
사요	-12.3997
▁훟	-12.3998
▁체한	-12.3999
▁부우	-12.3999
골랐	-12.4001
▁까봐	-12.4003
▁한결	-12.4003
▁빳어	-12.4005
▁비몽사몽	-12.4008
▁돕	-12.4011
승우	-12.4012
▁어쩌구	-12.4016
▁성민	-12.4018
반장	-12.4022
▁그립	-12.4029
▁차지	-12.403
▁둿	-12.4031
▁품절	-12.4032
▁요래	-12.4035
아이템	-12.4036
▁아이돌	-12.4038
▁로워	-12.4039
이딴	-12.404
▁비해	-12.4041
깨끗이	-12.4042
났었	-12.4046
다구요	-12.4046
▁웬만	-12.4046
태도	-12.4047
어도	-12.4049
며	-12.4049
▁작품	-12.4054
▁랬어	-12.4056
▁동동	-12.4056
▁낯	-12.4059
▁미운	-12.4059
▁신어	-12.4061
기쁘	-12.4064
▁현민	-12.4064
▁..☆	-12.4065
▁무제한	-12.4067
받아들이	-12.4069
▁오미	-12.4069
▁군용	-12.4071
페이스북	-12.4075
다녀와야	-12.4076
▁아트	-12.4079
잘께요	-12.408
▁훌쩍	-12.408
▁연지	-12.408
▁상무	-12.4082
거당	-12.4082
▁알자	-12.4084
생리통	-12.4086
▁후반	-12.4088
▁신사	-12.4092
▁픔	-12.4092
겉옷	-12.4095
라도	-12.41
▁신뢰	-12.41
▁두리	-12.41
▁🙌	-12.4104
발라야	-12.4111
▁오냐	-12.4116
▁라임	-12.4117
▁오규	-12.4117
▁운영	-12.412
깜빡했	-12.412
▁갈테	-12.4123
▁팜	-12.4124
▁전세	-12.4125
▁고대	-12.4126
이뻤	-12.4127
스키장	-12.4127
▁사려	-12.4127
▁압구정	-12.413
아요오	-12.4132
▁으으으으으	-12.414
▁기리	-12.4142
▁예능	-12.4142
얼룬	-12.4143
들어	-12.4145
나봐	-12.4149
구이	-12.4149
흫	-12.4151
▁양주	-12.4157
▁마약	-12.4159
빨	-12.4161
중국집	-12.4162
▁칵테일	-12.4162
▁고랭	-12.4163
ㄲㅈ	-12.4163
▁하얗	-12.4164
▁씅	-12.4165
▁라이브	-12.4166
▁고수	-12.4168
쮸	-12.4173
▁진우	-12.4175
▁더웠	-12.4176
고고고	-12.4178
봤	-12.4179
개맛	-12.4184
▁험	-12.4185
▁갤럭시	-12.4186
▁텀	-12.4187
▁타입	-12.4188
▁토스	-12.419
▁지겨워	-12.4191
▁유부	-12.4193
▁필터	-12.4195
마님	-12.4195
▁쏠	-12.4197
아슬아슬	-12.4198
▁식단	-12.4198
햇반	-12.4199
▁독서	-12.4201
▁곺	-12.4203
쌓이	-12.4204
▁타고	-12.4206
▁수분	-12.4206
▁방울	-12.421
▁따오	-12.4213
▁짤라	-12.4215
▁탈까	-12.4224
▁넘나	-12.4225
▁이재	-12.4228
▁옼	-12.4231
활	-12.4235
▁갘ㅋㅋ	-12.4236
.....	-12.4239
▁아궁	-12.4244
▁판다	-12.4248
머신	-12.4248
▁뜬금없	-12.425
그으래	-12.425
▁급해	-12.4251
려야	-12.4256
▁보드	-12.4259
▁접시	-12.4261
▁부끄러워서	-12.4263
섭이	-12.4264
▁딩굴	-12.4264
▁민감	-12.4266
▁캠핑	-12.427
보이	-12.4271
들어감	-12.4275
롤	-12.4275
▁거둔	-12.4278
개뿔	-12.4278
▁!!?	-12.4281
▁가재	-12.4282
▁바리	-12.4283
▁탁구	-12.4284
승아	-12.4286
았	-12.4289
▁지미	-12.4289
▁쑈	-12.429
어둡	-12.4291
올거	-12.4294
메가박스	-12.4294
▁허세	-12.4296
어머나	-12.4302
▁조정	-12.4305
돼	-12.4306
▁절레	-12.431
▁긩	-12.4315
▁드레스	-12.4316
말행	-12.4322
▁툰	-12.4323
▁굥	-12.4325
▁언젠데	-12.4328
계세요	-12.4333
▁♡♡♡♡♡	-12.4333
▁답니다	-12.4334
▁브라	-12.4336
▁켯어	-12.4338
▁수행	-12.4342
▁봐야겠다	-12.4343
💞	-12.4343
▁행정	-12.4344
립스틱	-12.4347
▁합니까	-12.4349
▁볼게	-12.435
▁프랑스	-12.4351
▁우야	-12.4351
▁넘쳐	-12.4353
▁빠를	-12.4353
뇬	-12.4355
▁공식	-12.4355
▁물놀	-12.4356
▁된다면	-12.4356
내눈엔	-12.4359
요금제	-12.436
열람실	-12.4363
▁예뻐해	-12.4367
▁야옹	-12.4369
▁그릴	-12.437
▁응답	-12.4374
▁간지럽	-12.4375
▁광명	-12.4377
▁내게	-12.4379
글케	-12.4382
앞자리	-12.4385
▁부다	-12.4385
▁다듬	-12.4388
▁어지러워	-12.4389
톤	-12.4389
▁끌리	-12.4389
힝	-12.439
▁군산	-12.4392
▁조리	-12.4393
이나	-12.4395
▁독립	-12.44
디저트	-12.44
▁로리	-12.44
▁던대	-12.44
배고픔	-12.4404
▁역전	-12.4407
▁됫네	-12.4409
갈래요	-12.4412
빼먹	-12.4416
▁잎	-12.4419
출동	-12.4421
까봐	-12.4421
▁콩나물	-12.4423
▁호박	-12.4423
아녜요	-12.4424
어잉	-12.4427
거릴	-12.4428
그르치	-12.4431
▁기초	-12.4433
ㅕ	-12.4433
뇽	-12.4438
▁.!!!	-12.4441
▁간지러	-12.4446
음식점	-12.4449
▁아쿠	-12.445
채원	-12.4452
▁해물	-12.4456
낟	-12.4457
얜	-12.4457
대교	-12.4459
ㅊ	-12.4459
두병	-12.4461
혜인	-12.4461
고롬	-12.4461
러지	-12.4462
▁인터	-12.4466
갱차	-12.4466
▁넛	-12.4467
▁변기	-12.4467
▁다름	-12.4472
햇대	-12.4475
딴	-12.4476
▁비워	-12.4476
▁최종	-12.4478
기념일	-12.4478
맘스터치	-12.4482
파란색	-12.4483
▁우러	-12.4483
▁판매	-12.4484
▁문어	-12.4484
▁니라	-12.4487
▁현명	-12.4489
▁걸어갈	-12.449
▁들으	-12.449
▁대가	-12.4495
ㅆ	-12.4496
놨	-12.4501
히터	-12.4501
▁놩	-12.4502
▁즐거웠	-12.4502
나돈	-12.4504
▁영재	-12.4505
미안	-12.4507
▁막혔	-12.451
▁요청	-12.4511
▁모니	-12.4515
여요	-12.4516
▁곸ㅋ	-12.4517
▁ㅠㅡ	-12.4521
어떨까	-12.4521
놓	-12.4522
▁아머	-12.4524
▁모른다고	-12.4526
그러다가	-12.4526
어때서	-12.4529
▁모바일	-12.4535
초록색	-12.4536
가융	-12.4537
▁짝짝	-12.4538
▁믿음	-12.454
▁태국	-12.4542
화날	-12.4543
▁내주	-12.4545
▁요요	-12.4547
▁헌혈	-12.4548
라곤	-12.4556
교통비	-12.4556
마셔도	-12.4559
납	-12.4559
누움	-12.4562
▁흘려	-12.4564
내맘대로	-12.4566
에구구	-12.4569
▁조지	-12.457
▁앞뒤	-12.4571
내새	-12.4573
▁월세	-12.4574
▁서연	-12.4575
▁틀려	-12.4583
▁가질	-12.4586
▁고등어	-12.4586
▁믹	-12.4587
▁훌	-12.4587
▁네일	-12.4587
가요	-12.4588
▁신지	-12.4589
▁블루	-12.459
▁인쇄	-12.46
▁골반	-12.46
지난주	-12.4607
좃	-12.461
진통제	-12.461
▁파서	-12.4613
▁감시	-12.4613
▁비상	-12.4616
▁부릴	-12.4618
그럭저럭	-12.4618
살려줘	-12.4619
▁먿	-12.4622
▁니니	-12.4622
나머진	-12.4627
▁사원	-12.4628
▁운다	-12.4631
디이	-12.4632
▁퍽	-12.4632
▁미련	-12.4632
사물함	-12.4639
라더니	-12.4643
▁기에	-12.4644
▁노란	-12.4644
▁씁	-12.4646
▁오일	-12.4646
▁결재	-12.4649
거지	-12.465
▁입지	-12.4651
▁부실	-12.4655
쟛	-12.4656
놀이터	-12.4659
▁종각	-12.4662
▁됴아	-12.4664
▁구했	-12.4666
▁베트남	-12.4668
▁ㅓㄱ	-12.4669
▁미야	-12.4675
사랑니	-12.4676
▁넫	-12.468
▁수치	-12.468
▁지호	-12.4682
▁탈퇴	-12.4685
바라보	-12.4687
▁무사	-12.4688
▁야외	-12.4693
린다고	-12.4696
▁때렸	-12.4697
▁렝	-12.4697
헿	-12.4699
▁호주	-12.4703
어쩌면	-12.4704
s	-12.4705
😔	-12.4706
▁성신	-12.4707
차갑	-12.4707
▁비올	-12.4709
▁최저	-12.4709
대가리	-12.4712
▁달린	-12.4712
은아	-12.4714
로로	-12.4716
▁은주	-12.4724
군복	-12.473
▁기가	-12.4732
▁괜차나용	-12.4735
에헤헤	-12.4736
인거	-12.4738
오능	-12.4739
슬푸	-12.4742
제거	-12.4742
드러가	-12.4742
옆구리	-12.4744
▁랔ㅋㅋ	-12.4746
▁이혼	-12.4747
엑셀	-12.4748
▁꼼	-12.4756
내일	-12.4756
▁롷	-12.4756
▁가람	-12.4757
▁토토	-12.476
▁느린	-12.4761
에헴	-12.4764
유니폼	-12.4765
랏	-12.4767
만난다고	-12.4768
니깐	-12.4769
갈비탕	-12.477
▁공인	-12.4774
▁통학	-12.4774
응급실	-12.4774
▁빵꾸	-12.4775
▁광장	-12.4776
상품권	-12.4778
▁답안	-12.478
주섬	-12.4783
▁빨강	-12.4785
착해서	-12.4788
▁애니	-12.4788
▁펏	-12.4789
▁승리	-12.479
▁랄라	-12.4791
▁진성	-12.4791
▁유선	-12.4794
타운	-12.4796
톡	-12.4807
▁엄지	-12.4807
안와	-12.4813
▁그야	-12.4815
외할머니	-12.4816
역대급	-12.482
▁재고	-12.4823
퐁	-12.4824
ㅈㅁ	-12.4826
▁자국	-12.4827
그저께	-12.483
할까	-12.4831
▁겤	-12.4841
▁겍	-12.4841
아마두	-12.4843
▁무서울	-12.4843
▁이히	-12.4845
심해서	-12.4848
▁아임	-12.4849
▁싳다	-12.485
▁웟엉	-12.485
▁ㅏㅅ	-12.485
🥰	-12.4854
섬	-12.4854
▁툭	-12.4858
▁반갑	-12.4859
▁ㅡㅋ	-12.4861
▁상의	-12.4861
시여	-12.4862
가꼬	-12.4862
층	-12.4862
▁낸다	-12.4865
서럽	-12.4866
을려나	-12.4868
▁차차	-12.4871
흐름	-12.4874
▁그렇지만	-12.4875
아녔	-12.4875
▁췟	-12.4879
휴게실	-12.4881
▁어려울	-12.4885
▁고속	-12.4888
▁협	-12.4888
▁강해	-12.4894
▁옼ㅋㅋㅋㅋㅋ	-12.4895
폰	-12.4897
올려서	-12.4898
▁김해	-12.49
▁새삼	-12.4904
라뇨	-12.4909
준영	-12.4909
▁동현	-12.491
▁성수	-12.491
▁M	-12.4912
돌려서	-12.4916
하지	-12.4918
빵집	-12.4919
▁주워	-12.4919
▁참여	-12.492
▁지그	-12.492
▁의문	-12.492
▁관광	-12.4924
▁기다린다	-12.4924
온라인	-12.4929
퇴	-12.493
▁미오	-12.4931
▁마신다	-12.4932
▁엉망	-12.4937
▁찬양	-12.4938
라니	-12.4941
먼일	-12.4942
상당히	-12.4946
근가	-12.4946
▁소독	-12.4948
발바닥	-12.495
▁정치	-12.4954
글서	-12.4955
▁과방	-12.4956
▁☞☜	-12.4957
갤러리	-12.4957
▁금정	-12.496
▁서리	-12.4962
▁내거	-12.4962
건데요	-12.4964
헤헤	-12.4964
▁경서	-12.4964
▁안조	-12.4968
런닝맨	-12.497
▁흐흐흐흐	-12.4971
승주	-12.4971
▁야경	-12.4973
▁돌렸	-12.4974
▁넉넉	-12.4976
▁연상	-12.4978
물음표	-12.4979
▁깨운	-12.498
▁신한	-12.498
▁된장	-12.4981
염증	-12.4986
수다떨	-12.4987
▁빕	-12.4988
갈비찜	-12.4992
▁껩	-12.4994
▁아픈가	-12.4996
놀람	-12.4997
▁됏다	-12.4997
손바닥	-12.4998
▁간다니까	-12.4998
▁나강	-12.4999
포토샵	-12.5
▁덩치	-12.5001
▁괴롭	-12.5002
▁정두	-12.5002
저기요	-12.5006
▁목동	-12.5008
▁거여	-12.501
렛	-12.5011
양쪽	-12.5014
빌	-12.5015
▁켜져	-12.5017
▁캉	-12.5018
인터뷰	-12.5018
죄다	-12.5018
엉구	-12.5019
▁동의	-12.5022
▁피나	-12.5026
세월	-12.5029
▁막힌다	-12.5037
슴당	-12.5039
▁재현	-12.5041
격하	-12.5042
▁미어	-12.5043
십쇼	-12.5044
큼	-12.5045
껴입	-12.5046
▁틴트	-12.5049
▁김장	-12.5049
▁수유	-12.5051
끊겼	-12.5054
▁차마	-12.5055
비우	-12.5055
빠름	-12.5055
▁코인	-12.5056
▁텍	-12.5062
😇	-12.5065
▁메가	-12.5066
▁근거	-12.5067
😗	-12.507
물어봐도	-12.5072
사라짐	-12.5075
어떤데	-12.5076
반애	-12.5077
▁대실	-12.5078
된	-12.5087
승환	-12.5088
어필	-12.5088
▁현상	-12.5098
알콩달콩	-12.51
▁개마	-12.5102
나았	-12.5103
▁듦	-12.5104
▁호우	-12.5106
여야지	-12.5108
▁비누	-12.511
▁부셔	-12.511
뚜	-12.511
▁후보	-12.5113
읍	-12.5117
▁오모	-12.5121
소화제	-12.5124
한국사	-12.5131
▁막힌	-12.5134
본다는	-12.5134
▁아련	-12.5134
▁시설	-12.5135
▁헌팅	-12.5136
▁타나	-12.5137
▁뽁	-12.5139
▁잦	-12.5139
▁차량	-12.514
▁솔솔	-12.5142
▁라기	-12.5142
▁조시	-12.5148
학교	-12.5151
▁봨ㅋㅋㅋㅋㅋ	-12.5157
▁고쳐야	-12.5159
▁지저분	-12.5159
▁괜차	-12.516
좌	-12.5161
떻게	-12.5161
룸	-12.5161
▁마랑	-12.5164
▁소서	-12.5165
눌러서	-12.5166
나와라	-12.5174
▁때려치	-12.5174
밥집	-12.5174
▁괴롭힐	-12.5175
차비	-12.5175
아웃백	-12.5176
▁프레	-12.5178
허허허허	-12.518
▁어두운	-12.5182
자염	-12.5186
커피	-12.5186
▁노인	-12.5187
▁방어	-12.519
▁ㅜㄴ	-12.519
딘	-12.5191
똑똑이	-12.5193
▁소진	-12.5194
▁베라	-12.5195
든든히	-12.5196
▁경수	-12.5196
애기	-12.5197
생각없이	-12.52
▁냐니까	-12.52
▁옮겼	-12.5201
봄	-12.5202
장난감	-12.5202
▁댄스	-12.5204
▁고픈	-12.5204
띰	-12.5206
▁눙자	-12.5206
맘대루	-12.5207
▁닮음	-12.521
▁캠프	-12.5211
▁타워	-12.5211
날라가	-12.5212
는구먼	-12.5213
기보단	-12.5213
▁성현	-12.5214
말랑말랑	-12.5215
어서요	-12.5215
▁럈	-12.5217
▁올라온	-12.5218
▁제외	-12.522
▁오브	-12.5222
조아	-12.5228
시리얼	-12.5228
▁윤희	-12.523
당함	-12.523
그래애	-12.5232
십	-12.5232
▁파전	-12.5232
쓸	-12.5233
▁왴ㅋㅋㅋㅋ	-12.5234
▁두껍	-12.5235
▁반항	-12.5238
▁마비	-12.5242
기름	-12.5243
▁홍삼	-12.5244
끝나	-12.5245
재울	-12.5248
▁뗭	-12.5249
개판	-12.5254
▁혼낼	-12.5256
아파	-12.526
디따	-12.526
▁전원	-12.5261
▁포스	-12.5262
▁냉정	-12.5264
▁뿡뿡	-12.5265
촉박	-12.5265
▁가죽	-12.5266
▁포근	-12.5267
▁통영	-12.5271
가지	-12.5272
딩굴딩굴	-12.5272
▁ㅓ야	-12.5275
야구장	-12.5276
죄	-12.5278
유니클로	-12.5286
A	-12.5288
▁성호	-12.5289
▁즐거워	-12.529
▁주안	-12.5291
▁옄ㅋㅋㅋ	-12.5295
▁청춘	-12.5295
▁여운	-12.5296
와앙	-12.5297
한테	-12.5298
ㅈㄹ	-12.53
▁이과	-12.5301
+	-12.5305
▁밴	-12.5305
무려	-12.5307
▁쳥	-12.5308
세훈	-12.531
▁회기	-12.5314
장점	-12.5314
▁변한	-12.5318
여뿌	-12.5318
형부	-12.5321
아쥬	-12.5324
)	-12.5324
타임	-12.5325
▁난대	-12.5325
걸어다니	-12.533
▁퉁퉁	-12.533
▁소릴	-12.5331
▁아무데	-12.5333
▁당할	-12.5334
헣	-12.5336
▁나성	-12.5336
▁연고	-12.5337
하나	-12.5337
호잇	-12.5338
게스트	-12.5339
▁반사	-12.5341
걸어오	-12.5344
😛	-12.5348
절대로	-12.5351
▁ㅇ어	-12.5352
듄	-12.5353
▁냨ㅋㅋㅋ	-12.5353
▁통했	-12.5357
▁부렸	-12.5358
꺼야	-12.5358
c	-12.5359
이눔	-12.5363
프트	-12.5368
▁톡톡	-12.5368
리아	-12.5368
면담	-12.537
▁상큼	-12.5371
▁웟는데	-12.5372
▁내장	-12.5372
베란다	-12.5376
ㅌㅋㅋㅋ	-12.5377
▁남방	-12.538
으신가	-12.538
▁화정	-12.538
▁김민	-12.538
▁쑤셔	-12.5382
부드럽	-12.5383
▁쟘	-12.5388
▁뻘	-12.5389
윽	-12.5389
접때	-12.5392
▁.?!	-12.5393
▁행운	-12.5395
▁본부	-12.5395
▁만세	-12.5396
푸우	-12.5397
같애	-12.5398
▁ㅕㄴ	-12.5401
▁늗	-12.5404
ㄱㅇㄷ	-12.5404
▁각도	-12.5404
▁한우	-12.5405
그럴지도	-12.5407
▁쉼	-12.5408
▁요고	-12.5409
?♥	-12.5409
▁유도	-12.541
▁가짜	-12.5411
▁폭력	-12.5413
다령	-12.5414
▁냉동	-12.5415
아디다스	-12.5416
▁쳐다	-12.5416
▁머시	-12.5418
▁풀려서	-12.5419
▁올림픽	-12.542
▁!?!?	-12.5423
기찬	-12.5425
다면	-12.5426
▁벗겨	-12.5427
▁사오	-12.5428
연락처	-12.5429
▁둘려	-12.5434
▁제모	-12.5442
▁뀌	-12.5443
▁기아	-12.5445
기적	-12.5445
더닝	-12.5447
▁!?!?!	-12.5447
다나	-12.5447
접	-12.5449
▁빠듯	-12.5449
▁사주	-12.5451
썽	-12.5452
▁큰데	-12.5453
시리즈	-12.5453
길래	-12.5453
워서	-12.5455
▁대타	-12.546
울보	-12.5461
소시지	-12.5461
▁!♥♥	-12.5462
▁구박	-12.5463
▁왴ㅋㅋ	-12.5463
▁꼬셔	-12.5466
▁윤호	-12.5468
▁쓴다고	-12.5472
▁아미	-12.5473
잠결	-12.5474
인줄	-12.5474
생일날	-12.5475
친다	-12.5476
▁호떡	-12.5477
▁차가운	-12.5479
다니까	-12.5482
촵	-12.5483
▁드세	-12.5484
수육	-12.5486
고픈데	-12.5487
▁살찐	-12.549
으셧	-12.5491
볼라구	-12.5491
▁주거	-12.5496
마을버스	-12.5498
;;	-12.55
▁오피스	-12.55
▁!❤	-12.55
계장	-12.5502
할매	-12.5505
▁으라는	-12.5506
미니언	-12.551
실은	-12.551
,,	-12.5511
ㅆㅂ	-12.5513
▁순두부	-12.5515
엘리베이터	-12.5515
▁팩트	-12.5516
▁장인	-12.5516
▁안다고	-12.5517
싣	-12.552
엇어	-12.5521
▁여왕	-12.5521
▁불량	-12.5523
믄	-12.5525
▁헥	-12.5527
타용	-12.5529
라믄	-12.553
맹	-12.5531
줄게요	-12.5537
▁아까워서	-12.554
▁깡패	-12.554
▁요구	-12.5541
▁다른데	-12.5544
이너	-12.5544
▁변신	-12.5545
▁낰ㅋ	-12.5554
암것두	-12.5556
돌아댕기	-12.5557
▁아랑	-12.5558
▁배치	-12.5562
선글라스	-12.5562
아닌가요	-12.5564
코스트코	-12.5566
떠오르	-12.5566
▁찔러	-12.5574
▁성경	-12.5576
▁마귀	-12.5578
바아	-12.5578
큭큭	-12.5579
▁시선	-12.5581
관종	-12.5581
▁태연	-12.5582
▁췃	-12.5585
▁쨘	-12.5587
고픔	-12.5588
징그럽	-12.5588
😐	-12.5593
수수료	-12.5593
b	-12.5594
소린지	-12.5595
▁일베	-12.5597
▁못써	-12.5607
▁주연	-12.5609
그랬음	-12.5609
▁.;	-12.5611
래야	-12.5613
▁천장	-12.5613
▁대려	-12.5614
▁숟가락	-12.5616
킄	-12.5618
레스	-12.5624
몬나	-12.5626
▁신중	-12.5626
합쳐서	-12.5627
그런다고	-12.563
▁요보	-12.5633
▁읗	-12.5634
▁부지	-12.5635
▁활용	-12.5642
댁	-12.5642
돼지고기	-12.565
냐며	-12.5651
응께	-12.5652
▁캐릭	-12.5653
▁둉이	-12.5653
▁경민	-12.5653
인다	-12.5653
을래요	-12.5656
슬퍼하	-12.5656
▁어마	-12.5657
끌어안	-12.5658
면세점	-12.5658
▁찹	-12.5659
▁코노	-12.5659
ㅊㅊ	-12.5659
▁꺼질	-12.5659
▁해주	-12.566
▁봣나	-12.5663
▁멍들	-12.5666
▁묭	-12.5667
자녀	-12.5667
▁왱왱	-12.5667
으셔서	-12.5669
▁노동	-12.5675
▁잡혔	-12.5675
그리거	-12.5676
롯데마트	-12.5676
▁앳	-12.5678
▁복학	-12.5678
▁탑승	-12.568
▁축축	-12.5681
에에에에에에	-12.5682
사준	-12.5686
건너편	-12.5687
▁가셔	-12.5689
▁큐브	-12.569
▁쨍쨍	-12.569
눔	-12.569
▁그렸	-12.5693
랬지	-12.5695
꺄르르	-12.5697
간격	-12.5698
뒷자리	-12.57
연락	-12.5702
▁차근차근	-12.5704
▁체리	-12.5705
▁개아	-12.5705
▁잨ㅋㅋㅋㅋㅋ	-12.5706
이러면	-12.5707
티셔츠	-12.5709
▁.☆	-12.5709
▁뷔	-12.571
새미	-12.5712
▁확대	-12.5713
▁도넛	-12.5714
▁세븐	-12.5716
나무	-12.5718
멀리서	-12.572
▁복도	-12.5721
자리	-12.5721
▁남부	-12.5722
▁취침	-12.5723
▁모란	-12.5726
자융	-12.5728
거참	-12.573
엄청	-12.5731
줄여야	-12.5732
▁헷갈려	-12.5733
건드리	-12.5733
▁~~~~~~~	-12.5736
😑	-12.5736
▁컬러	-12.5737
▁햌	-12.5739
▁서자	-12.574
겡	-12.5744
▁흔들리	-12.5744
▁초과	-12.5745
이네	-12.5745
▁달러	-12.5745
▁호랑이	-12.5747
쨔	-12.5747
가져와서	-12.575
▁클릭	-12.5751
잠꾸러기	-12.5755
해줄께	-12.5755
▁즌	-12.5755
▁타이	-12.5757
😬	-12.5764
히리	-12.5764
▁테러	-12.5766
일찍	-12.5767
▁보안	-12.5767
▁본대	-12.5767
준혁	-12.577
범수	-12.577
비율	-12.5771
고생	-12.5771
달까	-12.5772
줌	-12.5774
쿼트	-12.5775
알아	-12.5777
▁내려갔	-12.578
열리	-12.5781
유정아	-12.5786
▁팔리	-12.5787
정작	-12.5788
▁아구구	-12.5789
일났	-12.5792
▁입사	-12.5794
▁잌ㅅ	-12.5794
삐	-12.58
▁진리	-12.58
▁제한	-12.5803
▁왘ㅋㅋㅋㅋㅋ	-12.5803
쪽지	-12.5808
즈아	-12.5811
▁우기	-12.5811
▁낌	-12.5812
▁능가	-12.5814
▁높이	-12.5814
▁마당	-12.5816
▁쉴래	-12.5817
▁고추장	-12.5818
예쁨	-12.5818
▁옮길	-12.582
정석	-12.5821
찾아오	-12.5822
놀러오	-12.5826
물어봐야지	-12.5828
예원	-12.583
▁서른	-12.583
다가오	-12.583
▁짜잔	-12.5833
▁먄서	-12.5833
▁헿ㅎㅎㅎㅎ	-12.5837
▁부야	-12.5837
신기하	-12.5837
효영	-12.5838
옷장	-12.5838
▁앓	-12.5839
랜	-12.5842
▁̑	-12.5846
▁뱃	-12.5847
▁유아	-12.585
햇어	-12.585
▁소나기	-12.585
▁브라운	-12.585
르면	-12.5853
학생증	-12.5854
▁다물	-12.5855
흘	-12.5857
습하	-12.5858
▁컨트롤	-12.5858
▁하튼	-12.586
텔	-12.5861
구칭	-12.5863
▁오자	-12.5863
바베큐	-12.5863
상우	-12.5865
▁잡채	-12.5865
▁아까운	-12.5866
지영	-12.5871
▁박혀	-12.5872
밤샘	-12.5872
▁호로록	-12.5873
▁슬립	-12.5873
▁개안	-12.5873
보다	-12.5876
▁따땃	-12.5877
▁렵	-12.5878
▁맏	-12.5878
쨌	-12.5878
아몰랑	-12.5879
▁!♡♡	-12.5882
▁국내	-12.5884
▁K	-12.5884
실험실	-12.5885
▁지문	-12.5885
▁사우나	-12.5886
▁경복궁	-12.5887
▁전시회	-12.5887
▁스러워서	-12.5891
▁성실	-12.5893
▁돌아다녀	-12.5894
▁테니스	-12.5897
▁겧	-12.5897
♡♡♡	-12.5898
개콘	-12.5898
▁쟉	-12.5903
김치	-12.5903
오호라	-12.5904
▁구루	-12.5908
▁잔거	-12.591
떨어짐	-12.5911
▁개기	-12.5912
맘속	-12.5913
됀	-12.5915
고깃집	-12.5915
저걸로	-12.5915
괜한	-12.5915
내려놓	-12.5918
▁♥♥♥♥♥	-12.5918
▁진하	-12.5919
P	-12.5919
▁쿰	-12.592
뭬	-12.592
▁하여간	-12.592
곳	-12.5921
▁돌아갈	-12.5922
차원	-12.5923
콘	-12.5925
▁호야	-12.5927
▁ㅛㅣ	-12.5928
건우	-12.5931
비염	-12.5932
▁긴가	-12.5933
린데	-12.5935
▁걸레	-12.5935
▁반품	-12.5936
▁정해진	-12.5938
▁&	-12.5938
오랫동안	-12.5939
▁구양	-12.594
효주	-12.5943
▁막장	-12.5948
▁신선	-12.595
▁취할	-12.5954
내령	-12.5955
▁혼란	-12.5957
▁살림	-12.5957
▁동작	-12.5957
▁꼬르륵	-12.5959
찔리	-12.596
멀	-12.5964
▁고소	-12.5966
▁흘러	-12.5967
▁ㅡㅋㅋ	-12.5968
▁소풍	-12.5971
실감	-12.5972
잖니	-12.5973
▁알콜	-12.5973
▁댬	-12.5974
▁조립	-12.5977
▁땅콩	-12.5978
▁ㅡㄹ	-12.5979
▁변비	-12.5985
▁종아리	-12.5986
흐미	-12.5987
▁뇽이	-12.5989
▁팽	-12.5989
▁케어	-12.599
▁민석	-12.5991
▁정해야	-12.5992
오래가	-12.5997
쭈욱	-12.6
게염	-12.6
▁바까	-12.6001
▁리가	-12.6003
▁수당	-12.6003
▁임자	-12.6004
쬐끔	-12.6006
리스	-12.6006
폐	-12.6008
▁그리워	-12.601
앵	-12.6013
▁바가지	-12.6015
나도야	-12.6017
더더욱	-12.6019
▁오랜	-12.6019
▁나쁠	-12.6019
바게트	-12.602
▁모리	-12.6021
고싶	-12.6024
▁국장	-12.603
▁어지러	-12.603
▁낰	-12.603
▁면회	-12.6033
상미	-12.6034
화남	-12.6034
살쪘	-12.6035
▁금연	-12.6037
▁목포	-12.6045
어땠어	-12.6053
▁청량리	-12.6054
▁더블	-12.6055
▁소용없	-12.6056
▁~~~!!	-12.6058
겁내	-12.6061
운동	-12.6061
▁젓	-12.6062
▁성장	-12.6063
▁거짓	-12.6064
냉	-12.6065
▁합성	-12.6067
단디	-12.6068
그런가보다	-12.6069
랜덤	-12.6073
찬찬히	-12.6073
장담	-12.6075
▁민호	-12.6076
폴더	-12.6076
▁지에스	-12.6078
리뷰	-12.6078
▁..♥	-12.6079
▁네비	-12.6079
▁국사	-12.608
서브웨이	-12.6082
▁동래	-12.6084
원본	-12.6084
▁정정	-12.6087
▁이러다	-12.6087
▁반주	-12.6092
▁주심	-12.6092
▁비치	-12.6093
▁뉑	-12.6093
▁챈	-12.6094
쎄	-12.6096
▁줫다	-12.6103
▁꺽	-12.6103
▁ㅏ앙	-12.6103
▁줏	-12.6104
▁기부	-12.6105
바로	-12.6108
아이참	-12.6109
▁정우	-12.6111
▁냨ㅋㅋ	-12.6112
▁짭	-12.6113
하닝	-12.6115
▁~!~!	-12.6119
고등학생	-12.6121
꾹꾹	-12.6121
▁주공	-12.6122
남동생	-12.6124
O	-12.6125
▁뱀	-12.6128
🤭	-12.6131
▁식탁	-12.6132
▁생생	-12.6135
▁잖어	-12.6136
혼밥	-12.614
▁채널	-12.6141
▁리터	-12.6142
▁커져	-12.6142
▁.???	-12.6143
▁퍽퍽	-12.6145
맞은편	-12.615
욕조	-12.6151
기력	-12.6155
큔	-12.6155
볼땐	-12.6156
▁위기	-12.6157
빠꾸	-12.6159
선아	-12.6161
▁산소	-12.6162
서프라이즈	-12.6163
귀여워	-12.6166
▁즁이	-12.6166
▁피치	-12.6166
▁달걀	-12.6167
와줘서	-12.6168
▁슬쩍	-12.617
▁대림	-12.6171
제때	-12.6171
무거워서	-12.6171
▁마포	-12.6174
▁헴	-12.6177
▁심상	-12.6178
▁합의	-12.6178
▁캔디	-12.6179
자길	-12.6181
▁환상	-12.6182
갔다온	-12.6184
처니	-12.619
▁괴물	-12.619
▁유통	-12.619
줬었	-12.6192
▁청구	-12.6192
▁유에스	-12.6194
▁과대	-12.6195
애띠	-12.6199
▁쩍	-12.6201
▁사옵니다	-12.6201
통수	-12.6202
▁조오	-12.6205
▁환전	-12.6206
아이패드	-12.6209
▁어두워	-12.621
▁냐니	-12.621
▁져라	-12.6212
끝날지	-12.6213
▁을지로	-12.6214
할고	-12.6215
▁주영	-12.6215
꿈꿔요	-12.6216
블루베리	-12.6218
▁부여	-12.622
껴야	-12.622
▁트리	-12.6222
▁킷	-12.6222
▁얼룽	-12.6224
▁운거	-12.6224
▁경이	-12.6225
할리스	-12.6226
기다림	-12.6226
▁이별	-12.6227
▁짚	-12.6232
중순	-12.6235
▁동전	-12.6241
▁문신	-12.6242
▁주라	-12.6246
부어서	-12.6246
▁드랑	-12.6248
퍼즐	-12.6249
▁--	-12.6249
보공	-12.6257
▁으흐	-12.6258
꿈	-12.626
▁전신	-12.6261
▁민영	-12.6262
넌	-12.6263
온댜	-12.6263
코기	-12.6264
▁오옥	-12.6265
ㅆ어	-12.6265
붕어빵	-12.6268
▁정원	-12.6272
▁블리	-12.6273
▁으흐흐	-12.6273
▁봐줘	-12.6275
▁쑴	-12.6276
▁그럽	-12.6278
▁주름	-12.6279
▁듸	-12.6279
스무디	-12.6281
▁초롱	-12.6286
▁타로	-12.6287
▁조신	-12.6288
▁피우	-12.6288
여미	-12.6292
낙	-12.6294
▁주금	-12.6294
소히	-12.6295
배고파요	-12.6296
참자	-12.63
▁씸	-12.6303
체육관	-12.6306
▁헉헉	-12.6308
▁곰곰	-12.6308
▁전용	-12.6309
볼께요	-12.6309
▁소용	-12.6309
엌ㅋㅋ	-12.6311
▁땡긴다	-12.6313
▁냡	-12.6315
▁승인	-12.6316
이랭	-12.632
▁유심	-12.6321
▁생파	-12.6322
턴	-12.6322
주량	-12.6323
장례식장	-12.6323
▁ㅠㅋㅋㅋㅋㅋ	-12.6324
져야지	-12.6325
▁이노	-12.6327
▁빔	-12.6331
▁올랐	-12.6333
눙	-12.6333
몽이	-12.6333
자며	-12.6334
▁끊겨	-12.6335
이메일	-12.6337
무한리필	-12.6337
호흡	-12.6337
▁두근	-12.6338
배고팠	-12.6339
▁깻다	-12.634
▁도중	-12.6343
어떻하	-12.6344
▁무게	-12.6345
▁베스트	-12.6349
혼자	-12.635
댄	-12.635
나가	-12.635
▁정한	-12.6353
족구	-12.6354
눈떠	-12.6356
▁경비	-12.6357
카이	-12.6357
▁범죄	-12.6359
▁증명	-12.6359
미녀	-12.636
😒	-12.6361
▁드실	-12.6363
엌ㅋㅋㅋ	-12.6365
헐	-12.6365
▁쳣네	-12.6366
▁샘플	-12.6374
롬	-12.6376
▁극장	-12.6378
▁민우	-12.638
▁원서	-12.6382
▁바깥	-12.6382
슬펐	-12.6382
▁찬스	-12.6382
▁달력	-12.6382
보건소	-12.6385
▁ㅏ나	-12.6388
▁ㅠㅡㅜ	-12.6388
z	-12.639
▁놀림	-12.6394
▁우승	-12.6398
▁뭄	-12.6399
영민	-12.6399
▁어쭈	-12.6401
공부	-12.6405
수업	-12.6406
▁목록	-12.6406
▁나우	-12.6411
기다려야지	-12.6412
륭	-12.6416
▁.,	-12.6416
▁가벼운	-12.6416
▁상가	-12.6419
치웠	-12.642
▁탄산	-12.642
▁문학	-12.6423
다녀요	-12.6423
욥	-12.643
▁꽝	-12.6431
▁도배	-12.6431
무뚝뚝	-12.6431
🙄	-12.6431
▁듬뿍	-12.6431
:	-12.6431
뒤	-12.6432
으흥	-12.6439
▁꿧어	-12.6439
순식간	-12.6441
우찌	-12.6442
릭	-12.6443
못난이	-12.6447
▁벤치	-12.6448
똥개	-12.6449
▁심정	-12.6452
▁X	-12.6453
▁터진다	-12.6458
버렸	-12.6458
▁화목	-12.646
보라색	-12.6463
사리	-12.6468
긑	-12.6471
▁몰려	-12.6476
식겁	-12.6478
▁신문	-12.6478
▁슐	-12.648
나온다고	-12.6481
▁->	-12.6482
▁인걸	-12.6485
▁양산	-12.6488
▁작전	-12.6489
곻	-12.6491
탐탐	-12.6491
떡먹	-12.6493
바꿀까	-12.6494
▁조언	-12.6499
▁대매	-12.6504
🙊	-12.6506
▁아프리카	-12.6507
▁뛸	-12.651
달려갈	-12.6511
▁상봉	-12.6512
▁예산	-12.6512
▁까매	-12.6518
아잇	-12.6527
는다며	-12.6528
▁옄ㅋㅋ	-12.653
▁부들	-12.6532
▁스승	-12.6535
▁감각	-12.6538
▁수아	-12.6539
겟지	-12.6541
▁지나간	-12.6545
▁개통	-12.6545
디테일	-12.6545
😯	-12.6546
두렵	-12.6547
엿	-12.6548
▁다우	-12.6548
♡♡♡♡	-12.6549
▁다려	-12.6549
▁잰	-12.6549
하네	-12.655
대략	-12.6555
복장	-12.6557
▁...??	-12.6557
촥	-12.6562
▁단위	-12.6563
▁뷸	-12.6564
교체	-12.6566
▁럄	-12.6566
gv	-12.6567
▁구운	-12.6569
▁켁	-12.657
▁헠	-12.6571
#	-12.6572
문득	-12.6572
테이프	-12.6574
앙앙앙	-12.6576
맙소사	-12.6577
못생김	-12.6577
▁ㅜㅅㅜ	-12.6577
규규	-12.6579
▁대강	-12.6579
▁볼지	-12.6581
오웅	-12.6582
미송	-12.6582
탱탱	-12.6582
캬우	-12.6583
대청소	-12.6583
네영	-12.6586
이김	-12.6593
아닌데요	-12.6597
▁잭	-12.6601
▁남성	-12.6601
▁드니	-12.6602
▁태워다	-12.6602
▁내밀	-12.6603
▁차가워	-12.6606
▁바비	-12.661
부끄부끄	-12.6612
▁맞춰야	-12.6612
독감	-12.6616
💘	-12.6617
▁전송	-12.6619
어묵	-12.662
▁굼은	-12.6623
바뀜	-12.6623
퓨	-12.6624
겅	-12.6625
바본가	-12.6628
▁웤ㅋㅋㅋ	-12.6628
▁횡단	-12.6628
▁강조	-12.6629
▁실버	-12.6633
▁유기	-12.6634
▁짘	-12.6638
치약	-12.6642
응큼	-12.6643
▁ㅓ서	-12.6646
▁안무	-12.6647
▁러시아	-12.6648
다담	-12.6651
▁떠날	-12.6651
▁동해	-12.6651
▁포카	-12.6652
은별	-12.6652
▁제작	-12.6654
태주	-12.6654
▁키워야	-12.6656
▁사겼	-12.6656
▁철학	-12.6658
▁재생	-12.666
줄넘기	-12.6661
게장	-12.6668
뒹구	-12.6669
▁펭귄	-12.6674
▁지적	-12.6674
슈퍼맨	-12.6675
▁ㅠㅎㅎ	-12.6678
앉	-12.668
환장	-12.6681
어여	-12.6681
▁찾아갈	-12.6682
▁체질	-12.6682
▁친군데	-12.6682
주의	-12.6686
가염	-12.6687
닭도리탕	-12.6689
▁암말	-12.6693
▁잃어버렸	-12.6694
▁뻔뻔	-12.6696
컴백	-12.6697
▁시스템	-12.6699
▁~~~♡	-12.67
미예	-12.6706
코앞	-12.6709
▁매콤	-12.671
▁언젠	-12.671
▁문서	-12.6711
▁L	-12.6713
혜미	-12.6714
▁츈	-12.6714
▁기미	-12.6717
ㅁㅇ	-12.672
이래	-12.6721
▁수습	-12.6725
▁패드	-12.6726
논다고	-12.6728
▁지낼	-12.6728
쪼	-12.6729
제육볶음	-12.673
찮	-12.673
▁팔뚝	-12.6731
😱	-12.6735
▁사격	-12.6737
외울	-12.6739
▁자른	-12.6739
▁쌍둥이	-12.674
▁자노	-12.6741
▁비쌀	-12.6741
▁얒	-12.6743
▁??!	-12.6745
▁스피커	-12.6745
▁뜨거	-12.6747
달라붙	-12.6747
▁ㅛ는데	-12.6748
▁기스	-12.6753
▁vs	-12.6755
안대	-12.6756
▁죽전	-12.6758
따리	-12.676
▁붙일	-12.676
▁됫지	-12.6761
신분증	-12.6761
인하	-12.6763
▁일자	-12.6763
▁까칠	-12.6766
누워야	-12.6766
▁한약	-12.6766
▁나갈라	-12.6767
멋대로	-12.6769
놀러갔	-12.6769
볶음	-12.6772
효니	-12.6772
▁비닐	-12.6774
▁그럴래	-12.6775
른다	-12.6775
나염	-12.6776
▁힙	-12.6777
쭈	-12.6784
쬬	-12.6787
같이	-12.679
▁신상	-12.679
▁깔려	-12.679
▁오토	-12.6793
잔업	-12.6793
▁드린	-12.6795
한국어	-12.6795
▁핳ㅎ	-12.6796
은행	-12.6797
롯데시네마	-12.6797
▁뾰	-12.6798
▁한티	-12.6801
▁지남	-12.6801
▁ㅏ아아	-12.6804
▁순진	-12.6804
▁급여	-12.6805
개무	-12.6806
앝	-12.6807
▁시체	-12.6809
▁로서	-12.681
해맑	-12.6812
요구르트	-12.6813
▁스르륵	-12.6814
▁쌓여	-12.6815
업자	-12.6815
▁구건	-12.6817
▁케이블	-12.6817
▁미스	-12.682
단백질	-12.6823
네요	-12.6823
▁중심	-12.6826
▁나배	-12.6827
쩍	-12.6828
싸워서	-12.6829
없어	-12.6832
▁ㅇ니	-12.6833
증서	-12.6833
▁가져온	-12.6833
▁잘라야	-12.6836
▁구할	-12.6839
담부	-12.6839
주예	-12.684
▁석이	-12.6842
▁곽	-12.6843
걍	-12.6845
▁사온	-12.6845
▁배꼽	-12.685
▁엮	-12.685
ㅋㄱㅋㅋ	-12.6851
나이키	-12.6854
타이레놀	-12.6854
시그널	-12.6854
▁마산	-12.6855
댓	-12.6856
한꺼번에	-12.6859
현기증	-12.686
▁살리	-12.6861
▁H	-12.6864
스카이프	-12.6866
▁이래저래	-12.6867
나잠	-12.6873
온다며	-12.6874
그곳	-12.6875
요샌	-12.6877
던데요	-12.6877
▁졸음	-12.6878
재미나	-12.688
▁테마	-12.6883
~~~	-12.6889
보여	-12.689
▁밭	-12.6894
▁김천	-12.6896
▁차야	-12.6896
▁끄덕	-12.6899
▁w	-12.6901
초코파이	-12.6901
예쁘다	-12.6905
▁두산	-12.6905
🙂	-12.6906
▁예리	-12.6907
잠그	-12.6908
▁바알	-12.6909
줄어들	-12.6912
▁우정	-12.6912
▁미용	-12.6913
찍자	-12.6918
▁닙	-12.6919
▁뽐	-12.6921
▁밨	-12.6923
▁컥	-12.6925
빠이빠이	-12.6925
▁주택	-12.6926
웅아	-12.6928
긍께	-12.6928
은진	-12.6929
▁우짤	-12.693
긍	-12.6932
닽	-12.6933
▁갘ㅋㅋㅋㅋ	-12.6933
,.	-12.6934
숩니다	-12.6934
바람	-12.6935
상훈	-12.6937
▁잃어버린	-12.6938
▁신전	-12.6944
따갑	-12.6945
꾸이	-12.6948
▁주원	-12.6949
▁움직일	-12.6954
뜩	-12.6955
▁부기	-12.6956
린당	-12.6957
만나	-12.6961
▁ㅔㅇ	-12.6962
▁덩이	-12.6964
▁인물	-12.6964
▁렌	-12.6965
룩	-12.6966
배워서	-12.6968
▁유학	-12.6974
등교	-12.6978
▁!!♡	-12.6978
▁올레	-12.6983
▁마땅	-12.6984
▁만기	-12.6988
언니	-12.6989
▁라야	-12.6989
;;;	-12.6991
▁얼만	-12.6991
▁와파	-12.6994
▁캐서	-12.6996
▁기장	-12.7002
보자나	-12.7002
▁내보	-12.7003
지수	-12.7005
▁로봇	-12.7007
▁둡	-12.7008
▁봐준다	-12.7009
거꾸로	-12.7012
▁제안	-12.7014
▁이모부	-12.7014
▁왈	-12.7015
▁피지	-12.7016
여여	-12.7017
▁조그만	-12.7018
▁준다구	-12.7018
▁한화	-12.7018
▁레기	-12.7019
▁엔젤	-12.702
▁그레이	-12.7022
▁뺀다	-12.7022
▁수사	-12.7023
▁챱챱	-12.7028
▁박물관	-12.7028
▁이열	-12.7029
▁올라올	-12.703
쭈구리	-12.7034
????	-12.7035
▁카운터	-12.7038
벨트	-12.704
▁구니	-12.7041
▁끼워	-12.7041
▁언덕	-12.7042
▁애애	-12.7044
▁리그	-12.7045
세현	-12.7045
▁댘ㅋㅋㅋ	-12.7047
노가다	-12.7049
무서운데	-12.705
그케	-12.705
젠	-12.7051
▁봣오	-12.7053
▁혜민	-12.7054
▁우진	-12.7055
아이쿠	-12.7056
▁맞춤	-12.7057
▁트럭	-12.7058
▁자판	-12.706
다던데	-12.706
털	-12.7061
▁기시	-12.7061
총	-12.7062
▁풋	-12.7063
!~	-12.7064
계속	-12.7065
▁대우	-12.7069
걱정	-12.7071
▁젓가락	-12.7071
▁엘레	-12.7072
병원	-12.7072
성훈	-12.7073
▁부엌	-12.7076
집어넣	-12.7076
▁만자	-12.708
▁훌륭	-12.7081
▁서랍	-12.7084
▁저주	-12.7085
▁누른	-12.7087
▁연서	-12.7088
▁했으면	-12.7088
▁추리	-12.7088
▁꾸며	-12.7089
힘들	-12.7094
긴다	-12.7095
멍	-12.7097
▁굴러	-12.7097
산부인과	-12.7102
설렁탕	-12.7102
▁퐈	-12.7102
텍스	-12.7102
▁.❤	-12.7107
제호	-12.7111
▁팅팅	-12.7114
▁냄비	-12.7116
웋	-12.7118
▁심사	-12.712
▁문법	-12.7122
▁난방	-12.7124
갈일	-12.7125
▁원숭이	-12.713
▁사료	-12.7131
밭	-12.7131
쓸데없이	-12.7134
▁F	-12.7137
협	-12.7137
▁ㅐ가	-12.7139
으미	-12.7139
▁괜차너	-12.714
▁채플	-12.714
롯백	-12.7141
▁남길	-12.7142
▁퀘	-12.7143
▁불꽃	-12.7144
▁닠ㅋ	-12.7145
언급	-12.7145
권태기	-12.7146
▁오른	-12.7146
▁곀ㅋㅋㅋ	-12.7147
♥♥♥♥	-12.7147
▁정민	-12.7148
텀블러	-12.715
▁가져올	-12.7153
▁주의	-12.7153
다간	-12.7154
치워야	-12.7156
반대편	-12.7158
▁채점	-12.7159
▁뒤질	-12.7159
▁이터	-12.7165
▁썻다	-12.7166
▁바닷가	-12.7166
뽀송뽀송	-12.7166
▁팥	-12.717
안알랴줌	-12.7172
▁웨이	-12.7172
▁매출	-12.7175
▁시럽	-12.7176
▁지식	-12.7181
▁오덕	-12.7182
재희	-12.7183
▁뽜	-12.7184
▁산타	-12.7185
킨	-12.7186
전문가	-12.719
안사랑	-12.7195
▁ㅇᆞ	-12.7196
d	-12.7197
▁의무	-12.7198
▁존경	-12.72
▁겈ㅋㅋㅋㅋㅋ	-12.7201
간직	-12.7202
▁거머	-12.7203
▁놨다	-12.7203
▁깤ㅋㅋㅋ	-12.7208
▁ㅇㄱ	-12.7209
어벤져스	-12.721
♥♥♥	-12.7212
▁찍찍	-12.7213
▁참석	-12.7215
잘라서	-12.7215
▁허무	-12.7216
▁하심	-12.7217
▁감싸	-12.722
▁홈런	-12.7221
▁논술	-12.7221
▁데모	-12.723
▁군자	-12.7236
R	-12.7237
예뻐요	-12.7239
▁어이쿠	-12.7242
땡	-12.7242
▁사수	-12.7246
▁울컥	-12.7248
지워야	-12.7249
▁통보	-12.7249
▁가드	-12.725
▁맞춘	-12.7253
▁옸	-12.7253
▁슈가	-12.7256
▁웤ㅋㅋㅋㅋ	-12.7257
▁얼추	-12.7258
그렇	-12.7258
▁진화	-12.7261
싶	-12.7261
▁?!!!	-12.7262
▁에베	-12.7264
기프티콘	-12.7264
종료	-12.7266
▁댯	-12.7266
니가	-12.7268
을껭	-12.7269
▁고른	-12.7271
갠톡	-12.7271
▁남색	-12.7272
▁랔ㅋㅋㅋㅋ	-12.7277
▁욕한	-12.7278
▁ㅖ	-12.7278
지원이	-12.728
▁개오	-12.7281
데기	-12.7282
▁주부	-12.7283
▁화성	-12.7285
허억	-12.7287
▁나사	-12.7288
▁글쎄요	-12.7288
조끼	-12.7289
▁깜깜	-12.7291
친구	-12.7292
▁배부른	-12.7298
▁황금	-12.7299
▁그로	-12.7301
▁바이러스	-12.7302
정리	-12.7306
용품	-12.7306
▁아암	-12.7307
▁상아	-12.7308
월급날	-12.7309
꺄	-12.731
▁외워야	-12.7311
홀	-12.7311
에엑	-12.7311
목살	-12.7312
딸	-12.7312
▁올라간	-12.7312
▁텡	-12.7314
▁욕구	-12.7315
▁할려면	-12.7315
▁껫	-12.7318
▁오금	-12.7318
▁분기	-12.7319
었겠	-12.7321
▁대유	-12.7322
▁궄ㅋㅋㅋㅋㅋ	-12.7323
멸	-12.7325
▁즁에	-12.7326
▁점프	-12.7328
▁도박	-12.7329
▁학습	-12.7329
▁동창	-12.7336
게끔	-12.7338
룽	-12.7339
▁노나	-12.7341
▁들러	-12.7345
횟집	-12.7345
블럭	-12.7346
▁차분	-12.7347
▁..;;	-12.7347
▁명령	-12.7347
친다고	-12.7351
산거야	-12.7353
와플	-12.7353
▁기다릴께	-12.7354
▁바짝	-12.7357
▁짰	-12.7359
▁형식	-12.736
내일모레	-12.7362
잘래요	-12.7363
▁후임	-12.7366
▁붉	-12.7367
▁했어야	-12.7368
▁모집	-12.7369
▁데쓰	-12.7372
▁오심	-12.7373
그냥저냥	-12.7374
예뻤	-12.7374
▁겁니까	-12.7374
▁부위	-12.7375
잔데	-12.7378
▁기뻐	-12.7379
오글거리	-12.7379
▁기쁨	-12.7381
▁대안	-12.7384
춍	-12.7384
😞	-12.7384
▁신남	-12.7384
▁빰	-12.7385
▁릭	-12.7386
세팅	-12.7388
▁유성	-12.739
▁싷	-12.7393
▁졋는데	-12.7393
싸매	-12.7395
▁우라	-12.7396
털리	-12.7396
▁쪽팔려	-12.7398
▁열심	-12.7398
외웠	-12.7399
▁드럼	-12.7403
▁튄	-12.7404
▁프라	-12.7406
거려	-12.7408
힘든가	-12.7409
▁역곡	-12.7411
어디	-12.7411
▁외부	-12.7416
▁므ㅓ	-12.742
탑	-12.7422
▁웃긴다	-12.7422
▁갑자	-12.7422
▁냑	-12.7423
▁니나	-12.7425
E	-12.7426
▁나뻐	-12.7428
브레이크	-12.7428
▁이온	-12.7429
M	-12.7429
▁뉴욕	-12.7429
▁찯	-12.743
▁아닌감	-12.7434
고향	-12.7435
▁글루	-12.7435
▁선민	-12.7436
▁해당	-12.7437
랫	-12.7438
▁원가	-12.7439
▁간절	-12.7441
▁모범	-12.7442
▁뻑	-12.7446
면서	-12.7449
구망	-12.745
ㅜㅜㅜㅜㅜ	-12.745
만화책	-12.7451
신가요	-12.7451
와아아	-12.7451
▁됫는데	-12.7454
▁생산	-12.7456
▁진해	-12.7457
▁왼	-12.7459
각이	-12.7459
▁쪼개	-12.7461
월화수	-12.7463
마러	-12.7465
나아야	-12.7466
▁물려	-12.7468
▁극단	-12.7469
슈슈	-12.747
▁!!♥	-12.7472
▁스쿨	-12.7472
▁동서	-12.7472
▁종교	-12.7474
▁똔	-12.7474
▁된데	-12.7475
지원	-12.7475
츄츄	-12.7475
숲	-12.7477
어린이집	-12.7478
▁총무	-12.7479
▁모가	-12.7479
재채기	-12.7483
위아래	-12.7483
▁진대	-12.7487
▁그러고	-12.7489
▁코난	-12.749
바람직	-12.7491
나와도	-12.7491
▁다무	-12.7492
▁계실	-12.7494
해주	-12.7494
▁오져	-12.7498
▁훈훈	-12.75
▁셀프	-12.7501
뒷모습	-12.7501
▁흣	-12.7503
▁양반	-12.7504
▁쿸	-12.7505
기다려줘	-12.7506
▁청순	-12.7512
티몬	-12.7513
▁찍히	-12.7515
▁청소년	-12.7516
T	-12.7517
걱	-12.7517
▁대도	-12.7519
붙	-12.752
미진	-12.7521
▁도망갈	-12.7521
▁큽	-12.7521
▁조장	-12.7522
▁부치	-12.7522
찌요	-12.7523
▁전투	-12.7527
▁질까	-12.7529
▁껍	-12.7532
▁ㅇㅔ	-12.7537
동준	-12.7537
▁으세	-12.7538
닭볶음탕	-12.7539
▁스캔	-12.7539
▁보태	-12.7539
▁지노	-12.754
▁엨ㅋㅋㅋㅋㅋ	-12.7541
앤	-12.7541
▁피스	-12.7541
심행	-12.7544
콩나물국	-12.7546
해애	-12.7546
▁ㅇ나	-12.755
만날래	-12.755
끝	-12.7551
▁츙	-12.7552
냈	-12.7553
▁바를	-12.7553
이상형	-12.7553
마음속	-12.7555
내려와서	-12.7556
▁수미	-12.7557
▁수줍	-12.7557
난다	-12.7558
▁냬	-12.7562
아몬드	-12.7562
▁불타	-12.7562
추움	-12.7563
벽	-12.7564
▁매정	-12.7564
머거	-12.7565
맘	-12.7566
몸보신	-12.7567
▁가부	-12.7569
▁민재	-12.7572
▁로와	-12.7574
범인	-12.7576
집들이	-12.7577
찐하	-12.7578
▁스크린	-12.7578
▁처방	-12.7578
▁ㅜㅡㅠ	-12.7583
그럴려고	-12.7584
▁송아	-12.7588
▁하체	-12.7589
▁끙끙	-12.7589
▁서서	-12.7591
꽃	-12.7592
▁고문	-12.7593
혜영	-12.7593
차암	-12.7594
▁재방	-12.7596
칸	-12.76
▁소환	-12.7601
낯설	-12.7607
부니	-12.7608
싸인	-12.7608
▁댘ㅋㅋ	-12.7608
쭉	-12.761
▁쌍수	-12.7611
▁간디	-12.7611
일세	-12.7612
▁드라고	-12.7616
▁넘어갔	-12.7617
▁하양	-12.7619
앤데	-12.762
오리고기	-12.7623
▁!@	-12.7624
▁퀸	-12.7624
묵자	-12.7626
▁쎙	-12.7627
▁쟌	-12.7627
가위바위보	-12.7628
▁ㅐㅇ	-12.7632
▁마이너스	-12.7634
댘	-12.7634
▁비켜	-12.7635
▁랰ㅋ	-12.7636
오딘	-12.7638
▁헿ㅎㅎㅎㅎㅎ	-12.7638
한대서	-12.7639
시끄러워서	-12.764
벨	-12.7641
▁쳐다봐	-12.7643
▁구영	-12.7646
▁붕붕	-12.7646
었어	-12.7646
▁화수	-12.7649
▁오애	-12.7652
▁넥	-12.7653
▁끄응	-12.7655
▁요양	-12.7656
렐	-12.7661
물어볼까	-12.7661
▁맠ㅋㅋㅋㅋㅋ	-12.7663
▁모였	-12.7666
▁토닥	-12.7667
청첩장	-12.7668
셜	-12.7668
완전	-12.7668
ㅋㄱㅋ	-12.7669
▁지대	-12.767
뱃속	-12.7674
경진	-12.7679
▁탬	-12.768
듣	-12.7681
밀렸	-12.7683
▁세탁	-12.7683
뺏기	-12.7686
쳐져	-12.7689
내료	-12.7691
혀서	-12.7692
진영	-12.7693
▁아람	-12.77
따라오	-12.7702
▁남겼	-12.7705
▁간만	-12.7706
??!!!	-12.7707
▁파파	-12.7707
애액	-12.7712
진욱	-12.7712
▁이긴	-12.7713
밥값	-12.7714
👍🏻	-12.7714
▁포스터	-12.7714
▁ㅡㅁ	-12.7715
젤	-12.7715
▁쎵	-12.7716
▁슬플	-12.772
▁시민	-12.7721
지궁	-12.7722
새꺄	-12.7722
쫄깃	-12.7725
힙합	-12.7725
▁저럴	-12.7725
요플레	-12.7726
결심	-12.7726
오타쿠	-12.7731
▁닠	-12.7731
미친놈	-12.7732
^^;;	-12.7733
▁밥상	-12.7734
건데	-12.7737
륜	-12.7738
▁월드컵	-12.7742
공휴일	-12.7742
▁일남	-12.7744
데려오	-12.7745
정말루	-12.7746
▁따라와	-12.7747
▁ㅐㅐ	-12.7751
졌어요	-12.7752
등록금	-12.7754
그리	-12.7755
▁상사	-12.7756
▁라던	-12.7757
숙이	-12.7757
챠	-12.7759
태경	-12.776
▁ㅌㅋㅋㅌ	-12.776
▁나진	-12.7761
별생각	-12.7762
▁신음	-12.7763
카봉	-12.7763
▁켄	-12.7764
인테리어	-12.7764
▁아그그	-12.7765
▁바늘	-12.7765
▁@!	-12.7768
▁장마	-12.777
문과	-12.7771
것도	-12.7772
잇어	-12.7777
▁아빤	-12.7778
▁젬	-12.7778
!!??	-12.778
▁부러운	-12.7781
▁늘려	-12.7782
빨갛	-12.7782
피러	-12.7785
거길	-12.779
▁찾아와	-12.7793
▁화상	-12.7794
렷다	-12.7795
▁총총	-12.7799
부처	-12.7801
▁밀크	-12.7801
비키니	-12.7803
못나	-12.7803
▁압박	-12.7804
▁깊이	-12.7804
▁장거리	-12.7808
▁출신	-12.7808
▁상수	-12.7809
인듯	-12.781
▁때린	-12.781
찌찌뽕	-12.781
동민	-12.7812
▁서러워	-12.7813
▁컹	-12.7813
▁솟	-12.7814
▁거품	-12.7814
▁흑흑흑	-12.7816
▁나으면	-12.7822
▁왜냐하면	-12.7822
룰루랄라	-12.7822
잡혀서	-12.7825
ㅅ어	-12.7829
▁라미	-12.783
D	-12.7831
잔치	-12.7834
▁그럴라	-12.7842
어제	-12.7842
▁~?!	-12.7843
효정	-12.7844
잖	-12.7849
▁하철	-12.7854
베이컨	-12.7856
메론	-12.7858
▁졌어	-12.7862
▁토해	-12.7863
슴돠	-12.7863
략	-12.7863
혹	-12.7864
▁ㅏㅏㅏㅏㅏ	-12.7871
▁불려	-12.7873
유웅	-12.7873
거렸	-12.7873
자막	-12.7875
▁우로	-12.7877
푸딩	-12.7881
갈켜	-12.7881
▁그늘	-12.7884
뭔데요	-12.7884
▁지코	-12.7885
더라고요	-12.7885
든다고	-12.7885
▁ㅜ힝	-12.7889
꼬이	-12.7891
▁살라	-12.7891
▁불리	-12.7891
▁지운	-12.7891
▁내라	-12.7892
쇼핑몰	-12.7893
▁서부터	-12.7894
▁쨍	-12.7894
▁오티	-12.7895
▁부추	-12.7898
▁감상	-12.79
요용	-12.7902
째	-12.7902
게시판	-12.7902
▁스노우	-12.7903
▁개시	-12.7905
알려줌	-12.7906
보인다고	-12.7907
▁낑낑	-12.7908
울려서	-12.7909
▁생물	-12.7911
▁보석	-12.7915
따신	-12.7915
▁리다	-12.7916
▁가실	-12.7916
▁ㅏㅏㅏㅏ	-12.792
닌깐	-12.7926
전골	-12.7935
무침	-12.7936
풋풋	-12.7937
체크카드	-12.7938
노란색	-12.7938
로써	-12.7945
▁사치	-12.7945
▁가소	-12.7946
▁졔	-12.7949
▁졋나	-12.7952
▁수제	-12.7953
▁로케	-12.7955
▁얌전	-12.7956
▁라디오	-12.7961
히니	-12.7961
▁사리	-12.7962
정모	-12.7964
미니미	-12.7966
▁다녀온	-12.7967
추리닝	-12.7967
버텨야	-12.7968
폴	-12.7969
속상한	-12.7971
▁뵹	-12.7972
▁얼씨구	-12.7972
▁차별	-12.7972
▁졓아	-12.7975
드라	-12.7977
▁지비	-12.7979
▁스페인	-12.7981
시력	-12.7981
▁신세	-12.7981
한데요	-12.7982
▁픙	-12.7984
▁얖	-12.7986
▁백숙	-12.7987
▁쌰	-12.799
▁진로	-12.7993
효녀	-12.7995
인날	-12.7997
▁공고	-12.7998
심란	-12.8004
▁난자	-12.8004
주자나	-12.8005
▁대통령	-12.8007
쟨	-12.8007
이스	-12.8007
▁바랄	-12.8007
별론데	-12.801
욧	-12.8011
이체	-12.8017
▁파바	-12.8017
▁지켜야	-12.8018
▁금주	-12.8018
▁흐려	-12.8019
▁-)	-12.802
냉동실	-12.8021
부려서	-12.8022
▁~~~~?	-12.8024
▁트레	-12.8028
모르	-12.8028
▁감수	-12.8031
▁무심	-12.8033
렇	-12.8033
▁을꾸	-12.8035
▁땋	-12.8038
더니만	-12.8042
끔	-12.8046
을겡	-12.8049
계약서	-12.805
▁단말	-12.8051
▁자니까	-12.8053
▁폭식	-12.8056
▁겤ㅋㅋ	-12.8057
콩	-12.8057
▁일걸	-12.8058
은정	-12.8058
짤리	-12.8059
들려야	-12.806
▁몬스터	-12.8061
▁연신	-12.8063
▁나미	-12.8063
▁가까우	-12.8064
▁조조	-12.8067
말렸	-12.8068
▁모아야	-12.8069
봐야	-12.8069
창선	-12.807
▁여잔	-12.807
회전	-12.807
쿠션	-12.8075
▁거디	-12.8076
봣	-12.808
효율	-12.808
▁스카이	-12.8082
다시	-12.8082
▁암살	-12.8083
▁썻는데	-12.8083
▁~!!!!	-12.8084
뮤	-12.8085
도차	-12.8087
▁아름다운	-12.8089
학관	-12.809
▁듬직	-12.8091
▁믐	-12.8092
▁ㅏ가	-12.8093
매매	-12.8095
▁전해줘	-12.8095
▁먹일	-12.8096
▁곀ㅋㅋㅋㅋ	-12.8098
▁서진	-12.8099
▁돌릴	-12.8099
U	-12.81
인수인계	-12.8101
▁영양	-12.8102
직장인	-12.8102
밀려서	-12.8103
큰	-12.8105
▁던킨	-12.8105
▁눙물	-12.8108
새내기	-12.8108
▁안과	-12.8112
▁닜	-12.8113
예린	-12.8114
짱깨	-12.8118
▁코끼리	-12.8119
▁된단	-12.8121
▁거칠	-12.8123
▁합주	-12.8125
졸려	-12.8126
▁쑤시	-12.8127
▁나아질	-12.8132
▁결석	-12.8132
▁!^^	-12.8132
▁잠자리	-12.8134
빈속	-12.8136
ㄸㄹㄹ	-12.8137
▁다마	-12.8139
▁ㅏ서	-12.8139
▁니자	-12.814
▁필리핀	-12.8142
▁맛보	-12.8143
으헤헤	-12.8146
▁앚	-12.8147
▁클렌징	-12.8148
▁f	-12.8148
▁틍	-12.8151
▁현준	-12.8152
졋	-12.8156
▁일거	-12.8156
▁단기	-12.8157
▁줫엉	-12.8159
J	-12.816
▁비싼데	-12.8161
▁동거	-12.8166
▁계셨	-12.8168
▁데워	-12.8168
▁꿇	-12.8172
▁화려	-12.8172
▁×	-12.8172
▁냨ㅋㅋㅋㅋ	-12.8173
▁지성	-12.8173
▁밬ㅋㅋㅋㅋㅋ	-12.8175
▁소모	-12.8176
▁데려와	-12.8176
▁소유	-12.8176
냐면서	-12.8177
피공	-12.8177
▁옝	-12.8178
▁비둘기	-12.8178
▁경희	-12.818
▁서기	-12.8182
폭행	-12.8182
▁찰싹	-12.8183
수경	-12.8184
저분	-12.8185
옆자리	-12.8187
▁나르	-12.819
▁꾀	-12.8192
▁또래	-12.8194
▁따가워	-12.8199
첩	-12.82
엎드려서	-12.8202
살아남	-12.8202
▁작작	-12.8202
▁죙일	-12.8202
▁^^♡	-12.8204
▁시동	-12.8207
매니아	-12.8209
▁커리	-12.8214
▁유경	-12.8214
현백	-12.8215
찮은	-12.8215
▁카페인	-12.8216
▁보너스	-12.8221
▁뚠	-12.8221
자를	-12.8224
▁뎈	-12.8224
▁ㅏㅁ	-12.8225
▁견적	-12.8226
쳐야지	-12.8227
▁정부	-12.8227
▁비씨	-12.8228
▁따르	-12.8231
로맨스	-12.8232
약해서	-12.8233
▁통해서	-12.8235
아파도	-12.8236
▁안동	-12.8236
띠미	-12.8238
▁홀로	-12.824
바꿔야지	-12.824
▁밌	-12.8242
▁희영	-12.8242
▁이까	-12.8244
본격	-12.8248
▁영원	-12.8249
휴휴	-12.8257
▁조이	-12.8261
▁경계	-12.8263
▁요약	-12.8263
▁소오	-12.8266
▁다미	-12.8266
우연히	-12.8269
▁부채	-12.827
▁+_+	-12.827
▁먹자	-12.8271
배기	-12.8273
▁미스터	-12.8273
안가	-12.8273
▁깻잎	-12.8274
쉐이크	-12.8274
▁견	-12.8281
앞쪽	-12.8282
▁I	-12.8283
▁떻	-12.8285
▁어흥	-12.8289
혜택	-12.8289
▁알리	-12.829
▁냘	-12.8293
나와	-12.8298
▁껍질	-12.8298
▁흘렸	-12.8299
다면서요	-12.83
아서	-12.8303
첫눈	-12.8303
고장났	-12.8304
ㅍㅍㅍ	-12.8309
▁부린	-12.8309
늘리	-12.8309
▁무어	-12.8312
둬서	-12.8313
▁잠금	-12.8313
닛	-12.8319
쳐요	-12.8321
▁라던가	-12.8322
레시피	-12.8322
어용	-12.8324
▁지쳤	-12.8326
마는	-12.8326
▁볼려	-12.8326
검은색	-12.8328
몬하	-12.833
된다며	-12.833
▁겤ㅋㅋㅋ	-12.8333
▁아르	-12.8339
▁핮	-12.834
▁사라질	-12.8342
▁출력	-12.8342
남포동	-12.8344
커피숍	-12.8347
빵이	-12.8348
▁정체	-12.8349
바보바보	-12.8349
▁동구	-12.835
핵	-12.835
엇지	-12.8351
▁벙이	-12.8353
적용	-12.8354
▁비빔	-12.8355
▁재훈	-12.8356
▁지냈	-12.8358
죄책감	-12.8358
알아주	-12.8359
▁시유	-12.8366
▁조야	-12.8367
낸	-12.8371
▁루트	-12.8372
에서부터	-12.8378
▁홍시	-12.8379
▁엏ㅎㅎ	-12.838
▁하디	-12.8381
▁정의	-12.8383
>_<	-12.8388
궁합	-12.8391
▁성우	-12.8394
볼수록	-12.8395
▁러닝	-12.8397
▁개피	-12.84
볼링장	-12.8402
▁입학	-12.8403
▁느라구	-12.8403
▁베이스	-12.8403
▁자금	-12.8404
재워야	-12.8405
▁공익	-12.8406
▁움직	-12.8406
▁잇몸	-12.8407
지친다	-12.8407
▁수시	-12.8408
난리나	-12.841
벤	-12.8411
과사	-12.8412
조식	-12.8414
▁놧는데	-12.8415
새롭	-12.8415
▁통계	-12.8415
▁걸으면	-12.8418
준다	-12.8418
▁온수	-12.8422
수제비	-12.8423
전설	-12.8423
오마이갓	-12.8425
깜빡하	-12.8427
▁이냥	-12.8428
뽀	-12.8433
▁츕	-12.8434
▁선거	-12.8438
껍데기	-12.8443
▁O	-12.8444
▁영대	-12.8446
▁연관	-12.845
▁ㅠㅎ	-12.8451
아서요	-12.8452
냄	-12.8454
▁바닐라	-12.8455
▁맺	-12.8456
▁비추	-12.8456
놓쳐서	-12.8457
▁놀랄	-12.8458
▁빱	-12.8459
▁윤수	-12.8461
갈아탔	-12.8461
▁다메	-12.8462
난주	-12.8463
▁오사카	-12.8463
▁문질	-12.8467
▁플랜	-12.8468
▁빌릴	-12.8469
물집	-12.8469
▁꺾	-12.847
▁슷	-12.847
▁실행	-12.8473
▁모금	-12.8473
▁아닙니까	-12.8474
온다	-12.8476
규리	-12.8478
▁놀랍	-12.8479
▁커튼	-12.8481
분홍색	-12.8481
식구	-12.8482
▁안추	-12.8484
▁구디	-12.8485
분리수거	-12.8486
는군요	-12.8487
씻	-12.8493
▁꺼냈	-12.8497
웃긴데	-12.85
▁난감	-12.8501
뭉치	-12.8501
▁줄줄	-12.8502
▁멈췄	-12.8504
▁봣네	-12.8505
릇	-12.8508
해산물	-12.8508
미움	-12.851
▁핳ㅎㅎ	-12.8511
ㅏ아ㅏ	-12.8512
라나	-12.8512
▁나노	-12.8512
빼빼로	-12.852
▁안잠	-12.8521
뚝	-12.8522
애칭	-12.8522
▁자퇴	-12.8522
▁랑가	-12.8523
▁상현	-12.8523
작정	-12.8524
▁후앙	-12.8525
피드백	-12.8529
보드게임	-12.8529
▁측	-12.8531
▁깤ㅋㅋ	-12.8532
or	-12.8532
▁승부	-12.8534
핸드크림	-12.8535
▁쓸래	-12.8541
바지	-12.8542
생크림	-12.8543
라잉	-12.8544
▁인공	-12.8544
▁마누	-12.8544
▁핸드	-12.8545
▁내부	-12.8548
승연	-12.8549
▁길러	-12.8555
▁떨린다	-12.8561
▁기둥	-12.8564
▁네버	-12.8565
▁들린다	-12.8565
▁사우	-12.8566
😋	-12.8566
▁타코	-12.8566
▁주노	-12.8567
▁눈알	-12.8571
므로	-12.8573
워드	-12.8575
▁웰	-12.8576
▁리모	-12.8578
업그레이드	-12.8578
물렸	-12.8581
▁스러우	-12.8582
▁으랴	-12.8585
국민은행	-12.8585
▁제이	-12.8585
▁옵션	-12.8585
사달	-12.8586
▁땁	-12.8586
▁봣어요	-12.8587
돌잔치	-12.8588
▁역삼	-12.8588
▁어려워서	-12.8591
▁그제	-12.8594
▁라스	-12.8595
▁우편	-12.8596
랍	-12.8597
▁십니다	-12.8597
벌이	-12.8597
게라도	-12.8598
▁공덕	-12.8599
▁아후	-12.8602
▁도쿄	-12.8602
▁튜브	-12.8604
희재	-12.8609
뒤쪽	-12.8614
경찰서	-12.8614
요렇게	-12.8616
▁욬ㅋ	-12.8617
▁대역	-12.8617
▁웃길	-12.8619
스틱	-12.862
쌩까	-12.8621
안취	-12.8622
▁잘생겨	-12.8624
첨	-12.8624
▁로맨틱	-12.8628
▁변호사	-12.8628
▁왛	-12.8629
▁럿다	-12.863
▁배틀	-12.863
엄서	-12.8631
웅웅	-12.8631
▁마유	-12.8633
부재중	-12.8634
▁잔디	-12.8635
▁교촌	-12.8636
▁비스	-12.8636
코딩	-12.8641
찐빵	-12.8648
▁제시	-12.8652
잘라구	-12.8653
샤샤	-12.8654
▁~~~^^	-12.8655
흔적	-12.8655
▁강력	-12.8658
▁야탑	-12.8658
▁미우	-12.866
▁둘러	-12.866
미술관	-12.8662
한테서	-12.8663
▁비자	-12.8663
생리대	-12.8664
히히히	-12.8666
▁우후	-12.8668
▁엉엉엉	-12.8669
▁어르신	-12.8672
er	-12.8677
▁지나갈	-12.8678
▁폇	-12.8678
벗기	-12.8678
▁꺄르륵	-12.8678
겨서	-12.8679
주토	-12.8685
▁식스	-12.8687
▁폿	-12.8687
▁시파	-12.8688
지훈	-12.8688
중학생	-12.869
통증	-12.869
▁끼니	-12.8691
머랭	-12.8691
▁ㅠㅇㅠ	-12.8691
▁체중	-12.8694
▁솨	-12.8694
▁명치	-12.8694
자장가	-12.8698
▁앟ㅎㅎㅎ	-12.87
▁즈음	-12.8701
칠까	-12.8702
▁가이드	-12.8703
▁중계	-12.8704
할라면	-12.8706
뻔히	-12.8708
▁나물	-12.8708
▁앟ㅎㅎ	-12.8709
설겆이	-12.8709
장난아	-12.871
극복	-12.8715
〰	-12.8716
▁혼난	-12.8719
▁미모	-12.8719
엄마	-12.872
평점	-12.8721
▁저격	-12.8724
곰탕	-12.8727
▁?♡	-12.8729
▁ㅏ니	-12.8729
▁식품	-12.8731
▁뻘쭘	-12.8734
▁나주	-12.8735
▁스마트	-12.8735
▁쬬요	-12.8738
속눈썹	-12.8741
비록	-12.8742
▁ㅇ야	-12.8742
▁다른가	-12.8743
구리	-12.8743
▁꿑나	-12.8752
▁타투	-12.8752
까말까	-12.8753
▁팔자	-12.8758
쟁	-12.8758
▁심플	-12.8761
▁복구	-12.8765
▁페톡	-12.8766
엔딩	-12.8766
▁기행	-12.8769
▁아쉬워서	-12.8772
멋쟁이	-12.8772
포켓볼	-12.8773
▁시라	-12.8773
▁아모	-12.8777
▁선릉	-12.8777
지쳐서	-12.8778
막국수	-12.8778
느려서	-12.8779
▁풍선	-12.878
뎋	-12.8782
▁❤❤❤❤	-12.8783
▁꿑	-12.8787
▁결말	-12.8787
▁동대	-12.8789
입대	-12.879
현타	-12.8793
▁단원	-12.8794
▁촤	-12.8795
일오	-12.8795
종점	-12.8797
필라테스	-12.8797
셋째	-12.8799
▁그르니까	-12.88
▁뚬	-12.8801
▁v	-12.8803
▁치아	-12.8804
쯥	-12.8804
▁신체	-12.8804
▁ㅏㅆ	-12.8805
▁넘길	-12.8807
▁웤ㅋㅋ	-12.881
▁네이비	-12.8811
옮겨야	-12.8814
▁돌려야	-12.8814
▁촐	-12.8814
륙	-12.8815
멎	-12.8816
▁쳣나	-12.8817
▁그릏	-12.8819
▁써져	-12.882
물티슈	-12.8821
▁임원	-12.8822
▁섰	-12.8823
주물주물	-12.8823
▁입시	-12.8826
▁파인	-12.8826
L	-12.8826
일층	-12.8827
▁펄	-12.8827
▁해져야	-12.8828
감자튀김	-12.8829
리조트	-12.883
비마니	-12.8832
저녁밥	-12.8836
▁ㅡㄱ	-12.8841
중간중간	-12.8842
▁바스	-12.8848
쥐	-12.8852
라이	-12.8853
▁해진다	-12.8854
▁청담	-12.8855
희경	-12.8857
글렀	-12.8858
식은땀	-12.8861
겁	-12.8863
관두	-12.8863
▁적립	-12.8866
하러	-12.8866
▁수이	-12.8867
아이고오	-12.8867
▁일진	-12.8869
이상하	-12.8869
▁예방	-12.8874
▁액션	-12.8875
▁섴ㅋ	-12.8875
아나	-12.8875
▁운행	-12.8876
▁스파이	-12.8877
▁자바	-12.8879
▁`	-12.8879
▁스릴	-12.8881
합니다	-12.8882
!?	-12.8883
간질간질	-12.8886
▁민원	-12.889
핫	-12.889
▁뜬다	-12.8891
바퀴벌레	-12.8893
라고요	-12.8894
▁요로	-12.8896
겋	-12.8899
도발	-12.8899
▁ㅓ어	-12.8904
▁철저	-12.8904
으니께	-12.8904
발언	-12.8907
해야함	-12.8912
▁시위	-12.8912
▁한정	-12.8913
▁심시	-12.8913
잤으면	-12.8913
▁인해	-12.8913
▁돼야	-12.8915
▁볼려구	-12.8915
굼	-12.8915
▁반박	-12.8917
맞춤법	-12.8919
▁도깨비	-12.8919
▁줄서	-12.892
▁쌓인	-12.892
주징	-12.8922
광안리	-12.8922
지도	-12.8924
▁스러움	-12.8926
핀	-12.8926
하얀색	-12.8928
회관	-12.8929
레깅스	-12.8931
담당자	-12.8932
방과	-12.8935
▁포토	-12.8936
▁넬	-12.8937
▁일전	-12.8937
해리포터	-12.8938
▁생각날	-12.8938
ᆞㅇ	-12.8939
▁밸	-12.8939
고작	-12.8939
▁스냅	-12.8945
▁중대	-12.8946
▁고쳤	-12.8946
만졌	-12.8951
▁예쁠	-12.8957
▁악기	-12.8957
쉰다고	-12.8962
이러	-12.8967
▁핰ㅋㅋㅋㅋㅋ	-12.8968
돌아보	-12.8968
꿈속	-12.8968
▁개새	-12.8969
▁졋지	-12.897
핑핑	-12.8971
잘했어	-12.8971
▁와봐	-12.8971
맞아	-12.8974
▁배부	-12.8974
얀	-12.8975
▁기독교	-12.8976
안쓰럽	-12.8976
▁지근	-12.8976
▁마상	-12.8978
▁괜차나여	-12.8979
▁준다는데	-12.898
아직	-12.8984
▁승진	-12.8988
다은	-12.899
▁쫘	-12.899
▁객	-12.8993
▁자책	-12.8993
▁잴	-12.8995
피카츄	-12.8996
한댕	-12.8997
▁드라구	-12.8999
▁무네	-12.9
▁무선	-12.9001
스토커	-12.9002
▁선정	-12.9004
▁미남	-12.9007
매년	-12.9009
▁핟	-12.9009
▁듭	-12.9012
▁호빵	-12.9013
▁수비	-12.9018
실래요	-12.9021
뼈	-12.9021
▁베이글	-12.9022
조심	-12.9023
의경	-12.9025
▁비유	-12.9025
매운탕	-12.9026
▁혈압	-12.9028
▁정이	-12.9028
▁럭키	-12.9029
▁끼끼	-12.9029
다지	-12.9029
▁단골	-12.9032
?.?	-12.9035
줘두	-12.9035
백업	-12.9036
▁왼손	-12.9037
흐흐	-12.9037
▁켬	-12.9038
다녀	-12.9038
끝났으면	-12.9039
골라야	-12.904
▁흔한	-12.904
▁예고	-12.9043
▁💪	-12.9043
▁고등	-12.9043
렷	-12.9046
▁쑝	-12.9046
▁탈색	-12.9046
랐	-12.9048
샘	-12.905
▁랔	-12.9052
▁클리어	-12.9054
▁빠진다	-12.9057
증명서	-12.9058
려조	-12.9059
누어서	-12.9061
복붙	-12.9062
▁..^^	-12.9062
나쁨	-12.9063
챙겨야지	-12.9063
우구구	-12.9065
▁스러웠	-12.9065
▁윈도우	-12.9067
해봐라	-12.9067
▁벌금	-12.907
한대요	-12.9073
▁ㅏ도	-12.9073
▁보보	-12.9079
할만	-12.9079
▁자누	-12.908
아요	-12.9081
▁노출	-12.9081
단단히	-12.9082
▁로드	-12.9082
▁댘ㅋㅋㅋㅋ	-12.9084
▁쓰레	-12.9084
여엉	-12.9084
▁유독	-12.9088
▁시합	-12.9088
나아요	-12.909
▁팸	-12.909
레스토랑	-12.9093
▁알레르기	-12.9093
▁사복	-12.9095
팬더	-12.9095
▁소비	-12.9096
▁교재	-12.9099
▁.....?	-12.91
그래유	-12.91
홧	-12.9102
▁다솜	-12.9103
▁댤	-12.9103
▁호르몬	-12.9106
춤	-12.9106
대한민국	-12.9106
▁녹여	-12.911
▁꼇어	-12.911
란다	-12.9111
▁올림	-12.9112
▁드신	-12.9112
종현	-12.9113
▁우렁	-12.9114
▁이겨야	-12.9116
쉴까	-12.9117
▁코치	-12.9117
▁덮치	-12.9118
려면	-12.912
▁발리	-12.9121
▁보물	-12.9123
▁동탄	-12.9123
★	-12.9124
츤데레	-12.9125
더움	-12.9126
채린	-12.9127
매형	-12.9131
들이대	-12.9132
▁용이	-12.9136
떵	-12.914
▁어떨지	-12.914
▁미투	-12.9141
세탁소	-12.9142
▁래는	-12.9143
▁반쪽	-12.9145
이럴까	-12.9146
▁랃	-12.9147
▁민중	-12.9148
닭	-12.915
어엉	-12.915
▁ㅠ왜	-12.9151
▁줫자나	-12.9153
▁갠데	-12.9154
리액션	-12.9159
주까	-12.9159
▁내과	-12.9164
성수기	-12.9165
▁됩니당	-12.9166
▁사내	-12.9169
▁지친	-12.917
에스컬레이터	-12.9171
게이트	-12.9174
▁제공	-12.9175
▁다녀올께	-12.9175
꺄악	-12.9176
▁부디	-12.9176
꼬우	-12.9176
▁쪈	-12.9177
▁옄ㅋㅋㅋㅋ	-12.9179
▁랙	-12.9181
▁ㅏㅎ	-12.9183
즘	-12.9185
▁징그러워	-12.9185
땨	-12.9186
보군	-12.9188
▁ㅠ진짜	-12.919
내시경	-12.9191
사나이	-12.9191
▁감탄	-12.9192
▁변할	-12.9193
옄	-12.9194
역쉬	-12.9196
▁합리	-12.9196
▁똬	-12.9196
쾌	-12.9197
한다고	-12.9197
▁늑	-12.9198
▁관찰	-12.9198
▁치명	-12.92
근행	-12.92
둘러보	-12.9203
▁놀구	-12.9203
▁돈다	-12.9203
▁수니	-12.9203
▁붙여야	-12.9206
▁레고	-12.9208
연강	-12.921
슬랙스	-12.9211
나요	-12.9215
▁챗	-12.9218
쓰여서	-12.9218
유진	-12.9219
▁이래야	-12.9221
▁오낭	-12.9221
▁더욱	-12.9222
꺼져서	-12.9222
▁설문	-12.9223
멘트	-12.9223
그럽시	-12.9223
▁트러블	-12.9224
▁ㅓ요	-12.9225
해봐요	-12.9226
▁흑인	-12.9227
▁닙니당	-12.9228
▁십시오	-12.9233
▁경고	-12.9234
준석	-12.9234
▁정인	-12.9235
▁쬐	-12.9236
고고싱	-12.924
▁패키지	-12.9244
🙌🏻	-12.9244
▁깁	-12.9245
▁저랬	-12.9247
우울증	-12.9249
▁햔	-12.9249
▁혐	-12.925
▁기승전	-12.925
속마음	-12.9252
전화	-12.9255
마이지	-12.9256
어렷	-12.9256
리허설	-12.9257
🥺	-12.9257
▁곸	-12.9259
▁사라진	-12.9259
마켓	-12.9261
우우	-12.9261
▁리본	-12.9262
흠	-12.9263
관장	-12.9263
▁윷	-12.9265
▁사모	-12.9269
수면제	-12.927
잔다는	-12.9275
▁디기	-12.9275
회비	-12.9275
또한	-12.9276
▁세포	-12.9279
메이크업	-12.9284
▁안달	-12.9284
▁샌들	-12.9285
▁들켜	-12.9287
꽃놀이	-12.9287
태웅	-12.9289
▁기원	-12.9289
▁배차	-12.9291
라라라	-12.9291
아플까	-12.9291
▁뜨끔	-12.9291
▁뢔	-12.9292
▁접근	-12.9293
▁코디	-12.9294
▁욕할	-12.9294
▁듕이	-12.9299
▁?^^	-12.93
▁넼	-12.93
^^;	-12.9301
정해서	-12.9303
튀기	-12.9303
가로수길	-12.9304
▁바도	-12.9305
▁맷	-12.9305
▁이직	-12.9305
▁어치	-12.9306
편해서	-12.9308
▁부페	-12.9309
천생연분	-12.931
은채	-12.9312
▁거르	-12.9313
▁분다	-12.9314
▁내조	-12.9315
자장자장	-12.9317
프린터	-12.9317
태현	-12.9317
▁아노	-12.9318
벼리	-12.9318
▁공중	-12.932
▁어쩐	-12.9323
울면	-12.9323
화냈	-12.9324
▁서빙	-12.9327
▁네모	-12.9329
▁베이지	-12.9334
▁절제	-12.9334
간다요	-12.9336
▁마케팅	-12.9337
▁성숙	-12.9337
좋아함	-12.9339
신다는	-12.9339
간간히	-12.9344
재욱	-12.9345
▁믹스	-12.9347
낮술	-12.9349
▁상추	-12.9349
부침개	-12.9351
▁어울린다	-12.9352
▁난거	-12.9356
▁태어난	-12.9357
▁이중	-12.9357
▁리듬	-12.9358
▁ㅇㅁ	-12.936
▁패치	-12.936
▁쿼	-12.9361
▁장르	-12.9361
▁디아	-12.9362
스킨십	-12.9364
합치	-12.9366
왜애	-12.9366
▁ㅔ헤	-12.9367
▁동아	-12.9367
▁명함	-12.9369
▁와나	-12.9369
▁목숨	-12.9371
▁전복	-12.9371
해줄게요	-12.9373
▁오목	-12.9374
▁지정	-12.9375
줄까요	-12.938
여조	-12.9383
▁해외여행	-12.9384
▁마스	-12.9384
▁명수	-12.9384
안낭	-12.9384
▁불법	-12.9385
▁꺙	-12.9386
▁저긴	-12.9388
긔	-12.9389
▁도마	-12.9395
오래	-12.9395
▁더더	-12.9396
▁주점	-12.9398
▁궁둥이	-12.9398
▁짐승	-12.9403
▁동원	-12.9404
▁따져	-12.9405
백종원	-12.9407
▁두루	-12.9407
▁더군	-12.9408
안되	-12.9409
•	-12.9409
▁껜	-12.9411
어랏	-12.9414
▁아연	-12.9414
욕심쟁이	-12.9419
▁퍄	-12.942
▁하이고	-12.942
▁땡땡이	-12.9421
▁드로	-12.9422
▁효자	-12.9423
▁나비	-12.9424
래쉬	-12.9424
▁호로	-12.9425
▁빙고	-12.9425
▁쉘	-12.9427
G	-12.943
본다구	-12.9431
계란찜	-12.9431
색칠	-12.9432
이닝	-12.9433
▁곀ㅋㅋ	-12.9433
▁귓	-12.9434
삼각대	-12.9435
▁구속	-12.9435
w	-12.9436
▁환기	-12.9438
▁P	-12.9441
!!♡♡	-12.9442
▁내려올	-12.9444
▁캐나다	-12.9444
▁재능	-12.9446
▁쨈	-12.945
▁나올까	-12.9452
써써	-12.9452
▁햌ㅋ	-12.9452
▁펫	-12.9453
어떠케	-12.9454
▁였을	-12.9457
성진	-12.9458
▁덤벼	-12.9458
습니다	-12.9459
▁구와	-12.9459
▁삔	-12.9461
진아	-12.9462
으꼬	-12.9463
▁로비	-12.9466
▁얄밉	-12.9466
▁후이	-12.9468
멈	-12.9468
▁기죽	-12.9469
▁젝	-12.9471
▁팠	-12.9473
대빵	-12.9473
드림	-12.9474
▁잌ㅋ	-12.9475
▁?!?!	-12.9476
▁얶	-12.9476
쿜	-12.9476
파인애플	-12.9478
공유기	-12.948
▁불러줘	-12.948
▁러니	-12.9482
▁예기	-12.9483
▁ 	-12.9483
▁가르	-12.9484
추어탕	-12.9487
▁🙏	-12.9489
존나	-12.9494
▁우면	-12.9496
습기	-12.9496
죠타	-12.9496
사장	-12.9497
닷	-12.9498
▁저금	-12.95
나와야지	-12.9501
▁줄일	-12.9503
원랜	-12.9506
▁븅신	-12.9506
밝히	-12.951
▁싰	-12.951
▁까나	-12.9512
▁뱌뱌	-12.9512
내역	-12.9513
기로	-12.9513
▁서술	-12.9514
헛	-12.9515
▁수동	-12.9516
죻	-12.9516
▁상동	-12.9518
▁기다릴까	-12.9518
▁긘	-12.9521
▁윤기	-12.9524
▁스피드	-12.9526
출근길	-12.9528
영훈	-12.9528
▁걸치	-12.953
▁미란	-12.9531
▁정글	-12.9531
우스	-12.9533
▁마친	-12.9536
▁카라	-12.9537
▁뮈	-12.9538
▁이리저리	-12.9539
▁므야	-12.9544
박이	-12.9545
⭐	-12.9546
▁그년	-12.9546
카와이	-12.9546
요건	-12.9547
▁간댕	-12.9549
▁커졌	-12.9551
▁물러	-12.9554
진희	-12.9555
우음	-12.9559
▁짇	-12.9559
▁깨진	-12.9561
▁집합	-12.9561
덥	-12.9562
교과서	-12.9563
▁수선	-12.9563
ㄱㄲ	-12.9565
▁럿어	-12.9565
웨이	-12.9566
▁침착	-12.9568
다짐	-12.9568
ᆞㄱ	-12.9568
깃	-12.9569
고기	-12.9569
▁반가	-12.9572
폭염	-12.9572
▁알아봐야	-12.9573
지하상가	-12.9573
▁횡	-12.9575
▁돜ㅋㅋ	-12.9576
질까봐	-12.9578
걸린데	-12.9578
▁언닌	-12.9579
▁ㅠㅗ	-12.958
▁고와	-12.9581
▁아선	-12.9582
☆	-12.9583
햇살	-12.9583
햇님	-12.9585
▁히트	-12.9587
😏	-12.9587
악보	-12.959
▁그럴려	-12.9591
성향	-12.9591
▁가식	-12.9591
I	-12.9591
▁산대	-12.9591
될까봐	-12.9592
영준	-12.9593
▁반병	-12.9593
▁스윗	-12.9594
슬아	-12.9595
▁초보	-12.9596
▁보여야	-12.9596
▁..?!	-12.96
▁밤낮	-12.9601
▁윌	-12.9603
▁성재	-12.9604
▁다더라	-12.9604
거같아	-12.9605
ㄱㄱㅋ	-12.9605
▁번쩍	-12.9608
▁물린	-12.9611
양배추	-12.9614
사춘기	-12.9614
▁억지	-12.9617
▁소이	-12.9617
▁책임져	-12.9618
동물원	-12.9619
▁큐티	-12.9621
▁인수	-12.9625
▁바탕	-12.9628
텔레파시	-12.9628
▁귀가	-12.9629
리필	-12.9629
전화기	-12.963
그라믄	-12.9633
▁러버	-12.9633
▁다방	-12.9634
해킹	-12.9637
▁북대	-12.9637
져도	-12.9638
인싸	-12.9638
욜	-12.9642
옹이	-12.9643
▁모입	-12.9643
▁구구구	-12.9644
장보고	-12.9646
낵	-12.9646
ㅈㅈ	-12.9646
간댱	-12.9648
▁민하	-12.9651
세진	-12.9652
재촉	-12.9653
▁사이드	-12.9655
▁핫바	-12.9656
😧	-12.9656
▁병아리	-12.9656
▁문경	-12.9657
톰	-12.9658
짱짱맨	-12.9658
▁은경	-12.9658
▁미역	-12.966
분발	-12.9661
▁신난	-12.9663
대로	-12.9665
▁콧	-12.9671
쓰래	-12.9671
▁핳핳	-12.9671
▁다루	-12.9673
▁라이트	-12.9674
▁기린	-12.9674
▁랐어	-12.9676
뻥쟁이	-12.9676
▁가산	-12.9677
껀가	-12.9681
▁달렸	-12.9684
윙크	-12.9686
▁잔대	-12.9687
▁혼날	-12.9687
정민	-12.9688
▁스퀘어	-12.9688
▁화끈	-12.9689
▁실천	-12.9689
▁막대	-12.9692
느낌표	-12.9693
▁?!?!?	-12.9693
▁근까	-12.9694
무서워하	-12.9701
▁푹신	-12.9701
▁숏	-12.9703
둥글	-12.9704
겸사겸사	-12.9704
▁양호	-12.9709
▁꺠	-12.9712
▁혐오	-12.9713
앞	-12.9714
▁봣자나	-12.9714
노농	-12.9715
▁까이	-12.9715
▁짴ㅋㅋㅋ	-12.9717
▁짼	-12.9717
▁풍경	-12.972
존못	-12.9721
▁입혀	-12.9721
거림	-12.9722
부자	-12.9722
▁대성	-12.9722
렉스	-12.9722
친해서	-12.9723
▁강당	-12.9723
▁톨	-12.9723
해도	-12.9727
무서워요	-12.9729
▁태권	-12.973
겟네	-12.9732
물먹	-12.9733
▁생략	-12.9733
몽몽이	-12.9734
자고	-12.9734
▁할배	-12.9736
준다며	-12.9737
팀원	-12.9742
▁데드	-12.9748
▁시각	-12.9749
▁주장	-12.975
음청	-12.975
콤	-12.9752
차려야	-12.9753
돼지	-12.9753
링클	-12.9756
병준	-12.9759
쟝	-12.976
▁장문	-12.976
▁만유	-12.9763
뭇	-12.9766
▁k	-12.9766
▁반데	-12.9768
▁간부	-12.9768
중야	-12.9773
고스톱	-12.9775
뢰	-12.978
▁재민	-12.978
아프	-12.9782
▁썽ㅎㅎ	-12.9785
▁돌아다닐	-12.9786
▁홍석	-12.9786
▁분리	-12.9786
▁송금	-12.9787
▁달성	-12.9787
▁주전	-12.9789
▁유림	-12.9789
먄	-12.9789
듕	-12.9789
▁파우	-12.9793
음식물	-12.9794
▁스펙	-12.9794
무구	-12.9794
▁외삼촌	-12.9795
봉인	-12.9795
▁곶	-12.9796
쌓였	-12.9796
이따	-12.9798
▁른거	-12.9802
데유	-12.9803
▁아하하	-12.9803
▁~~~!!!	-12.9805
▁숫	-12.9806
▁민희	-12.9806
▁대머리	-12.9807
룻	-12.9809
어욧	-12.981
▁부스	-12.9813
을수록	-12.9814
▁탭	-12.9815
트레이너	-12.9816
▁길드	-12.9816
ㅒ	-12.9816
빠져나가	-12.9817
잣	-12.9819
달라	-12.9821
갈려면	-12.9822
▁상식	-12.9823
▁선우	-12.9828
▁쓸모	-12.9829
▁달라진	-12.9829
비주얼	-12.983
궁굼	-12.983
▁빌딩	-12.9831
▁놓칠	-12.9831
저절로	-12.9832
놔	-12.9832
단추	-12.9833
슬금	-12.9835
분당선	-12.9835
웡	-12.9835
!!@	-12.9835
▁꼬여	-12.9836
유산소	-12.9838
장군	-12.9839
전애	-12.9839
지켜줄	-12.984
▁유연	-12.984
베테랑	-12.9844
▁멘토	-12.9845
찾아봐야지	-12.9846
준서	-12.9847
집중력	-12.9851
▁깈ㅋㅋㅋㅋㅋ	-12.9852
▁최소한	-12.9853
▁술마	-12.9854
▁자마	-12.9856
▁크리	-12.9858
나두	-12.986
▁간다니	-12.9862
래두	-12.9862
르륵	-12.9862
▁가난	-12.9864
찢어지	-12.9865
근력	-12.9865
▁울렸	-12.9866
▁훼	-12.9867
붙여서	-12.9867
방심	-12.9869
키런	-12.9873
요놈	-12.9874
▁돟	-12.9875
셔야죠	-12.9876
벼	-12.9876
▁왕왕	-12.9877
!?!?!?	-12.9882
▁뚤	-12.9882
싸이코	-12.9882
▁거린	-12.9882
얘	-12.9884
올라서	-12.9885
▁잨ㅋㅋㅋ	-12.9886
"	-12.9887
▁방전	-12.9887
클났	-12.9889
했잖아요	-12.9889
몰카	-12.9889
생활비	-12.9891
급히	-12.9891
▁차렸	-12.9892
됨	-12.9892
▁안목	-12.9892
▁뭍	-12.9893
▁무식	-12.9893
왘	-12.9894
둬	-12.9895
▁~???	-12.9895
▁생강	-12.9895
▁가공	-12.9896
▁끀	-12.9896
을겨	-12.9898
▁안개	-12.9899
▁어려웠	-12.9904
▁히야	-12.9909
▁포켓	-12.9909
빼놓	-12.9909
한다던데	-12.9911
▁편입	-12.9911
▁~~~??	-12.9911
▁썽ㅋㅋ	-12.9912
▁한양대	-12.9914
닭다리	-12.9919
▁올테	-12.9921
씨지비	-12.9921
퇴근길	-12.9921
▁핳ㅎㅎㅎ	-12.9923
▁스르르	-12.9923
스님	-12.9925
▁발아	-12.9925
말려야	-12.9927
▁디지털	-12.9928
▁꼼꼼	-12.9931
힘주	-12.9931
▁뿌셔	-12.9931
눅	-12.9931
여라	-12.9933
▁웜	-12.9933
▁설렌	-12.9933
▁단단	-12.9934
▁된다니까	-12.9936
짝사랑	-12.9937
별개	-12.9942
공책	-12.9943
미침	-12.9943
첫차	-12.9943
▁잡지	-12.9944
▁애틋	-12.9945
일행	-12.9945
▁베스	-12.9946
▁정국	-12.9947
▁굴리	-12.9949
후라이드	-12.995
콧구멍	-12.995
▁오븐	-12.9951
▁회화	-12.9953
▁가벼워	-12.9953
유딩	-12.9953
▁악어	-12.9954
▁부른다	-12.9954
셉	-12.9957
▁깨져	-12.9957
▁꼬지	-12.9959
ㅌㅌㅌ	-12.9964
▁놀란	-12.9967
체육복	-12.9968
▁신논현	-12.9971
하늘색	-12.9973
▁광대	-12.9976
▁다래	-12.9977
▁zz	-12.9978
▁즙	-12.998
▁다닌다	-12.998
엇는데	-12.9982
▁땟어	-12.9984
도라에몽	-12.9985
▁툭툭	-12.9985
볼까	-12.9986
▁허접	-12.9987
챙피	-12.9988
느님	-12.9989
▁느껴진다	-12.9989
▁연희	-12.9991
코스프레	-12.9992
그래에	-12.9993
지나치	-12.9997
▁에이스	-12.9997
쉬움	-12.9998
도업	-13.0001
쳐라	-13.0003
▁디디	-13.0006
동규	-13.0006
목감기	-13.0006
넴	-13.0007
▁닥터	-13.001
▁랳	-13.0011
▁소홀	-13.0013
카페베네	-13.0014
(	-13.0014
▁열라	-13.0016
질러	-13.0016
ㅌㅌㅌㅌㅌ	-13.0017
대장	-13.0018
▁스리	-13.002
~!~!~!	-13.0021
▁꿰	-13.0021
▁뚝딱	-13.0022
▁지장	-13.0029
효민	-13.003
▁룜	-13.0031
▁죽인다	-13.0031
▁대야	-13.0033
안겨서	-13.0033
▁서초	-13.0035
▁고선	-13.0037
이제서야	-13.0037
쩡	-13.0037
씻기	-13.0038
▁채소	-13.004
중국인	-13.004
곤가	-13.004
▁후리	-13.0041
무지무지	-13.0042
▁돵	-13.0043
▁흫ㅎ	-13.0045
나오	-13.0045
햄스터	-13.0046
▁귝	-13.0048
▁해머	-13.0049
▁봣을때	-13.0051
?!!	-13.0052
램	-13.0054
방치	-13.0055
구래	-13.0056
▁활발	-13.0058
불러요	-13.0061
▁타지	-13.0063
일으키	-13.0064
사모님	-13.0064
간당간당	-13.0064
디스크	-13.0064
▁ㅑ지	-13.0066
▁파라	-13.0069
▁따라갈	-13.0072
▁웟지	-13.0079
▁문구	-13.0079
스레	-13.0079
▁몰리	-13.0081
▁짯	-13.0084
지연	-13.0084
▁신규	-13.0085
▁세부	-13.0087
▁망가	-13.009
줄래요	-13.009
붕	-13.0091
▁모카	-13.0091
▁기쁜	-13.0094
▁명심	-13.0095
▁궄ㅋㅋㅋ	-13.0095
▁왁스	-13.0095
▁무늬	-13.0099
데려다줄	-13.01
밥솥	-13.0102
▁ㅓㅁ	-13.0102
▁라이프	-13.0105
뿐	-13.0105
▁핌	-13.0105
징징대	-13.0108
▁내신	-13.0108
▁여사	-13.011
식비	-13.0111
껄	-13.0112
부리	-13.0114
호기심	-13.0114
▁초췌	-13.0114
▁충주	-13.0118
나융	-13.012
▁셰	-13.012
각안	-13.012
흑역사	-13.0121
▁번지	-13.0122
▁바이바이	-13.0122
▁과식	-13.0124
▁랠	-13.0126
했어	-13.0127
▁스러울	-13.0128
소민	-13.0129
현규	-13.0132
족보	-13.0133
▁움직여야	-13.0133
▁kg	-13.0136
▁땄	-13.0137
흑	-13.014
간신히	-13.0144
▁쏜	-13.0144
견디	-13.0148
어려움	-13.0148
▁는감	-13.0149
풍기	-13.0149
ㅏㅏ	-13.0149
꾸벅꾸벅	-13.015
▁비디오	-13.015
까르보	-13.015
주무셨	-13.0151
견과	-13.0152
하지용	-13.0152
▁조급	-13.0153
즁	-13.0154
▁W	-13.0156
▁분양	-13.0157
짤	-13.0158
▁졓	-13.0159
본지	-13.0159
김치전	-13.0162
▁옼ㅋㅋㅋ	-13.0163
▁일어난다	-13.0164
▁서양	-13.0164
댔어	-13.0165
▁승호	-13.0168
노스	-13.0169
▁매실	-13.0169
▁구해야	-13.0169
▁하키	-13.0171
▁줄지	-13.0172
😖	-13.0172
▁요우	-13.0175
▁소다	-13.0177
▁플라	-13.0177
사연	-13.0177
▁봨ㅋㅋㅋ	-13.0177
▁넙	-13.0178
필통	-13.0179
울학교	-13.018
▁강철	-13.0182
추오	-13.0183
▁우욱	-13.0186
괌	-13.0187
▁동중	-13.019
▁연아	-13.0191
다녀올게요	-13.0195
@@	-13.0195
별게	-13.0196
▁ppt	-13.0197
주무셔요	-13.0198
▁통제	-13.02
궤	-13.0201
셔유	-13.0204
▁코너	-13.0208
온거	-13.0209
▁자위	-13.0211
사랑해	-13.0212
갼	-13.0216
질릴	-13.0217
▁꾸지	-13.0217
안들	-13.0218
어려서	-13.0219
사란	-13.0221
▁친가	-13.0222
▁빼박	-13.0225
▁우려	-13.0226
▁차노	-13.0226
윤아	-13.0227
어느새	-13.0228
▁대형	-13.023
▁아코	-13.0233
반년	-13.0233
▁곡성	-13.0235
마쳐서	-13.0236
▁기관	-13.0237
희정	-13.0238
컬	-13.0238
▁p	-13.0238
일보	-13.024
▁다람쥐	-13.0244
스튜디오	-13.0245
▁무라	-13.0246
▁흐뭇	-13.0248
두국	-13.025
누룽지	-13.0252
▁매미	-13.0256
▁대결	-13.0258
해야겠어	-13.0258
▁포옹	-13.0259
▁주우	-13.026
욯	-13.0261
고로케	-13.0261
트리	-13.0264
▁키위	-13.0265
청개구리	-13.0267
▁무얼	-13.0268
▁땡땡	-13.027
▁장수	-13.0271
닐	-13.0271
▁돜ㅋㅋㅋㅋㅋ	-13.0273
구낭	-13.0273
😠	-13.0274
▁걸어와	-13.0275
▁|	-13.0275
입석	-13.0275
갈걸	-13.0277
심통	-13.0282
▁남긴	-13.0283
홓	-13.0284
내려	-13.0284
▁넘겼	-13.0284
무장	-13.0285
마실래	-13.0286
비랑	-13.0286
▁쭐	-13.0288
▁로우	-13.0291
곧잘	-13.0292
색기	-13.0292
▁보낸다	-13.0293
겠어요	-13.0296
괴	-13.0297
&	-13.0299
▁라마	-13.0301
▁페이스	-13.0301
오오	-13.0302
▁왭	-13.0303
❤❤❤❤❤	-13.0303
▁정희	-13.0303
블라우스	-13.0304
아이언맨	-13.0304
▁cm	-13.0304
▁전반	-13.0305
▁빌렸	-13.0306
지현	-13.0307
손잡이	-13.0308
▁양복	-13.0309
장모님	-13.0311
▁때린다	-13.0312
허류	-13.0313
출금	-13.0316
▁듈	-13.0318
▁출입	-13.0322
▁사유	-13.0324
누규	-13.0324
아까	-13.0326
▁만취	-13.0326
▁이봐	-13.0328
▁구성	-13.0328
ㅋㄱ	-13.0329
▁갈라면	-13.033
▁장이	-13.0337
부방	-13.0338
▁불행	-13.0339
▁연금	-13.0341
싸대	-13.0343
복싱	-13.0344
▁영인	-13.0346
넘어오	-13.0349
▁최신	-13.035
▁도와줘	-13.035
▁툴	-13.0352
깁스	-13.0353
▁미생	-13.0354
현우	-13.0354
▁는다면	-13.0356
▁상어	-13.0357
때려쳐	-13.0362
욀	-13.0363
▁중복	-13.0365
속상해서	-13.0369
▁뜽	-13.0371
▁ㅜㅎ	-13.0374
재혁	-13.0375
버스비	-13.0376
옇	-13.0376
▁덱	-13.0377
빻	-13.0378
여러모로	-13.0378
▁칙칙	-13.0378
▁미금	-13.0378
▁설리	-13.0378
▁리퍼	-13.0379
▁개야	-13.0379
C	-13.038
자자자	-13.0381
낀데	-13.0382
▁성의	-13.0382
▁더듬	-13.0382
▁오른손	-13.0383
안보	-13.0384
각각	-13.0386
해줘	-13.0389
부지런히	-13.0389
▁달릴	-13.039
분량	-13.039
▁최강	-13.0391
▁붙인	-13.0393
주워먹	-13.0394
▁질렀	-13.0395
▁정수	-13.0396
▁놓쳐	-13.0397
▁진단	-13.0399
챙겨와	-13.0404
버그	-13.0406
▁싳어	-13.0407
▁피디	-13.0407
될	-13.0407
델	-13.0412
▁황당	-13.0415
관가	-13.0416
▁ㅇ오	-13.0416
코딱지	-13.0417
식혜	-13.0417
다르	-13.0418
닝닝	-13.0418
▁붕어	-13.0422
갈릭	-13.0423
니스	-13.0423
▁얃	-13.0424
▁몽롱	-13.0425
유소	-13.0426
▁희생	-13.0427
▁벌려	-13.0428
뒀	-13.043
▁킵	-13.0432
술술	-13.0432
경비실	-13.0434
렙	-13.0437
철수	-13.0438
쉬야	-13.044
애기네	-13.0443
눈물나	-13.0448
▁보경	-13.0449
팔짱	-13.045
속이	-13.0451
▁워커	-13.0452
▁대꾸	-13.0452
▁읻	-13.0454
▁들여	-13.0456
글씨체	-13.0457
▁순환	-13.0458
▁민성	-13.0458
비실	-13.0459
씬	-13.0459
만용	-13.0463
엨	-13.0463
시점	-13.0463
▁갘아	-13.0465
▁트레이닝	-13.0467
▁원아	-13.0469
아아아아	-13.047
▁반영	-13.0471
저쪽	-13.0473
▁뉜	-13.0474
야시장	-13.0475
들려주	-13.0475
음조	-13.0475
Y	-13.0476
▁관람	-13.0476
시러	-13.0477
▁ㅇ우	-13.048
순하	-13.0481
▁느껴졌	-13.0482
다래끼	-13.0482
비슷비슷	-13.0483
때로	-13.0485
▁~~~♥	-13.0486
▁편도	-13.0488
▁과실	-13.0488
▁객관	-13.0488
하지마	-13.0495
곧	-13.0495
덜렁	-13.0496
▁주주	-13.0498
▁ㅇ에	-13.0498
▁인구	-13.0499
대는데	-13.0499
▁으오	-13.0501
▁퍼지	-13.0503
밬	-13.0503
쏟아지	-13.0504
준비	-13.0505
아무런	-13.0508
▁사인	-13.0508
▁갈겨	-13.0508
▁뷰티	-13.0509
뭉	-13.0511
▁수입	-13.0514
르릉	-13.0515
▁해뜨	-13.0516
▁슘	-13.0516
▁도형	-13.0517
▁윤아	-13.0517
껀디	-13.0518
▁갛	-13.0519
▁양평	-13.052
에어	-13.0522
▁띤	-13.0523
▁위장	-13.0523
▁~♥♥	-13.0524
튕기	-13.0528
▁차릴	-13.0528
형준	-13.0529
시렵	-13.053
▁방탄	-13.0531
▁한겨	-13.0531
흐흥	-13.0533
▁잿	-13.0533
▁짴ㅋㅋㅋㅋ	-13.0534
닉네임	-13.0534
놔도	-13.0536
▁거미	-13.0536
▁어려우	-13.0536
▁가신	-13.0538
호해	-13.054
한나	-13.0541
킹스맨	-13.0542
퐝	-13.0542
니거	-13.0543
버블티	-13.0543
▁봬	-13.0543
용어	-13.0544
▁저축	-13.0546
머리띠	-13.0548
▁상승	-13.055
▁영진	-13.055
▁야스	-13.0553
정동	-13.0554
식히	-13.0555
원빈	-13.0556
바라	-13.0557
▁부쳐	-13.0557
설렜	-13.0557
살아나	-13.056
뻔하	-13.0561
낸다고	-13.0562
약발	-13.0564
▁충성	-13.0565
내품	-13.0566
스피	-13.0567
바디	-13.0567
섭취	-13.0569
라구우	-13.057
▁채울	-13.0571
떡갈비	-13.0572
입어	-13.0574
정품	-13.0576
▁바뿐	-13.0577
동욱	-13.0579
레전드	-13.058
▁수기	-13.0581
다강	-13.0582
▁엏ㅎ	-13.0587
온대요	-13.0588
오락실	-13.0588
▁쫒아	-13.059
▁조져	-13.0591
▁소재	-13.0592
▁복정	-13.0594
이히히히	-13.0595
댄다고	-13.0595
정수기	-13.0596
목어	-13.0596
▁닺	-13.0596
▁재산	-13.0598
▁보여줌	-13.0598
한다면서	-13.06
▁대접	-13.0602
▁호강	-13.0603
▁펙	-13.0604
▁좋아한다	-13.061
▁늨	-13.0611
▁전교	-13.0612
▁독해	-13.0612
어진	-13.0614
능력자	-13.0614
▁당해서	-13.0615
피닝	-13.0617
브런치	-13.0617
▁넥타이	-13.0617
남자	-13.0618
▁파괴	-13.0619
▁쮸용	-13.0621
야무지	-13.0622
대리점	-13.0622
▁말릴	-13.0622
▁시무	-13.0624
▁치울	-13.0624
준대서	-13.0625
앆	-13.0625
쟀	-13.0625
▁끵	-13.0626
빡	-13.0627
▁아랫	-13.063
▁자상	-13.0632
또는	-13.0632
|	-13.0634
▁발령	-13.0635
▁들오	-13.0635
문제집	-13.0635
▁집회	-13.064
샆	-13.064
지퍼	-13.0641
ㅌㅌㅌㅌ	-13.0641
너모	-13.0643
크러쉬	-13.0644
▁예수	-13.0646
슬퍼서	-13.0647
▁쏜다	-13.0648
▁놨었	-13.0649
▁캐드	-13.0651
▁케이티	-13.0652
웃겨	-13.0653
어두워서	-13.0654
이빠이	-13.0656
안돼	-13.0656
▁약정	-13.0657
▁sk	-13.0661
▁수저	-13.0661
▁요러	-13.0662
독특	-13.0663
▁일주일	-13.0664
아껴서	-13.0666
전라도	-13.0668
여자	-13.0669
▁오산	-13.0669
▁남주	-13.067
▁무궁화	-13.0671
▁선호	-13.0672
▁잨ㅋㅋ	-13.0672
딴소리	-13.0672
인사동	-13.0673
반했	-13.0673
▁맡길	-13.0673
헉	-13.0675
▁유효	-13.0676
섴	-13.0677
쓰레기통	-13.0677
▁영웅	-13.0678
뇸	-13.0678
q	-13.0678
쾅쾅	-13.0678
엌ㅋㅋㅋㅋ	-13.068
▁싴	-13.0681
그럴	-13.0682
그래서	-13.0684
▁현미	-13.0684
▁개불	-13.0685
걀	-13.0685
▁👊	-13.0687
지않	-13.069
▁실종	-13.069
윤정이	-13.0692
나왔었	-13.0692
그러가	-13.0692
쳔	-13.0694
▁유자	-13.0694
득템	-13.0694
개꿈	-13.0695
뚜디	-13.0695
▁얕	-13.0697
▁나갈래	-13.0698
물마	-13.0699
▁샤프	-13.0702
▁너머	-13.0702
보증금	-13.0702
▁우루	-13.0704
나빠서	-13.0705
▁나인	-13.0705
▁아산	-13.0706
▁민이	-13.071
지방	-13.0712
▁산업	-13.0714
벅	-13.0717
슈크림	-13.0718
욕했	-13.0719
수석	-13.072
뒤척	-13.0723
▁건다	-13.0724
아쿠아리움	-13.0724
불러도	-13.0724
예은	-13.0725
▁조하	-13.0725
▁오유	-13.0728
▁비키	-13.0728
▁저어	-13.0728
▁붑	-13.0729
마무	-13.0729
▁하얘	-13.073
자규	-13.073
본방	-13.0731
▁이레	-13.0731
내탓이	-13.0732
▁병점	-13.0733
뚱	-13.0737
롱이	-13.0737
▁안성	-13.0737
라던지	-13.0738
▁깜찍	-13.0739
▁스케치	-13.0739
부작용	-13.074
왴	-13.0741
ㄸ	-13.0743
▁퀵	-13.0743
방황	-13.0744
▁우애	-13.0745
▁켈	-13.0746
▁ㅏ야	-13.0746
김칫국	-13.0747
둘까	-13.0748
법칙	-13.0748
델러	-13.0749
건감	-13.0751
▁실적	-13.0752
▁배추	-13.0752
외계인	-13.0755
원행	-13.0755
▁괸	-13.0758
치기	-13.0759
거업	-13.0762
갈등	-13.0762
답정너	-13.0763
대중교통	-13.0763
그럴까요	-13.0764
▁찟	-13.0768
▁시시	-13.0771
▁번갈	-13.0771
치가	-13.0772
수작	-13.0772
▁ㅛ지	-13.0774
▁쾅	-13.0777
물회	-13.0778
▁간지러워	-13.0778
▁크흐	-13.0778
쿤	-13.078
▁에비	-13.078
고야	-13.0781
▁나연	-13.0782
헨	-13.0783
▁날아갈	-13.0787
이프	-13.0789
종석	-13.0791
▁>?	-13.0791
숑	-13.0792
서두르	-13.0794
에에	-13.0795
웈	-13.0795
박보영	-13.0796
배고파아	-13.0798
▁한다더니	-13.0799
▁죱	-13.08
▁퀘스트	-13.0801
구랴	-13.0803
옆방	-13.0807
▁뀨잉	-13.0808
폭	-13.0808
경상도	-13.0809
▁뚝뚝	-13.0809
▁쓱	-13.081
스샷	-13.081
▁챔	-13.0812
는중	-13.0813
병맛	-13.0813
▁충무로	-13.0814
▁인재	-13.0816
▁아쉬웠	-13.0817
갓네	-13.0817
찾아	-13.0818
있어	-13.0821
보검	-13.0822
▁꿀꿀이	-13.0824
후면	-13.0825
▁그런대	-13.0826
▁내복	-13.0827
입히	-13.0832
동그라미	-13.0832
ㅌㅋㅋㅋㅋㅋㅌ	-13.0833
▁정복	-13.0835
▁도후	-13.0839
클래식	-13.084
젠가	-13.0844
▁따끔	-13.0846
▁걸랑	-13.0846
쫀	-13.0848
안드로이드	-13.0848
풋살	-13.0849
스테이	-13.085
▁탈탈	-13.085
내배	-13.085
죵	-13.0851
▁반가워	-13.0854
을지도	-13.0855
재주	-13.0855
혬	-13.0856
▁~~❤	-13.0857
▁경희대	-13.0858
▁촬	-13.0859
▁가졌	-13.0859
창가	-13.0861
▁물어뜯	-13.0863
▁리라	-13.0864
▁r	-13.0864
무그	-13.0865
▁단정	-13.0866
▁일방	-13.0868
이케아	-13.0868
▁츤	-13.0868
▁숙대	-13.087
▁상호	-13.087
▁여시	-13.087
!!♡	-13.0871
▁일마	-13.0872
▁~?♡	-13.0872
▁인문	-13.0873
▁렇지	-13.0873
▁교장	-13.088
걸어도	-13.0881
파이브	-13.0881
▁진입	-13.0882
▁동주	-13.0883
▁엫	-13.0883
워킹	-13.0885
죄인	-13.0886
증명사진	-13.0887
▁봣당	-13.0891
지니	-13.0894
▁진한	-13.0894
챱	-13.0894
볼펜	-13.0895
을게	-13.0895
피임약	-13.0895
승원	-13.0896
▁탈모	-13.0896
▁조작	-13.0897
▁틀림	-13.0899
들림	-13.09
▁포동	-13.0901
😎	-13.0902
▁강원	-13.0902
▁앞서	-13.0903
아랫배	-13.0903
▁신비	-13.0904
욬	-13.0904
깨끗히	-13.0905
▁쥬니	-13.0905
▁따먹	-13.0907
꽁짜	-13.0908
▁친했	-13.0909
험	-13.091
▁시공	-13.0911
▁주행	-13.0911
▁뚠뚠	-13.0912
▁소린	-13.0914
▁놰	-13.0915
▁빌려줄	-13.0917
의대	-13.0917
뇌	-13.0917
🐷	-13.0918
이겨서	-13.0918
예고편	-13.0918
▁쁭	-13.0919
▁랰	-13.0919
▁유지니	-13.092
▁사마	-13.0922
흐흐흐흐흐	-13.0922
고속도로	-13.0924
▁ㅏ하	-13.0924
배웅	-13.0925
▁’	-13.0926
내꺼니까	-13.0926
▁내비	-13.0927
마시	-13.0927
▁중반	-13.0931
▁ㅏ는	-13.0932
▁정할	-13.0932
▁서유	-13.0932
첸	-13.0934
거슬리	-13.0934
기잉	-13.0934
▁펭	-13.094
▁겸손	-13.0943
먹구	-13.0946
▁발생	-13.0946
냠	-13.0951
꿀밤	-13.0955
▁내유	-13.0958
▁아부	-13.0959
▁내편	-13.0961
▁울지	-13.0962
뭐야	-13.0963
▁뮥	-13.0963
▁ㅎㄷ	-13.0963
▁공평	-13.0963
▁구석구석	-13.0965
근육통	-13.0966
▁심리학	-13.0966
▁막힘	-13.0967
통화중	-13.0967
▁풀이	-13.0967
▁개요	-13.0968
▁대왕	-13.0968
▁짛	-13.0969
차니	-13.097
덩이	-13.0973
포동포동	-13.0973
▁챙긴	-13.0975
▁세미	-13.0976
눚	-13.0976
듬	-13.0978
?!!!!!	-13.0978
▁여비	-13.0978
일찍이	-13.0979
▁툐	-13.098
▁갈아탈	-13.0981
▁치매	-13.0986
겠지	-13.0987
▁전형	-13.0987
영역	-13.0988
고속버스	-13.0989
▁특징	-13.099
▁끜	-13.099
▁윤정	-13.0991
▁고운	-13.0994
▁비야	-13.0995
기존	-13.0995
종원	-13.0996
▁쩝쩝	-13.0997
면역력	-13.0997
뜯어먹	-13.0997
▁빡센	-13.0998
▁누운	-13.0999
▁토크	-13.1002
▁파도	-13.1003
뎡	-13.1004
▁며느리	-13.1004
이상황	-13.1005
▁엏ㅎㅎㅎ	-13.1005
▁신아	-13.1008
차나	-13.1008
▁난다구	-13.1012
▁겤ㅋㅋㅋㅋ	-13.1014
;;;;	-13.1014
끌려가	-13.1015
▁외투	-13.1015
▁빌린	-13.1016
▁짛ㅎㅎ	-13.1016
▁부시	-13.1019
얔ㅋㅋㅋㅋㅋ	-13.1019
다른	-13.1019
헤어짐	-13.102
▁얼큰	-13.1021
긍게	-13.1021
거둥	-13.1022
▁띄워	-13.1025
▁개부	-13.1027
탸	-13.1027
▁제로	-13.1028
칵	-13.1028
▁남양주	-13.1028
거린다	-13.1029
치곤	-13.1031
해선	-13.1031
▁스카	-13.1034
▁ㅔ에	-13.1038
ㅌㅋㅌㅋ	-13.1038
처지	-13.1038
버려	-13.1041
▁부경	-13.1041
▁쿵쿵	-13.1043
▁모셔	-13.1045
다녀도	-13.1046
연진	-13.1048
도현	-13.1049
▁개이	-13.1049
초등학생	-13.1052
▁축복	-13.1053
▁라그	-13.1054
▁E	-13.1055
어짜	-13.1055
무언가	-13.1056
우석	-13.1056
현동	-13.1056
주네	-13.1057
▁아린	-13.1058
맘먹	-13.1058
▁누누	-13.1058
😻	-13.106
▁궄ㅋㅋ	-13.1062
는댜	-13.1063
조금	-13.1065
▁산가	-13.1065
?!?	-13.1067
▁켯다	-13.1067
▁한걸	-13.1068
드래곤	-13.1068
▁말썽	-13.1068
인맥	-13.1069
▁얗	-13.1069
▁흔드	-13.107
▁기욤	-13.1071
마련	-13.1076
지웅	-13.1079
▁외대	-13.1081
슴니다	-13.1081
▁걋	-13.1081
이뻐	-13.1081
책임지	-13.1082
딛	-13.1084
▁주무실	-13.1084
첨보	-13.1086
▁쯧	-13.1091
▁건축	-13.1091
퉷	-13.1092
▁동일	-13.1093
▁오노	-13.1096
S	-13.1096
교육	-13.1096
▁유전	-13.1097
기온	-13.1097
펠	-13.1099
체대	-13.1099
와이셔츠	-13.11
클나	-13.1102
의리	-13.1103
▁화분	-13.1103
▁이규	-13.1106
뜸	-13.1107
길치	-13.1108
크리스피	-13.1109
태훈	-13.111
▁나려	-13.1111
▁브로	-13.1111
▁수요	-13.1112
▁현영	-13.1113
켔	-13.1113
요여	-13.1114
거랭	-13.1114
▁성준	-13.1115
▁모를까	-13.1115
니더	-13.1115
초스피드	-13.1115
▁횟수	-13.1116
▁신천	-13.1116
▁얼려	-13.1116
잠잤	-13.1116
아름답	-13.1117
랜드	-13.1119
뭔디	-13.1122
▁놧다	-13.1124
빨라서	-13.1126
▁소속	-13.1129
▁콜콜	-13.1132
ㅌㅌㅋㅋㅋㅋㅋ	-13.1133
▁정액	-13.1134
▁깤ㅋㅋㅋㅋ	-13.1135
욘	-13.1137
▁화가	-13.1137
누리	-13.1137
피키	-13.1138
▁리드	-13.1142
덜	-13.1145
다닐	-13.1147
▁동글동글	-13.1147
▁조직	-13.1148
아아앙	-13.1149
스팟	-13.1149
타령	-13.1149
▁방수	-13.1149
▁천지	-13.1152
녹이	-13.1153
▁!♥♥♥	-13.1153
▁커야	-13.1154
▁물리치료	-13.1155
비빔국수	-13.1155
▁갘ㅋ	-13.1157
머리말	-13.1158
겹쳐서	-13.1158
♡♡♡♡♡♡	-13.116
▁힠	-13.116
연약	-13.1162
소중히	-13.1162
▁씁쓸	-13.1163
시외버스	-13.1164
에스케이	-13.1164
앜	-13.1164
▁오죽	-13.1165
강동원	-13.1166
왯	-13.1171
▁반칙	-13.1174
▁다닐까	-13.1175
▁연동	-13.1176
욱이	-13.1178
▁맀	-13.1178
▁전전	-13.1179
ㄲㅋ	-13.1182
됐었	-13.1183
▁불나	-13.1184
ㅏㅇ	-13.1185
▁라바	-13.1187
매니큐어	-13.1188
▁~♥♥♥	-13.1191
매워서	-13.1192
▁자율	-13.1192
▁러스	-13.1192
나간다고	-13.1193
▁앟ㅎ	-13.1196
▁찬성	-13.1199
꼴	-13.1199
던거	-13.1203
획	-13.1203
박근혜	-13.1204
😩	-13.1204
디즈니	-13.1204
▁시연	-13.1204
벗	-13.1205
▁비바	-13.1206
▁팔려	-13.1207
▁봣냐	-13.1209
▁들린	-13.1209
승훈	-13.121
아오	-13.1211
재성	-13.1211
▁깻엉	-13.1214
야아앙	-13.1215
니임	-13.1216
와간다	-13.1217
떼	-13.1217
▁*.*	-13.1218
부릉	-13.1219
▁;-;	-13.122
▁🙋	-13.1221
타르트	-13.1222
늦	-13.1223
▁무신	-13.1224
▁달라질	-13.1226
푸푸	-13.1227
▁갑갑	-13.1229
in	-13.1233
명언	-13.1234
도리	-13.1236
잠꼬대	-13.1236
스마트폰	-13.1236
깤	-13.1236
사진첩	-13.1236
메이커	-13.1237
▁꺼진	-13.1237
▁남매	-13.1239
▁사례	-13.1239
도리도리	-13.1244
▁아시아	-13.1246
▁ㅑㅑ	-13.1247
됫	-13.1248
▁동화	-13.1249
모밀	-13.1251
허겁지겁	-13.1252
▁엔씨	-13.1252
▁디방	-13.1252
일자리	-13.1253
▁밝혀	-13.1259
쭝	-13.126
야짓	-13.126
자구이	-13.126
▁삐삐	-13.1261
▁측정	-13.1262
▁아이코	-13.1262
▁뒤통수	-13.1263
▁트루	-13.1263
▁지상	-13.1263
▁일식	-13.1263
▁서구	-13.1263
▁수위	-13.1263
▁저질	-13.1265
▁몰아	-13.1265
▁해본다	-13.1265
▁ㅑㄴ	-13.1265
레이드	-13.1266
탓	-13.1267
▁싱글	-13.127
과하	-13.1276
▁인계	-13.1278
▁강동	-13.1279
▁봨ㅋㅋ	-13.1279
지베	-13.128
▁실지	-13.1283
ㅓㅓㅓ	-13.1285
면증	-13.1285
드려서	-13.1288
▁소나	-13.1289
▁앗싸	-13.129
▁겈ㅋㅋㅋ	-13.129
정주행	-13.1293
빗	-13.13
스키	-13.1303
▁맞이	-13.1303
▁학사	-13.1305
망이	-13.1308
▁몀서	-13.131
까맣	-13.1311
컴	-13.1312
숨	-13.1312
습해	-13.1313
▁소울	-13.1313
▁닁	-13.1317
뾰루지	-13.1317
속상했	-13.1319
▁ㅟ	-13.1322
드셔요	-13.1322
와와	-13.1323
▁통일	-13.1323
췄	-13.1325
쾌변	-13.1325
올라	-13.1326
▁뒷담	-13.1326
▁잠잠	-13.1328
거래처	-13.133
햇는데	-13.133
졸린가	-13.133
않	-13.1333
Z	-13.1333
말라서	-13.1333
떨	-13.1334
요리사	-13.1338
울이	-13.1338
▁마실까	-13.1339
▁모인	-13.1339
등짝	-13.134
▁그럴걸	-13.134
▁현관	-13.134
쓩	-13.1341
빅뱅	-13.1341
나라	-13.1343
ㄹㄹ	-13.1344
약올리	-13.1344
현질	-13.1346
진데	-13.1347
잼	-13.1348
▁토했	-13.1349
▁돌아다녔	-13.135
▁진보	-13.1352
▁가본	-13.1355
사역	-13.1356
▁꽐	-13.1357
▁샸	-13.1358
꺌	-13.1358
▁견딜	-13.1358
찜찜	-13.1358
뻔했	-13.136
▁켯는데	-13.136
▁모았	-13.1361
▁창동	-13.1363
몃	-13.1366
부드러운	-13.1369
위하	-13.1371
성역	-13.1373
▁ㅌㅋㅌㅋㅋㅋㅋㅋ	-13.1373
평상시	-13.1375
꼰대	-13.1375
▁이투	-13.1379
▁체조	-13.1382
▁잡힌	-13.1387
답사	-13.139
▁오랭	-13.139
잊어버리	-13.139
▁따라잡	-13.1391
준수	-13.1391
고장난	-13.1391
▁모은	-13.1391
카카오톡	-13.1391
▁더라두	-13.1393
완존	-13.1393
야해	-13.1395
▁ㅠ너무	-13.1396
채용	-13.1397
어뗘	-13.1397
캭	-13.1399
튀	-13.1399
▁흡수	-13.1399
▁해버려	-13.1403
경치	-13.1406
▁동태	-13.1407
뜡	-13.1407
😜	-13.1407
컼	-13.1407
뚝배기	-13.1407
송이	-13.1409
▁R	-13.142
▁화간	-13.1425
덴	-13.1428
▁잊혀	-13.1429
▁겅가	-13.143
키킥	-13.1432
욜로	-13.1432
아구찜	-13.1433
이섬	-13.1433
▁참외	-13.1433
▁뻐큐	-13.1435
▁됩니까	-13.1435
찬바람	-13.1435
▁했을까	-13.1436
▁타이어	-13.1436
▁브리	-13.1437
스키니	-13.1438
뽀로로	-13.144
▁푸하하	-13.1442
맥북	-13.1443
태형	-13.1444
▁더라니	-13.1446
▁루미	-13.1447
왐	-13.1448
▁보컬	-13.1448
▁로즈	-13.1448
벌레	-13.1449
핳	-13.1453
현빈	-13.1453
계심	-13.1454
▁동성	-13.1455
아가	-13.1455
시안	-13.1456
▁햤어	-13.1457
함수	-13.1458
▁중식	-13.1459
▁태어났	-13.1465
발라서	-13.1465
▁이민	-13.1469
▁크로	-13.147
구만유	-13.147
▁함박	-13.1473
▁고렇	-13.1474
▁농장	-13.1475
▁팰	-13.1475
입고	-13.1476
▁철판	-13.1477
확	-13.1481
순두부찌개	-13.1481
캡틴	-13.1482
시오	-13.1482
투성이	-13.1482
▁구시	-13.1484
▁영서	-13.1485
▁번거	-13.1487
▁시끄러운	-13.1487
▁꼬물	-13.1489
느은	-13.1491
자꾸	-13.1493
▁배란	-13.1494
▁ㄹ라	-13.1494
▁텻	-13.1495
엏	-13.1496
뜻	-13.1496
▁사만	-13.1496
예진	-13.1497
▁무안	-13.1497
▁도우	-13.1502
▁도연	-13.1503
▁선약	-13.1505
맬	-13.1506
애니메이션	-13.1506
▁구입	-13.1506
다닥	-13.1507
아파하	-13.1508
전도사	-13.1512
는걸	-13.1513
▁그친	-13.1514
▁물가	-13.1515
ㅌㅋㅋㅋㅌ	-13.1515
▁친해졌	-13.1516
언젠지	-13.1517
댐	-13.1519
몸	-13.1519
흐흑	-13.152
▁욯ㅎ	-13.152
▁판타지	-13.1523
콩국수	-13.1523
블루투스	-13.1523
▁봣는뎅	-13.1524
영양제	-13.1526
▁눌려	-13.1526
▁노랜	-13.1527
다현	-13.153
▁콕콕	-13.1531
왑	-13.1531
어울림	-13.1531
▁찍힌	-13.1532
▁뜨끈	-13.1532
▁ㅜㅇㅜ	-13.1533
▁달라졌	-13.1534
쌍욕	-13.1534
체했	-13.1534
▁부활	-13.1534
▁점해	-13.1534
▁윤서	-13.1535
동굴	-13.1535
▁드래	-13.1536
▁순이	-13.1538
반대쪽	-13.1539
시나리오	-13.1539
▁명상	-13.154
원준	-13.1541
▁푠	-13.1542
▁쉣	-13.1542
말해	-13.1543
▁금융	-13.1543
누적	-13.1544
▁경리	-13.1544
▁븜	-13.1545
▁의료	-13.1545
싹	-13.1546
금식	-13.1547
클라우드	-13.1547
마피아	-13.1548
▁서해	-13.1549
▁협상	-13.1549
도착	-13.1552
건희	-13.1555
▁경산	-13.1555
골뱅이	-13.1556
낳	-13.1556
▁는데두	-13.1557
▁비서	-13.1559
▁기출	-13.156
▁동사	-13.1563
▁‥‥	-13.1564
▁휠	-13.1565
포카리	-13.1565
▁송정	-13.1566
편함	-13.1569
어지	-13.1569
▁ㅡㅅ	-13.1571
▁듷	-13.1571
▁다큐	-13.1572
때우	-13.1572
툰	-13.1573
무리	-13.1574
한때	-13.1574
▁우연	-13.1574
부심	-13.1574
끼치	-13.1575
▁소감	-13.1575
룬	-13.1575
붙혀	-13.1577
버리	-13.1579
▁괜챠나	-13.158
멘토링	-13.1582
보꾸	-13.1582
▁백현	-13.1582
▁오매	-13.1583
가져옴	-13.1584
▁줫으면	-13.1585
▁전대	-13.1586
각지	-13.1586
로쿤	-13.1586
퇴군	-13.1588
▁마야	-13.1588
▁거진	-13.1588
발련	-13.1588
저거	-13.1589
▁사나	-13.1591
그럴려구	-13.1592
킄ㅋ	-13.1593
▁로고	-13.1593
▁이삭	-13.1594
▁탈거	-13.1596
▁옼ㅋㅋ	-13.1596
▁청국장	-13.1598
귀차니즘	-13.1598
홀짝	-13.16
▁브라우	-13.1601
▁시트	-13.1602
▁해할	-13.1603
▁pc	-13.1606
학원	-13.1609
▁야미	-13.1609
▁피할	-13.1611
▁더러워서	-13.1612
인치	-13.1616
인중	-13.1621
▁들어갈까	-13.1621
럿	-13.1622
졈	-13.1623
as	-13.1624
▁-!!	-13.1626
▁ㅏ기	-13.1629
화행	-13.163
▁유형	-13.1631
가뜩이나	-13.1631
▁뻑뻑	-13.1631
▁마세	-13.1632
▁식물	-13.1632
▁타시	-13.1633
붸	-13.1636
립니다	-13.1636
▁내려간	-13.1636
졸리	-13.1636
베프	-13.1636
▁카카	-13.1636
▁앋	-13.1636
어어어	-13.1638
뺌	-13.164
기말고사	-13.164
주랑	-13.164
▁전후	-13.1641
아ㅏ	-13.1641
▁고를	-13.1642
▁y	-13.1642
▁아누	-13.1643
기야	-13.1645
▁놀렸	-13.1645
▁자석	-13.1647
▁쎀ㅋㅋㅋㅋㅋ	-13.1648
너야	-13.1648
트라우마	-13.1648
▁부꾸	-13.1649
▁깠	-13.165
▁망원	-13.1651
▁라메	-13.1652
인사이드	-13.1653
스토어	-13.1653
▁뺴	-13.1653
그랫	-13.1655
애니팡	-13.1657
▁전호	-13.1658
▁들으니	-13.166
▁무민	-13.1661
▁걸러	-13.1661
▁^*^	-13.1662
▁시오	-13.1663
▁꺄앙	-13.1664
▁스케일	-13.1664
▁고건	-13.1666
▁됫나	-13.1666
▁욮	-13.1666
▁물들	-13.1668
으니깐	-13.1671
랬는데	-13.1672
편행	-13.1673
신한은행	-13.1673
클래스	-13.1674
할게	-13.1674
▁러블리	-13.1677
곀	-13.1678
▁주야	-13.1679
▁조원	-13.168
▁얄미워	-13.1682
▁방배	-13.1683
몸짱	-13.1687
▁북구	-13.1687
룹	-13.169
▁벱	-13.1692
몈	-13.1693
▁쌋어	-13.1695
앜ㅋㅋㅋㅋㅋ	-13.1695
풀림	-13.1696
▁....!	-13.1696
▁줫지	-13.1697
겠네	-13.1698
▁~~♡♡♡	-13.1699
복학생	-13.1701
응응	-13.1702
▁흡연	-13.1703
\	-13.1706
▁문상	-13.1706
헸	-13.1707
▁구대	-13.1707
▁사이버	-13.1708
고만	-13.1708
▁샴	-13.1709
포트	-13.171
▁당께	-13.1711
마왕	-13.1713
얗	-13.1714
훈남	-13.1715
ㅢ	-13.1715
▁아슈	-13.1716
▁꺼낸	-13.1716
줬	-13.1717
▁으란	-13.1717
▁뚕	-13.1718
▁적성	-13.1719
먀	-13.172
▁릐	-13.1721
▁여치	-13.1721
아이콘	-13.1724
▁뽝	-13.1724
공모전	-13.1724
뫃	-13.1724
까짓	-13.1724
▁돌아온	-13.1727
▁뵨태	-13.1733
▁중이	-13.1733
라서	-13.1734
▁ㅜㄹ	-13.1734
▁킼ㅋ	-13.1736
복권	-13.1738
선톡	-13.1739
▁..;	-13.1739
▁향해	-13.174
밯	-13.1741
하이라이트	-13.1741
이상한	-13.1742
혼인	-13.1743
자장면	-13.1745
희수	-13.1746
▁마신다고	-13.1748
답니다	-13.1748
쇄골	-13.1749
반드시	-13.175
▁금포	-13.1751
▁기수	-13.1752
▁스타트	-13.1753
▁뒤돌	-13.1754
어으	-13.1756
볼륨	-13.176
▁디자	-13.176
▁봣음	-13.176
그랑	-13.1763
▁아닐걸	-13.1764
쪽팔리	-13.1766
다다다	-13.1769
▁사조	-13.177
▁임시	-13.1771
▁교보	-13.1772
갈게	-13.1772
▁단축	-13.1772
▁쟙	-13.1773
▁갈치	-13.1775
▁들어온다	-13.1775
▁이탈리아	-13.1775
▁방지	-13.1777
▁돌돌	-13.1778
재야	-13.1778
시집가	-13.1779
▁윤석	-13.178
▁개장	-13.1782
▁탐방	-13.1782
익수	-13.1782
앛	-13.1783
▁두꺼워	-13.1784
▁동가	-13.1784
▁이잔	-13.1785
▁괜차노	-13.1785
▁일간	-13.1785
깨졌	-13.1786
눌	-13.1789
▁바브	-13.179
재형	-13.179
▁신분	-13.1792
일딴	-13.1792
햇따	-13.1793
▁뇽뇽	-13.1793
▁찹쌀	-13.1798
오락가락	-13.1801
▁헤드	-13.1801
부른데	-13.1802
감고	-13.1802
▁뽈	-13.1802
▁터키	-13.1803
이트	-13.1805
▁정비	-13.1806
사이	-13.1807
상체	-13.1807
▁핬	-13.1808
▁아메	-13.1808
쁑	-13.1809
▁즉흥	-13.1809
둠	-13.1812
▁매드	-13.1814
▁윤재	-13.1816
▁소년	-13.1817
오프라인	-13.1818
미까	-13.1818
햏	-13.1818
▁하와이	-13.1819
시팔	-13.1822
▁는단	-13.1823
축가	-13.1825
쪕	-13.1826
▁젭	-13.1828
절약	-13.1833
오므라이스	-13.1835
틈틈이	-13.1835
▁전산	-13.1835
▁비보	-13.1837
시려워	-13.1837
▁지경	-13.1838
▁회중	-13.1839
출국	-13.1839
경호	-13.184
ㅇㅅㅇ	-13.1844
깨알	-13.1844
▁기름진	-13.1844
뎄	-13.1845
지민	-13.1846
▁두려워	-13.1846
▁뀰	-13.1847
▁홍성	-13.1848
▁명서	-13.1849
로마	-13.1854
▁색이	-13.1855
▁캐시	-13.1855
넷	-13.1859
▁가출	-13.1859
늦게	-13.1862
▁빠리	-13.1862
고마워	-13.1863
▁됏네	-13.1864
쀼	-13.1864
▁바꾼다	-13.1865
▁여의	-13.1865
관한	-13.1866
▁뾰로	-13.1866
▁가시나	-13.1867
▁전략	-13.1868
▁부릉	-13.1869
▁앨	-13.187
▁섬세	-13.1871
▁랗게	-13.1875
▁들어갈게	-13.1875
못살	-13.1877
진구	-13.1877
습니다요	-13.1877
일단	-13.1877
▁견뎌	-13.1878
▁주체	-13.1878
뱡	-13.188
쎄용	-13.1881
▁이즈	-13.1882
▁구애	-13.1883
▁청약	-13.1884
▁펀치	-13.1885
깨워야	-13.1888
눌리	-13.1888
교감	-13.1889
▁뤄	-13.1891
▁...???	-13.1891
라이트	-13.1893
▁삼산	-13.1898
▁한희	-13.1899
▁풍부	-13.1899
▁리오	-13.1899
▁집집	-13.1899
가습기	-13.19
▁허용	-13.1901
노래	-13.1901
쎠	-13.1903
띨	-13.1904
벙	-13.1906
챙겨왔	-13.1907
뻐	-13.1907
시장	-13.191
▁동료	-13.1911
▁ㅛ네	-13.1911
혼잣말	-13.1912
당일치기	-13.1913
▁열매	-13.1919
▁반겨	-13.1919
상견례	-13.1921
위메프	-13.1921
종민	-13.1921
▁른뎅	-13.1922
▁버블	-13.1923
갑시당	-13.1923
▁세제	-13.1923
▁귬	-13.1924
당시	-13.1924
▁ㅡㄴ데	-13.1925
뒤풀이	-13.1925
▁괴로워	-13.1931
▁남포	-13.1933
▁김영	-13.1934
줘야	-13.1934
▁쥬얼	-13.1935
로지	-13.1935
왕국	-13.1937
▁zzz	-13.1938
▁겈ㅋㅋ	-13.1939
▁딸려	-13.1939
▁논현	-13.194
피곤	-13.194
▁윤미	-13.1942
으으	-13.1943
▁크리스	-13.1944
으래서	-13.1944
▁~!!!!!	-13.1946
▁학부	-13.1947
▁깅깅	-13.1947
▁여잔데	-13.1949
아자씨	-13.195
목말라	-13.1951
▁미키	-13.1953
▁전학	-13.1955
고고씽	-13.1956
십니까	-13.1956
^^^	-13.1957
정수리	-13.196
각해	-13.1961
▁뚝섬	-13.1961
▁왘ㅋㅋㅋ	-13.1962
▁안암	-13.1962
▁데우	-13.1963
▁진솔	-13.1963
▁비나	-13.1963
▁욯ㅎㅎ	-13.1965
▁콰	-13.1966
▁머무	-13.1966
▁순한	-13.1969
▁예주	-13.1971
▁모을	-13.1972
▁늉늉	-13.1973
▁상영	-13.1976
▁나귀	-13.1976
거래	-13.1977
일끝	-13.1978
드릴께요	-13.198
▁쬭	-13.1981
▁스페셜	-13.1982
토렌트	-13.1982
▁ㅚ	-13.1983
▁산지	-13.1985
따윈	-13.1986
퇴근	-13.1987
▁퍼먹	-13.1987
마렵	-13.1989
땐	-13.1989
잔고	-13.1989
아빠	-13.199
ㅔㅔㅔ	-13.199
선착순	-13.199
▁경화	-13.1991
▁미나	-13.1992
드러와	-13.1992
▁시흥	-13.1993
직구	-13.1993
▁기당	-13.1994
꽁	-13.1994
▁경남	-13.1998
븡	-13.1999
▁호고	-13.2001
▁만지작	-13.2002
봏	-13.2008
▁고플	-13.2011
쇠	-13.2012
▁튀겨	-13.2013
잔아	-13.2013
일반인	-13.2015
보낼까	-13.2016
훅훅	-13.2016
단무지	-13.2017
하는데	-13.2017
ㄱㄱㄱ	-13.2018
내보내	-13.2018
이이	-13.2022
언놈	-13.2023
▁갹	-13.2024
다고요	-13.2025
▁느냐고	-13.2026
알아먹	-13.2027
▁임다	-13.2028
끓여서	-13.2031
어질	-13.2033
준다니까	-13.2034
츰	-13.2034
헝	-13.2036
▁시부	-13.2037
▁보재	-13.2037
▁봣엇	-13.2038
▁끄덕끄덕	-13.2043
여와	-13.2044
▁강서	-13.2046
▁아차	-13.2046
▁방귀	-13.2046
▁일시	-13.2047
깄	-13.205
톧	-13.2051
▁김성	-13.2052
▁육성	-13.2052
▁손대	-13.2053
무표정	-13.2054
▁친해질	-13.2056
▁뒤늦	-13.2058
▁ㅛ엉	-13.206
벤츠	-13.2062
▁산본	-13.2062
해바라기	-13.2064
써두	-13.2064
패기	-13.2067
자괴감	-13.2069
▁부끄럼	-13.2069
일일이	-13.207
▁캌	-13.207
▁아멘	-13.2071
복면	-13.2072
▁=_=	-13.2072
▁똥똥	-13.2072
분식집	-13.2073
삼둥이	-13.2076
▁얼리	-13.2076
▁순찰	-13.208
F	-13.2082
기두	-13.2087
▁수성	-13.2088
경기장	-13.2089
▁공통	-13.2092
▁욋	-13.2093
▁쪙ㅎㅎ	-13.2094
▁ㅛㅇ	-13.2095
볼꾸	-13.2097
▁가터	-13.21
▁얽	-13.2101
개짱	-13.2103
깔	-13.2104
▁개심	-13.2104
▁실실	-13.2105
면바지	-13.2106
미룰	-13.2107
▁미워할	-13.2107
미끌	-13.2109
편한데	-13.2111
▁모함	-13.2111
갔다와야	-13.2112
▁쨔나	-13.2113
할머님	-13.2113
▁페스	-13.2116
수지니	-13.2118
▁이어서	-13.212
▁강연	-13.2121
▁의상	-13.2122
▁파트너	-13.2123
밀크티	-13.2124
▁잔잔	-13.2125
▁ㅏ라	-13.2125
이거	-13.2125
▁이똥	-13.2129
지점장	-13.2131
▁과천	-13.2132
개고생	-13.2132
앴	-13.2132
알게	-13.2133
산동	-13.2133
▁영호	-13.2133
▁개방	-13.2137
▁햬	-13.2137
▁동대구	-13.2139
잘못	-13.2141
▁찬미	-13.2142
▁갈매기	-13.2145
흉터	-13.2146
▁돌림	-13.2146
코아	-13.2146
계획서	-13.2146
셨었	-13.2147
영화	-13.2148
▁로니	-13.2152
파닭	-13.2153
웤	-13.2155
이엄	-13.2155
▁대연	-13.2155
▁늕	-13.2156
▁미끄러	-13.2157
곤피	-13.2157
▁해탈	-13.2157
▁그든	-13.2159
▁벌떡	-13.2159
핵심	-13.2161
싫어	-13.2164
▁추적	-13.2164
▁쨜	-13.2167
언니네	-13.2168
▁시킬까	-13.2169
느껴져서	-13.2171
▁음흉	-13.2171
잘난	-13.2171
▁서윤	-13.2172
▁??!!	-13.2173
😫	-13.2175
▁헤매	-13.2176
피자헛	-13.2177
▁알아본	-13.218
으나	-13.218
시간대	-13.218
음력	-13.218
싹싹	-13.2184
▁불쾌	-13.2184
앵기	-13.2185
▁산나	-13.2188
▁캤	-13.2188
감구	-13.2189
▁ㅠ웅	-13.219
▁됫엉	-13.2191
▁공동	-13.2194
▁귀자	-13.2195
알려줘야	-13.2197
슐	-13.2198
무무	-13.22
솓	-13.2201
▁센텀	-13.2202
찍혔	-13.2202
수학여행	-13.2202
▁에코	-13.2202
러너	-13.2203
▁얗ㅎㅎ	-13.2203
든지	-13.2203
유난히	-13.2204
cc	-13.2204
엠	-13.2204
꼭	-13.2204
▁어울린	-13.2207
스텔라	-13.2208
▁모태	-13.2209
팔굽혀	-13.221
▁오랫	-13.2212
▁개더	-13.2213
자루	-13.2214
▁떨어진다	-13.2217
려도	-13.2217
▁꿩	-13.2218
싯	-13.2219
쑥쑥	-13.2219
▁혈	-13.2221
▁신디	-13.2224
메에	-13.2226
스릉	-13.223
버텼	-13.223
시험	-13.2231
착행	-13.2231
▁양양	-13.2232
▁저려	-13.2232
▁깬다	-13.2233
목구	-13.2233
▁함다	-13.2237
긴한	-13.2239
걸린대	-13.2241
▁입실	-13.2241
▁서산	-13.2242
▁명의	-13.2242
용산역	-13.2244
▁청계천	-13.2246
♤	-13.2246
대책	-13.2249
아아ㅏ	-13.2249
딘데	-13.225
주현	-13.2252
셀	-13.2252
▁졀	-13.2257
오디션	-13.2257
▁커트	-13.2261
예감	-13.2261
▁소득	-13.2263
술사	-13.2263
▁조마조마	-13.2264
▁기동	-13.2265
▁지희	-13.2265
결혼식장	-13.2265
들르	-13.2265
▁드르렁	-13.2265
▁이능	-13.2266
▁괜춘해	-13.2267
▁유난	-13.2269
껭	-13.2269
▁빨개지	-13.227
▁웟어요	-13.2271
삿	-13.2272
장난	-13.2272
럐	-13.2273
부랴부랴	-13.2273
나말	-13.2273
▁크로스	-13.2273
▁마로	-13.2273
개추	-13.2274
▁으냐	-13.2276
▁셥	-13.2276
질럿	-13.2277
맠	-13.2279
누나야	-13.228
렘	-13.2281
키키	-13.2281
근래	-13.2287
모르자나	-13.2288
기훈	-13.2289
하하하	-13.229
▁일당	-13.2291
▁유용	-13.2292
▁나아진	-13.2294
링거	-13.23
▁방방	-13.2301
깐	-13.2303
▁배움	-13.2304
▁개조	-13.2305
런지	-13.2308
▁떠올라	-13.2311
▁포천	-13.2312
잌	-13.2313
미칭	-13.2314
▁우르르	-13.2314
어어어어	-13.2315
단다	-13.2316
푱	-13.2318
불키	-13.2318
▁세기	-13.2321
▁외장	-13.2321
그림자	-13.2322
▁봣더니	-13.2327
▁계양	-13.2327
어른	-13.2329
▁잠겨	-13.2329
캬	-13.2329
찡	-13.2331
▁옼ㅋㅋㅋㅋ	-13.2331
륨	-13.2334
▁랔ㅋ	-13.2334
▁소변	-13.2334
이래도	-13.2338
▁발정	-13.2339
랬자	-13.2342
▁월말	-13.2343
▁도미노	-13.2345
원샷	-13.2351
즐길	-13.2352
보들보들	-13.2354
뿌잉뿌잉	-13.2354
▁명지	-13.2354
주고받	-13.2354
벌칙	-13.2356
▁복합	-13.2357
▁게을러	-13.2358
▁ㅇㅏ니	-13.2359
스티	-13.2362
▁멱	-13.2362
축의금	-13.2363
▁으르렁	-13.2363
이상행	-13.2364
▁가져간	-13.2365
쇄	-13.2365
▁계기	-13.2366
보구	-13.2368
▁쯍	-13.237
▁구왕	-13.2371
플스	-13.2372
개론	-13.2373
브라	-13.2374
유자차	-13.2374
▁식장	-13.2376
▁워너	-13.2377
▁색시	-13.2381
갈만	-13.2381
붕붕이	-13.2381
▁달랬	-13.2383
상도	-13.2384
▁토르	-13.2384
▁퀄리	-13.2386
톱	-13.2386
케이	-13.2388
▁리자	-13.2389
라식	-13.2389
ㅝ	-13.239
▁석촌	-13.2396
▁태화	-13.2398
귯	-13.2399
기저귀	-13.2399
▁오똑	-13.2399
▁갑작	-13.24
석아	-13.2404
말없이	-13.2404
▁ㅏ아아아	-13.2406
▁ㅇ으	-13.2407
에버	-13.2408
▁랑께	-13.2408
닏	-13.2408
계란밥	-13.2409
눈뎅	-13.241
▁쮜	-13.2411
▁꾸벅	-13.2411
쫌	-13.2414
▁소야	-13.2415
▁원이	-13.2416
▁@_@	-13.2417
뽀득뽀득	-13.2417
시크릿	-13.2418
천역	-13.2419
이미	-13.2419
▁관악	-13.2421
구워서	-13.2423
똭	-13.2426
▁승무원	-13.2426
▁꼬실	-13.243
▁ㅇ다	-13.2431
못사	-13.2432
▁썻지	-13.2432
파업	-13.2435
킈	-13.2435
안약	-13.2436
넬	-13.2436
▁동선	-13.2438
그리로	-13.2439
▁쓸모없	-13.2439
조탕	-13.244
돗	-13.2442
▁노노노노	-13.2443
▁지름	-13.2445
▁공복	-13.2445
달려서	-13.2446
▁드롭	-13.2446
명품	-13.2449
▁내숭	-13.2449
따라다니	-13.2451
▁보이스	-13.2451
쫓	-13.2452
납니다	-13.2453
수린	-13.2453
몇몇	-13.2456
▁물품	-13.2457
▁연두	-13.2457
계석	-13.246
다섯	-13.2462
▁쳣는데	-13.2462
▁~~♥♥	-13.2462
남사친	-13.2463
▁놔둬	-13.2465
암동	-13.2467
영우	-13.2468
▁쵼	-13.2469
예에에	-13.2469
▁예외	-13.2469
▁줴	-13.2471
가려서	-13.2472
남잔데	-13.2473
▁정면	-13.2473
▁맞대	-13.2474
▁댠	-13.2475
▁나온데	-13.2476
▁선태	-13.2476
묻히	-13.2477
▁아귀	-13.2477
살아가	-13.2479
챙겨줘	-13.248
▁묭실	-13.2481
봑	-13.2481
▁당기	-13.2481
▁개별	-13.2482
안전벨트	-13.2482
▁최애	-13.2485
겎	-13.2486
▁계열	-13.2487
멕	-13.2488
▁단풍	-13.2488
콘센트	-13.2491
!♥	-13.2492
예측	-13.2495
다다닥	-13.2497
▁데려갈	-13.2498
머시기	-13.2499
느뇨	-13.2506
쯩	-13.2508
▁좌절	-13.2509
애타	-13.2514
그걸루	-13.2516
▁준다면	-13.2518
대앙	-13.2524
롯	-13.2525
▁음주	-13.2525
▁쨔요	-13.2526
쌘	-13.2527
배신자	-13.2528
▁도덕	-13.2528
`	-13.2528
논거	-13.2528
▁여깄	-13.253
꿔야	-13.2532
꿍이	-13.2533
₩	-13.2536
동그란	-13.2536
쌉	-13.2536
▁댕겨야	-13.2537
절미	-13.2538
▁가까워서	-13.2542
▁타면	-13.2542
정호	-13.2542
▁스케이트	-13.2545
▁패밀리	-13.2545
웨이팅	-13.2546
▁여전	-13.2547
▁무용	-13.2547
▁넘어졌	-13.2549
쌈밥	-13.2549
▁낙성대	-13.2551
꾼	-13.2552
에이	-13.2553
▁가져와야	-13.2553
나참	-13.2553
땍	-13.2554
▁물질	-13.2555
겻	-13.2557
해여	-13.2558
▁킬러	-13.256
▁유료	-13.2561
▁짴ㅋㅋ	-13.2561
왔으니	-13.2562
로데오	-13.2564
댈까	-13.2564
▁야레	-13.2565
▁신곡	-13.2566
▁숨길	-13.2566
리나	-13.2567
▁굉장	-13.2571
▁편의	-13.2571
▁슈우	-13.2574
눈떴	-13.2577
▁ㅌㅋㅋㅌㅋㅋㅋㅋㅋ	-13.2581
▁갠가	-13.2582
계산기	-13.2584
리딩	-13.2586
▁무지개	-13.2587
▁하단	-13.2587
깉	-13.2588
▁다연	-13.2591
▁엨ㅋㅋㅋ	-13.2591
잗	-13.2591
▁김현	-13.2592
▁우수	-13.2592
▁덮쳐	-13.2594
▁단가	-13.2594
▁ㅇㆍ	-13.2595
▁대처	-13.2597
그랬나	-13.2597
▁개구	-13.2599
▁갈리	-13.2599
이비인후과	-13.2601
엑스레이	-13.2601
토나	-13.2602
드리	-13.2603
▁안부	-13.2605
주고	-13.2605
넝	-13.2607
▁외로운	-13.2608
▁찍혀	-13.2609
잍	-13.261
귀척	-13.261
▁벌어	-13.261
정각	-13.2611
허그	-13.2611
▁박살	-13.2612
갱	-13.2617
▁배정	-13.2619
몰라유	-13.2619
▁공단	-13.262
어려운데	-13.2621
▁졋오	-13.2621
▁즹	-13.2621
올개	-13.2621
▁소도	-13.2621
재현	-13.2623
▁대중	-13.2624
고고	-13.2624
▁배사	-13.2626
▁ㅇㅕ	-13.2626
만행	-13.2628
▁오오미	-13.2629
▁감옥	-13.263
코리아	-13.2631
▁달라져	-13.2634
밤길	-13.2634
▁하연	-13.2635
▁삑	-13.2636
첵	-13.2637
욷	-13.2638
체감	-13.2638
▁겹쳐	-13.2642
라볶이	-13.2642
최	-13.2642
겆	-13.2643
▁는다니까	-13.2644
▁줘야겠다	-13.2645
하장	-13.2648
▁제니	-13.2649
으셨어요	-13.265
▁로라	-13.265
▁옌	-13.2652
소영	-13.2652
▁연필	-13.2654
냨	-13.2655
▁오월	-13.2656
▁*^^*	-13.2656
▁미지근	-13.2657
성동	-13.2657
▁키웠	-13.2659
▁쳣엉	-13.266
달료	-13.2663
▁유로	-13.2665
▁이웃	-13.2666
▁채웠	-13.2667
은지	-13.2668
빈말	-13.2668
▁간섭	-13.267
▁요것	-13.2672
ㅡㅏ	-13.2674
을라면	-13.2674
스면	-13.2674
존맛탱	-13.2675
▁반짝	-13.2676
손질	-13.2676
▁노상	-13.2676
▁뙈	-13.2677
▁햊	-13.2679
▁총회	-13.268
잨	-13.268
▁그만둬	-13.268
어졌	-13.2682
▁한댔	-13.2683
▁병사	-13.2683
흐윽	-13.2684
엍	-13.2684
탄수화물	-13.2684
▁벌점	-13.2686
동하	-13.2687
나보네	-13.2689
▁옥수	-13.2689
▁ㅜ웅	-13.269
▁홍천	-13.269
갘	-13.269
▁폐기	-13.2691
밋지	-13.2692
죰	-13.2694
▁멱살	-13.2694
▁쨰	-13.2697
재질	-13.2697
수시로	-13.27
▁차림	-13.27
으디	-13.2701
운다고	-13.2701
▁받아들여	-13.2702
▁photo	-13.2703
붘	-13.2703
지용	-13.2705
ㅍㅍ	-13.2706
찬희	-13.2706
▁폴라	-13.2708
독하	-13.2709
마앙	-13.2709
▁방정	-13.271
월차	-13.2711
유재석	-13.2715
수행평가	-13.2722
노가리	-13.2722
돌아와서	-13.2724
▁ㅓ가	-13.2724
긍이	-13.2724
▁사슴	-13.2727
▁st	-13.2729
▁면앙	-13.2729
동생	-13.2731
마음껏	-13.2731
쨀	-13.2731
랙	-13.2732
서핑	-13.2733
▁후루룩	-13.2733
▁빌라	-13.2736
▁위안	-13.2738
▁밪	-13.274
메모장	-13.2741
▁햣어	-13.2746
▁다빈	-13.2748
잠궈	-13.2748
▁..★	-13.275
레기	-13.2751
▁써줘	-13.2753
▁서부	-13.2754
중독자	-13.2755
▁까부	-13.2755
re	-13.2755
▁은선	-13.2756
터리	-13.2757
크레	-13.2758
▁민선	-13.2759
말똥말똥	-13.2759
▁합쳐	-13.276
검토	-13.276
▁주르륵	-13.276
잡아가	-13.2761
넉넉히	-13.2764
▁백마	-13.2765
▁유린	-13.2768
븨	-13.2769
핫식스	-13.2769
▁예에	-13.2769
▁학부모	-13.2769
몹시	-13.277
슬퍼요	-13.2773
민영이	-13.2775
▁회피	-13.2775
윗몸	-13.2778
끊겨서	-13.2779
▁형기	-13.2779
▁냨ㅋ	-13.2781
정신줄	-13.2782
▁낼께	-13.2783
겐	-13.2785
자귀	-13.2785
▁밬ㅋ	-13.2785
박스	-13.2788
▁송중	-13.2789
동사무소	-13.279
▁특기	-13.2791
뎁	-13.2792
구염	-13.2792
▁정규	-13.2792
▁테스	-13.2792
▁파나	-13.2794
기차표	-13.2794
▁어쨌	-13.2794
꼬라지	-13.2797
▁도망갔	-13.2797
빠방	-13.2799
▁돌린	-13.2802
즙	-13.2802
저녁	-13.2803
해지지	-13.2805
▁으먼	-13.2805
몹	-13.2805
릴라	-13.2806
댭	-13.2806
💏	-13.2806
▁킼킼	-13.2807
부천역	-13.2807
▁월남	-13.2809
닿	-13.2809
▁차선	-13.2809
▁광교	-13.2812
실례	-13.2814
▁른가	-13.2815
▁해인	-13.2815
▁신구	-13.2815
탱	-13.2816
▁강정	-13.2817
무너지	-13.2818
▁대천	-13.2819
꼼꼼히	-13.2819
출처	-13.2823
▁전도	-13.2824
배불르	-13.2825
▁입안	-13.2826
▁..❤	-13.2826
▁노린	-13.283
▁#~	-13.2831
▁으르	-13.2831
▁ㅜㅋㅋㅋㅋㅋ	-13.2832
킬	-13.2833
▁잊어	-13.2833
오더	-13.2833
마쇼	-13.2833
세뇌	-13.2835
종훈	-13.2835
활짝	-13.2835
▁생긴다	-13.2836
항시	-13.2836
▁유발	-13.2837
▁킬로	-13.284
▁녹화	-13.284
메로나	-13.2841
가희	-13.2843
튜	-13.2843
▁나올래	-13.2844
▁그네	-13.2844
외로움	-13.2845
▁왘ㅋㅋ	-13.2845
▁미뤘	-13.2845
티브	-13.2845
인지	-13.2846
언년	-13.2846
▁영신	-13.2848
수역	-13.285
▁렼ㅋㅋㅋㅋㅋ	-13.2851
갯	-13.2852
▁가든	-13.2853
▁이카	-13.2853
횡단보도	-13.2854
어버이날	-13.2854
똥강아지	-13.2855
▁동부	-13.2856
▁홓ㅎ	-13.2857
앟	-13.2858
승준	-13.2859
지트	-13.2861
▁낭자	-13.2862
▁졋당	-13.2862
👋	-13.2863
퇴직금	-13.2863
얼굴	-13.2863
올라고	-13.2864
▁영구	-13.2864
충치	-13.2865
▁나타났	-13.2866
직진	-13.2866
게시리	-13.2867
위쪽	-13.2868
지후	-13.2869
▁주려	-13.2869
써라	-13.2871
▁재발	-13.2873
▁아쿠아	-13.2874
젓	-13.2874
시용	-13.2874
즌	-13.2874
▁쪼물	-13.2878
성민	-13.2882
▁인스턴트	-13.2882
둗	-13.2882
듐	-13.2882
▁이끌	-13.2883
▁간사	-13.2883
▁법원	-13.2883
▁어질	-13.2884
올게	-13.2885
▁이소	-13.2888
▁...!!	-13.289
병언	-13.2891
흔	-13.2892
바다	-13.2894
▁예보	-13.2894
스킨로션	-13.2894
맘고생	-13.2895
낀	-13.2897
▁달랑	-13.2897
알아내	-13.2898
▁리미	-13.2899
댸	-13.2901
😴	-13.2901
▁발레	-13.2904
많아	-13.2905
▁짛ㅎㅎㅎ	-13.2905
소은	-13.2906
▁미라	-13.2908
▁공공	-13.2908
▁n	-13.2909
묘하	-13.291
▁메신저	-13.2911
우걱우걱	-13.2911
▁씁니다	-13.2911
인계동	-13.2913
▁조르	-13.2913
수정	-13.2916
▁기껏	-13.2917
스코	-13.2917
땅땅	-13.2921
시발	-13.2921
▁왴ㅋ	-13.2921
▁끼우	-13.2921
었는데	-13.2921
▁달인	-13.2922
▁문의	-13.2922
올라옴	-13.2923
▁영미	-13.2927
짙	-13.293
베리	-13.2931
▁인화	-13.2931
▁소수	-13.2933
참아	-13.2935
민국	-13.2938
▁수금	-13.294
▁튕겨	-13.2941
▁대놓	-13.2942
▁마사	-13.2942
▁일등	-13.2942
▁강도	-13.2944
▁실시	-13.2946
▁낼름	-13.2947
즛	-13.2949
▁별수	-13.295
오눈	-13.2952
▁요트	-13.2953
그담	-13.2953
▁귀한	-13.2953
▁에디	-13.2954
칙	-13.2956
잡혀가	-13.2956
잡음	-13.2958
빗소리	-13.296
측	-13.2963
고래	-13.2965
▁충동	-13.2966
해뒀	-13.2966
사래	-13.2967
진다는	-13.2967
▁찰떡	-13.2968
▁갈대	-13.2969
▁부도	-13.2973
▁아셔	-13.2974
다던가	-13.2974
▁뮤직	-13.2975
▁채워야	-13.2975
휙	-13.2978
퓌	-13.2978
플레	-13.2981
잡아	-13.2982
ㅌㅋㅋㅌㅋ	-13.2982
그럴까봐	-13.2986
▁친해져	-13.2986
▁디엠	-13.2987
산더미	-13.2987
▁히어로	-13.2987
^^...	-13.2989
▁상원	-13.2989
어놓	-13.2991
▁아낄	-13.2993
집가	-13.2993
▁카키	-13.2993
▁엘리	-13.2994
▁인트	-13.2996
가물가물	-13.2997
할로윈	-13.2997
ㄱㄱㄱㅋ	-13.2997
▁놓친	-13.2999
▁신라	-13.3003
남동	-13.3004
춥	-13.3004
틸	-13.3004
▁표지	-13.3007
뷁	-13.3007
싲	-13.3007
으슬으슬	-13.3007
안쟈	-13.3012
▁혓어	-13.3013
▁!???	-13.3013
영현	-13.3013
허증	-13.3014
▁불로	-13.3014
후라이팬	-13.3016
▁추측	-13.3017
교무실	-13.3018
왜염	-13.3025
▁슈바	-13.3026
싱숭생숭	-13.3026
젹	-13.3026
붕이	-13.3027
화장대	-13.3027
하삼	-13.3027
지롱	-13.3029
댕댕이	-13.303
라소	-13.3031
다닌다고	-13.3032
더워	-13.3035
▁꼼짝	-13.3036
어질어질	-13.3036
줄걸	-13.3037
▁우지	-13.3039
▁아흐	-13.304
▁인용	-13.3041
땐가	-13.3041
▁월수	-13.3044
끠	-13.3045
▁스프레이	-13.3045
▁한눈	-13.3046
▁워워	-13.3048
▁요한	-13.3049
듀오	-13.3049
▁졸지	-13.3049
▁ㅏ아앙	-13.305
고팠	-13.305
이당	-13.305
혜선	-13.305
빼	-13.3052
▁체해	-13.3052
늫	-13.3055
▁스릴러	-13.3056
키가	-13.3056
해수욕장	-13.3056
구먼	-13.3058
▁등신	-13.3059
불빛	-13.306
▁월래	-13.3063
▁더치	-13.3064
▁-.-	-13.3065
️	-13.3066
니아	-13.3068
집가지	-13.3072
▁스텝	-13.3075
▁허이	-13.3077
꼬리	-13.3078
겨가	-13.3078
▁쓸께	-13.3079
갠	-13.3079
▁묜서	-13.3079
을듯	-13.308
포맷	-13.3084
일치	-13.3085
버려라	-13.3087
▁나베	-13.3087
▁생존	-13.3088
▁만한	-13.3088
멘	-13.309
하는거	-13.3091
▁비참	-13.3093
▁캠퍼스	-13.3094
준비물	-13.3094
▁그래픽	-13.3096
떠졌	-13.3097
지려	-13.3098
꼬치	-13.3101
스톤	-13.3102
둬요	-13.3102
요오	-13.3103
▁간다면	-13.3103
▁스미	-13.3104
▁성주	-13.3106
▁상위	-13.3106
▁드릴까	-13.3106
소린가	-13.3109
▁김정	-13.3109
찡찡이	-13.311
▁정직	-13.3111
텽	-13.3113
▁격렬	-13.3114
▁분장	-13.3117
ㄱㅋㄱㅋ	-13.3117
디니	-13.3117
▁휴게	-13.3117
소린데	-13.3117
▁새터	-13.3117
으우	-13.3118
카누	-13.312
거등요	-13.3121
▁데스크	-13.3122
▁낭만	-13.3122
꿀	-13.3122
큥	-13.3123
넘보	-13.3124
러스	-13.3127
이즈	-13.3128
이런	-13.3129
▁써니	-13.3132
▁표준	-13.3132
놀이기구	-13.3133
침대위	-13.3133
샜	-13.3136
신박	-13.3136
김수현	-13.3138
▁더냐	-13.3142
▁ㅏㅂ	-13.3142
떡보	-13.3145
▁시감	-13.3145
▁스노	-13.3145
▁좋아한	-13.3145
▁야제	-13.3147
광수	-13.3149
쳐야	-13.3149
▁석사	-13.3149
▁정전	-13.3149
▁피임	-13.3153
▁빈혈	-13.3156
▁기집	-13.3156
▁변함없	-13.3157
▁울렁	-13.3159
욕하	-13.3161
▁결승	-13.3162
▁부품	-13.3164
벌서	-13.3164
상해서	-13.3164
▁잉크	-13.3166
머핀	-13.3166
▁실려	-13.3166
배안	-13.3166
▁강생	-13.3167
쥬시	-13.3169
장바구니	-13.3169
▁강간	-13.317
▁금마	-13.3172
외갓집	-13.3172
▁잊어버려	-13.3174
▁큰가	-13.3175
▁ㅠ오늘	-13.3179
까다롭	-13.3182
▁탄탄	-13.3184
▁쉬울	-13.3184
▁세라	-13.3186
웟	-13.3187
▁오카	-13.3187
▁웟당	-13.3188
▁클라	-13.3189
▁빠져야	-13.3191
일어나	-13.3192
▁가운	-13.3196
괜	-13.3197
▁초롱초롱	-13.3201
샨	-13.3201
▁삼각	-13.3202
혈액형	-13.3202
▁화사	-13.3204
▁럴까	-13.3204
▁잏어	-13.3209
어ㅓ	-13.321
곰	-13.321
▁디우	-13.321
단속	-13.3211
낱	-13.3211
팥빙수	-13.3211
야야야야야	-13.3212
얏	-13.3214
식당가	-13.3217
얼른	-13.3218
▁수호	-13.3218
한별	-13.3219
▁겅부하	-13.322
버프	-13.322
잽	-13.3221
▁쯧쯧	-13.3221
▁빳다	-13.3224
레일	-13.3224
▁린스	-13.3224
겨울옷	-13.3226
매려	-13.3226
▁오양	-13.323
▁보라카이	-13.3231
옹동이	-13.3232
주황색	-13.3232
▁노이	-13.3232
이쪼	-13.3232
구구구	-13.3233
▁봨ㅋㅋㅋㅋ	-13.3234
▁인적	-13.3235
ㅐㅐ	-13.3235
▁정형	-13.3235
레이저	-13.3237
챙겨요	-13.3237
행보	-13.3237
▁주형	-13.3238
▁나온대	-13.3239
▁찔려	-13.324
▁후련	-13.3241
그러지	-13.3243
▁~♡♡♡	-13.3244
▁크루	-13.3244
지러	-13.3247
영아	-13.3247
▁놀린	-13.3247
▁고무	-13.3249
▁소보	-13.3249
♥♥♥♥♥♥	-13.3252
@!	-13.3252
위염	-13.3256
▁절정	-13.3256
재연	-13.3257
마이	-13.326
▁엨ㅋㅋ	-13.326
🐶	-13.326
너겟	-13.3261
▁메이즈	-13.3262
▁실어	-13.3262
▁어재	-13.3263
▁대방	-13.3265
▁별론	-13.3265
훈제	-13.3265
▁여정	-13.3266
▁일희	-13.3271
쫄면	-13.3275
채워서	-13.3277
킥	-13.3277
▁알파	-13.328
▁간판	-13.3282
마음먹	-13.3282
육수	-13.3284
▁보자	-13.3284
밤샜	-13.3287
학생	-13.3288
을걸	-13.3288
나뿌	-13.3289
입니다	-13.3289
▁갇혀	-13.3289
구먼유	-13.329
납득	-13.3291
테라스	-13.3293
현주	-13.3294
▁잡힐	-13.3295
▁공수	-13.3296
발끝	-13.3297
▁ㅡㅋㅋㅋ	-13.33
반값	-13.33
▁가까운데	-13.3301
비비큐	-13.3301
샤오미	-13.3301
▁말린	-13.3304
김현정	-13.3307
닉	-13.3308
운데	-13.3309
미디어	-13.3309
한옥마을	-13.331
▁찔끔	-13.331
규우	-13.331
▁평창	-13.3312
▁황사	-13.3314
본점	-13.3315
▁설교	-13.3317
뗘	-13.3318
속닥	-13.3319
▁비타	-13.3319
은근슬쩍	-13.332
붙히	-13.3325
▁시킨다	-13.3328
너스	-13.3328
얼른얼른	-13.3329
▁사단	-13.3331
▁대대	-13.3333
울먹	-13.3334
▁쬬용	-13.3335
▁전통	-13.3336
▁내줄	-13.3336
▁퍼다	-13.3339
▁ktx	-13.334
난장판	-13.334
▁부산대	-13.3345
▁노숙	-13.3346
▁부수	-13.3348
로그아웃	-13.335
아효	-13.335
취함	-13.335
신용카드	-13.335
▁빨랐	-13.3351
핰	-13.3351
이건데	-13.3352
만해	-13.3354
도구	-13.3355
뭔들	-13.3356
▁싸가	-13.3356
▁^^^^^	-13.3356
클랜	-13.3357
▁빈둥빈둥	-13.336
▁스위스	-13.336
▁~#	-13.336
▁실전	-13.336
▁자란	-13.336
빨대	-13.3365
▁백반	-13.3367
▁상주	-13.3368
▁예시	-13.3368
▁쁘다	-13.3371
▁친해진	-13.3372
버릴	-13.3373
수명	-13.3374
▁인진	-13.3375
깰까	-13.3377
▁깻는데	-13.3377
귿	-13.3378
펐	-13.3378
그나	-13.3379
뜀	-13.338
😨	-13.338
▁쬐금	-13.338
▁나경	-13.3384
태호	-13.3384
경미	-13.3385
▁그러믄	-13.3387
▁~~~???	-13.3387
!?!	-13.3389
텃	-13.3389
진급	-13.3391
탐	-13.3393
마셔라	-13.3395
갈까	-13.3396
졌었	-13.3396
맘놓	-13.3397
▁극한	-13.3397
관업	-13.3398
▁애견	-13.34
신데렐라	-13.3401
▁반점	-13.3401
▁일리	-13.3402
우우우	-13.3402
지요	-13.3404
만화방	-13.3404
심즈	-13.3405
구월동	-13.3405
독후감	-13.341
못생기	-13.341
포터	-13.3412
it	-13.3413
▁학술	-13.3413
항거	-13.3414
▁이쿠	-13.3418
뭔진	-13.3419
▁노려	-13.342
암말도	-13.342
겈	-13.3421
▁우등	-13.3422
기다려서	-13.3424
ㅋㅌ	-13.3428
여럿	-13.3432
까우니까	-13.3433
▁합류	-13.3435
연산	-13.3436
▁타격	-13.3437
▁저위	-13.3439
▁고임	-13.3439
더라구여	-13.3441
정도	-13.3441
희한	-13.3442
저딴	-13.3443
달려야	-13.3443
벌써	-13.3443
마법사	-13.3443
그치	-13.3444
▁모사	-13.3446
시원	-13.3448
▁애용	-13.345
▁마라톤	-13.345
플라스틱	-13.345
▁ㅠ나도	-13.345
기실	-13.3451
▁ㅔ헿	-13.3453
▁충실	-13.3455
▁그믄	-13.3455
▁노선	-13.3457
먹엇	-13.3457
쥬거	-13.3459
ㅌㅋㅋㅋㅋ	-13.3461
넛	-13.3463
수연	-13.3464
▁오붓	-13.3464
트름	-13.3465
나갈려고	-13.3466
▁올라간다	-13.3468
그건	-13.3469
▁잨ㅋㅋㅋㅋ	-13.3471
바이킹	-13.3471
▁찾아본	-13.3472
▁구찌	-13.3472
보채	-13.3472
▁개수	-13.3473
▁일주	-13.3473
▁조치원	-13.3475
겁쟁이	-13.3478
믿기	-13.3478
▁필드	-13.3478
챳	-13.348
🤣	-13.348
^♡^	-13.348
베이	-13.3481
네이트	-13.3485
는다	-13.3487
쇼핑백	-13.3488
▁유가	-13.349
사징	-13.3491
가랏	-13.3491
헷갈렸	-13.3492
▁꺄꺄	-13.3492
▁울음	-13.3494
하늘	-13.3495
달랐	-13.3497
꿔요	-13.3499
하리보	-13.3499
▁무스	-13.35
샬	-13.3501
▁송파	-13.3501
▁모일	-13.3501
▁래이	-13.3501
온갖	-13.3503
▁거슬려	-13.3503
▁~~???	-13.3504
▁특수	-13.3507
밍기적	-13.3508
홉	-13.351
▁날렸	-13.3511
▁채연	-13.3512
B	-13.3513
▁홀리	-13.3516
과음	-13.352
▁반짝반짝	-13.3521
뀸	-13.3521
내생	-13.3521
셜록	-13.3521
▁우럭	-13.3523
▁드라이버	-13.3523
입자	-13.3524
갓대	-13.3525
어딘디	-13.3527
▁떠났	-13.3527
▁리니	-13.3527
드릴까요	-13.3528
길바닥	-13.3528
굿	-13.3531
개년	-13.3531
질까	-13.3532
안혼	-13.3533
두피	-13.3537
▁ㅜ우	-13.3537
라는	-13.3538
올걸	-13.3538
멤	-13.3541
연달	-13.3541
늣	-13.3541
째려보	-13.3541
▁재무	-13.3542
기분	-13.3545
단데	-13.3546
▁전개	-13.3546
동현	-13.3547
능데	-13.3549
정역	-13.3551
▁착용	-13.3551
벼락치기	-13.3551
걸어왔	-13.3552
▁청양	-13.3552
▁세이브	-13.3553
말이	-13.3556
▁지출	-13.3557
▁암기	-13.3557
몬지	-13.356
갈까봐	-13.356
뮹	-13.3562
읺	-13.3562
세븐일레븐	-13.3562
박카스	-13.3564
▁겨드랑	-13.3566
총각	-13.3566
▁걸릴까	-13.3567
부렀	-13.3568
▁낙서	-13.3568
▁남잔	-13.3569
▁사제	-13.3569
▁산다는	-13.3569
셔서	-13.357
▁위대	-13.3571
▁예예	-13.3572
전번	-13.3572
일리지	-13.3572
오면	-13.3573
윤경	-13.3575
▁왜화	-13.3575
▁가양	-13.3576
등심	-13.3578
ㅋㄱㅋㅋㅋ	-13.3578
▁미러	-13.3579
▁본가	-13.3579
▁티티	-13.358
▁우도	-13.3582
▁강우	-13.3583
특성	-13.3587
▁평촌	-13.3588
곡동	-13.3589
빌려야	-13.3589
들어라	-13.3589
▁배드	-13.3589
여옹	-13.359
▁ㅇ안	-13.3591
갈쳐	-13.3592
▁건진	-13.3592
▁여장	-13.3593
거닝	-13.3593
넜	-13.3594
골치	-13.3595
덩실	-13.3597
▁영영	-13.36
같은	-13.3601
깢	-13.3602
멓	-13.3602
▁시식	-13.3603
▁피크	-13.3603
뒷정리	-13.3604
뽀샵	-13.3604
는건	-13.3605
따라한	-13.3605
시험지	-13.3607
든여	-13.3609
냐구요	-13.361
몰랑	-13.3611
반신욕	-13.3613
깍	-13.3613
▁무척	-13.3613
주래	-13.3615
▁회로	-13.3615
▁잇단	-13.3616
▁형태	-13.3617
보자	-13.3618
서서히	-13.3618
▁발사	-13.3618
공업	-13.3619
▁도끼	-13.3622
▁ㅠㅇ	-13.3623
▁떨궈	-13.3623
▁변수	-13.3625
아이라인	-13.3627
▁소통	-13.3628
병우	-13.3629
위에	-13.363
▁이뤄	-13.363
▁마주쳤	-13.3632
귄	-13.3634
▁제본	-13.3635
▁스탑	-13.3636
우비	-13.3637
▁김동	-13.3638
크리	-13.3639
돌려주	-13.3639
▁불어	-13.3639
한가득	-13.364
▁못한다	-13.3641
ᆞㄴ	-13.3643
트위터	-13.3643
▁으려는	-13.3648
▁딧냐	-13.3648
▁연재	-13.365
구녕	-13.3651
▁짤려	-13.3652
뽄	-13.3654
부끄러우	-13.3654
▁푹푹	-13.3655
▁연착	-13.3656
▁보름	-13.3657
짜샤	-13.3658
쳣	-13.3658
꼬막	-13.3665
▁럴수	-13.3666
▁렇군	-13.3669
▁당겨	-13.3669
정독	-13.367
▁덕천	-13.367
헤헿	-13.3671
일어난지	-13.3672
▁세네	-13.3672
ㄱㅋㅋㅋㅋㅋ	-13.3673
▁상암	-13.3673
원망	-13.3673
범벅	-13.3673
▁줫음	-13.3674
▁둔다	-13.3679
▁더래	-13.368
요호	-13.368
▁꺼낼	-13.3681
으니까요	-13.3682
팃	-13.3685
▁김태	-13.3685
곱	-13.3685
▁+!	-13.3686
▁뀨야	-13.3688
엣	-13.3689
▁가심	-13.369
▁도영	-13.369
▁버릴라	-13.3693
온다니까	-13.3695
스킵	-13.3696
준형	-13.37
댕길	-13.3701
박람회	-13.3705
글쓰기	-13.3705
였잖	-13.3705
▁원정	-13.3707
손들	-13.3708
빡빡이	-13.3709
▁그란	-13.3711
꺼두	-13.3712
▁레오	-13.3715
뱍	-13.3716
케이티엑스	-13.3716
▁클로버	-13.3716
▁트윈	-13.3716
▁빈이	-13.3716
소리나	-13.3718
멋	-13.372
▁내릴까	-13.3721
잔액	-13.3722
▁우하	-13.3722
넼ㅋㅋㅋㅋㅋ	-13.3723
▁노야	-13.3724
▁수수	-13.3724
▁초조	-13.3725
😈	-13.3726
▁어중간	-13.3726
옥이	-13.3727
새우깡	-13.3727
컴컴	-13.3728
▁암만	-13.3729
▁기생	-13.3729
치마	-13.3731
센터	-13.3732
우띠	-13.3733
온댔	-13.3734
▁바위	-13.3736
펜	-13.3737
포스팅	-13.3738
천동	-13.3738
때기	-13.3739
천히	-13.374
잼따	-13.3741
앞치마	-13.3747
▁녁먹	-13.3749
화보	-13.3749
우림	-13.3749
에에에	-13.3751
▁될라	-13.3753
▁시온	-13.3753
▁스마	-13.3756
몰래몰래	-13.3757
뱜	-13.3757
ㄱㅋㄱ	-13.3759
▁런던	-13.376
▁한문	-13.3762
배불리	-13.3764
▁즉석	-13.3767
팔베개	-13.3767
뻬	-13.3767
▁쫒겨	-13.3768
웨이브	-13.3769
▁염소	-13.3774
긐	-13.3776
예뿐	-13.3776
‍	-13.3778
캥	-13.3778
ㅅ는데	-13.3778
팩스	-13.3782
▁버디	-13.3787
디유	-13.3789
운동화	-13.3789
▁어게인	-13.3789
지먼	-13.379
졋어	-13.379
▁궄ㅋㅋㅋㅋ	-13.379
아닉	-13.3794
▁푸른	-13.3794
움직여서	-13.3795
텐데	-13.3798
▁는다니	-13.3799
▁엔터	-13.3799
지니어스	-13.3799
▁주물	-13.3801
토리	-13.3802
물어	-13.3802
했는데	-13.3803
▁밀릴	-13.3804
▁미지	-13.3804
잎	-13.3804
▁캐치	-13.3805
감격	-13.3806
▁기영	-13.3806
떨려서	-13.3807
켘	-13.3808
▁어둠	-13.3808
롭	-13.3809
알라딘	-13.381
감긴다	-13.3811
▁맹세	-13.3813
▁무하	-13.3814
트로	-13.3816
벗겨지	-13.3818
쫀득	-13.382
웰컴	-13.382
액자	-13.382
▁다바	-13.3821
▁스팀	-13.3821
늠	-13.3822
▁꼇다	-13.3822
꿔	-13.3823
▁넘어질	-13.3824
정말	-13.3825
오착	-13.3826
미행	-13.3826
피해자	-13.3827
▁세이	-13.3828
▁카피	-13.3829
▁장식	-13.383
착한데	-13.3831
▁리치	-13.3831
바랬	-13.3832
▁ㅇ웅웅	-13.3833
▁할부	-13.3836
줄라구	-13.3838
몽글	-13.3839
교보문고	-13.3841
▁동지	-13.3841
▁ㅏ요	-13.3842
▁광희	-13.3844
▁찮다	-13.3844
바구니	-13.3847
절친	-13.3851
미영	-13.3853
이양	-13.3853
▁임용	-13.3855
▁끊긴	-13.3855
▁른자	-13.3855
▁윤리	-13.3857
▁세로	-13.3859
▁동남아	-13.3859
수목원	-13.3859
▁물통	-13.3862
고대로	-13.3862
쟜	-13.3863
스윽	-13.3864
빈자리	-13.3865
구해서	-13.3865
▁색상	-13.3872
▁더부룩	-13.3872
비왕	-13.3874
▁과분	-13.3876
깨닫	-13.3876
멀뚱	-13.3877
▁마영	-13.3881
▁피식	-13.3882
쯈	-13.3883
튭	-13.3883
플레인	-13.3884
지우개	-13.3884
▁반하	-13.3887
면도기	-13.3888
끄적	-13.3889
▁됔ㅋㅋㅋㅋㅋ	-13.3893
▁짹짹	-13.3893
웁	-13.3894
흘려서	-13.3894
놔라	-13.3894
칼퇴근	-13.3895
된장국	-13.3895
로우	-13.3896
☞☜	-13.3897
가니	-13.3897
어이고	-13.3898
▁영감	-13.3899
다쳐서	-13.3903
▁법인	-13.3903
에피소드	-13.3904
늙은이	-13.3904
▁진마	-13.3906
닭살	-13.3907
별곡	-13.3914
▁털렸	-13.3919
애들	-13.3919
요잉	-13.3919
▁낼까	-13.392
▁비온	-13.3921
▁영문	-13.3923
어야지요	-13.3924
▁옮긴	-13.3926
으아	-13.3926
▁~~~~~~~~	-13.3927
▁야상	-13.3927
▁린이	-13.3928
거시기	-13.393
▁꼭지	-13.393
문대	-13.3931
추워	-13.3934
교정기	-13.3935
▁끜나	-13.3935
알딸딸	-13.3935
챵	-13.3935
일교차	-13.3935
버린	-13.3936
▁마래	-13.3938
▁던질	-13.394
리셋	-13.394
▁쫓겨	-13.3941
^-^	-13.3941
▁나눔	-13.3941
뛰	-13.3942
▁치유	-13.3942
주면	-13.3943
▁소고	-13.3944
버여	-13.3945
작업실	-13.3949
▁무단	-13.3952
▁맠ㅋㅋㅋ	-13.3953
▁아옹	-13.3954
▁붕대	-13.3956
취향저격	-13.3956
씨름	-13.3957
대견	-13.3958
이어지	-13.396
댔	-13.3961
꺼짐	-13.3961
▁두께	-13.3961
사여	-13.3962
▁일로	-13.3962
마리야	-13.3962
▁까자	-13.3964
나왔	-13.3965
중앙동	-13.3965
▁일중	-13.3966
▁제길	-13.3966
컁	-13.3967
기다	-13.3967
치즈스틱	-13.3969
▁프라이	-13.3969
따또	-13.3969
미당	-13.3969
!♡	-13.397
찾	-13.3971
쭌	-13.3971
히도	-13.3973
▁기만	-13.3974
인정	-13.3975
넚	-13.3976
죽빵	-13.3976
망가지	-13.3976
안자	-13.3978
준우	-13.398
밤샌	-13.398
▁특집	-13.398
▁시인	-13.3981
▁즁이야	-13.3983
어젯	-13.3985
꿉	-13.3987
▁지급	-13.399
배불러요	-13.399
▁정연	-13.3992
▁레모	-13.3994
▁예찬	-13.3995
몰루	-13.3996
▁딧는지	-13.4
긁적	-13.4
파유	-13.4001
코감기	-13.4001
▁리즈	-13.4001
착착	-13.4001
▁경보	-13.4002
▁드러워	-13.4004
▁전생	-13.4004
▁ㅡ으	-13.4006
▁올인	-13.4007
원한다면	-13.4011
으으으으으으으	-13.4011
▁멍해	-13.4012
민혁	-13.4012
겁먹	-13.4013
뒤척이	-13.4016
▁치도	-13.4019
스쿠터	-13.402
교통카드	-13.4021
▁쳣지	-13.4022
▁뿌렸	-13.4022
아야디	-13.4023
얄	-13.4025
낯선	-13.4026
▁지브	-13.4028
가셔야	-13.4029
▁구린	-13.403
▁냉큼	-13.4032
싱겁	-13.4032
▁아현	-13.4033
▁소요	-13.4034
▁대세	-13.4035
▁숯불	-13.4036
^^^^	-13.4036
▁물어본다	-13.4037
홈피	-13.4037
▁논산	-13.4039
뺑	-13.4042
▁동산	-13.4042
▁안타까워	-13.4043
▁담양	-13.4043
▁유전자	-13.4044
▁커진	-13.4047
팬	-13.4049
대기	-13.4049
▁꼬매	-13.4049
할거	-13.4051
울렁거려	-13.4052
▁입주	-13.4054
▁센티	-13.4055
▁뛰쳐나	-13.4056
▁디도	-13.4057
▁뒤진다	-13.4057
▁앟ㅎㅎㅎㅎ	-13.4059
뒹	-13.4061
▁눙가	-13.4061
▁된다니	-13.4061
몰입	-13.4063
▁앖어	-13.4063
▁정안	-13.4065
▁상남	-13.4067
같아	-13.4068
▁딧지	-13.407
▁시술	-13.4072
자볼	-13.4073
•_•	-13.4074
❤❤	-13.4077
동댕	-13.4077
▁일회용	-13.4078
▁오션	-13.4082
닊	-13.4084
▁전무	-13.4085
▁고무줄	-13.4085
▁....??	-13.4088
러브	-13.4094
꾸역꾸역	-13.4095
포장마차	-13.4095
▁찹찹	-13.4095
▁졋어요	-13.4096
여사친	-13.4096
▁일어날까	-13.4098
▁얼라	-13.4098
▁사월	-13.4099
▁모자란	-13.4101
▁광어	-13.4103
미숫가루	-13.4106
▁래드	-13.4108
현희	-13.4108
▁와줄	-13.4109
얼만지	-13.411
▁청포	-13.4111
타려	-13.4112
오케오	-13.4113
▁ㅇㅂ	-13.4114
▁원리	-13.4115
애새끼	-13.4116
▁루나	-13.4116
맇	-13.4117
웍	-13.4117
톨게이트	-13.4117
▁솔비	-13.412
▁짛ㅎ	-13.412
▁퍼져	-13.4121
바이	-13.4123
▁미세	-13.4126
태민	-13.4126
▁ㅜㅎㅎ	-13.4126
▁원우	-13.4126
정해졌	-13.4127
그런갑다	-13.4127
▁대두	-13.4128
▁스탠드	-13.4128
▁주관	-13.4128
아이스티	-13.4128
▁보드카	-13.4128
▁늘어난	-13.4129
▁녓어	-13.4129
▁다녀옴	-13.4129
그려	-13.413
▁꿧는데	-13.4132
킴	-13.4132
혜빈	-13.4138
▁들킬	-13.4138
▁허구	-13.4138
뭫	-13.4138
퀌	-13.4138
▁반해	-13.4139
갑니다	-13.4139
정마	-13.4139
▁소이다	-13.4139
▁소박	-13.414
▁반월당	-13.414
넿ㅎ	-13.414
▁마버	-13.4141
솜씨	-13.4141
난댜	-13.4142
눈팅	-13.4143
^^*	-13.4144
꿈꿀	-13.4144
▁발등	-13.4148
▁베드	-13.415
▁해드려	-13.4152
▁경로	-13.4153
▁능구	-13.4154
▁해변	-13.4154
ㅉ	-13.4154
랬더니	-13.4157
▁섞여	-13.416
Q	-13.416
▁시립	-13.4161
쁨	-13.4161
▁건드려	-13.4161
ㅇㅉ	-13.4162
텅	-13.4162
병장	-13.4164
이휴	-13.4166
몸상	-13.4168
▁호칭	-13.4168
▁연가	-13.4169
일본인	-13.4171
사회생활	-13.4171
들왔	-13.4172
▁든디	-13.4172
살찔	-13.4173
러치	-13.4173
다곤	-13.4174
▁.★	-13.4176
흘러가	-13.4177
확답	-13.4178
🐰	-13.4182
핶	-13.4182
▁반죽	-13.4182
▁외운	-13.4182
해줄래	-13.4182
▁운대	-13.4183
▁키티	-13.4184
▁간접	-13.4185
아닌	-13.4187
말걸	-13.4188
한적	-13.419
▁굴려	-13.4192
▁탕탕	-13.4195
▁우중충	-13.4196
렵	-13.4197
▁유머	-13.4201
▁사물	-13.4202
▁리어	-13.4203
▁강민	-13.4203
별것	-13.4205
고마운데	-13.4205
▁뱅뱅	-13.4207
tx	-13.4208
▁분해	-13.4208
▁밬ㅋㅋㅋ	-13.4212
숀	-13.4214
해병대	-13.4215
▁분수	-13.4217
▁절망	-13.4221
▁진서	-13.4221
지환	-13.4221
▁서래	-13.4224
ㅣㅆ	-13.4224
▁메밀	-13.4224
▁어지러운	-13.4226
사무소	-13.4227
▁...!!!	-13.4228
도훈	-13.423
▁실용	-13.423
▁수서	-13.423
▁육아	-13.4233
▁ㅏ고	-13.4233
▁그만둘	-13.4234
▁더리	-13.4234
마춰	-13.4235
▁지속	-13.4236
모쏠	-13.4236
하려	-13.4239
▁누굴까	-13.424
▁졋다고	-13.4242
플로	-13.4244
순삭	-13.4244
ing	-13.4245
▁괜차나괜차나	-13.4247
▁조은	-13.4248
ㅍㅇ	-13.4249
리드	-13.425
꾸마	-13.425
편했	-13.4251
꼬셔서	-13.4252
볻	-13.4258
▁설대	-13.4258
▁해버릴	-13.4258
▁뚜뚜	-13.4259
친데	-13.426
여러분	-13.4262
민호	-13.4263
▁감염	-13.4266
새끼	-13.4266
시낭	-13.4267
▁사릉	-13.4268
땬	-13.4269
아쉬울	-13.4269
대박	-13.4269
지나감	-13.427
대서	-13.4275
▁애지	-13.4275
떠드	-13.4276
뜨신	-13.4277
▁양지	-13.4278
▁스쳐	-13.428
윱	-13.428
선가	-13.4281
▁공군	-13.4284
각행	-13.4285
달려라	-13.4285
개놈	-13.4288
▁봣옹	-13.4289
흔하	-13.4289
궂	-13.429
찬우	-13.4291
전기세	-13.4291
▁날라갔	-13.4291
끗	-13.4293
시스	-13.4293
▁창업	-13.4293
고파	-13.4294
버슈	-13.4295
엌ㅋ	-13.4295
▁ㅡㅋㅋㅋㅋㅋ	-13.4295
뚜레	-13.4296
▁기왕	-13.4296
그려야	-13.4297
▁통합	-13.4298
▁힘없	-13.4298
푼	-13.4299
가규	-13.4299
▁낼라	-13.43
마요네즈	-13.4301
▁통째	-13.4302
▁줫엇	-13.4303
여기	-13.4304
녜	-13.4309
▁선비	-13.431
동혁	-13.4312
💟	-13.4312
보호자	-13.4313
▁뺏겼	-13.4314
▁삐딱	-13.4315
▁겧다	-13.4315
▁만타	-13.4316
호관	-13.4316
▁스나	-13.4317
▁악세	-13.4318
카페	-13.4318
닼ㅋㅋㅋㅋㅋ	-13.4318
▁세균	-13.4318
▁나발	-13.4319
가락	-13.432
▁알뜰	-13.4321
!!?	-13.4322
라서요	-13.4323
누낭	-13.4323
샅	-13.4323
사태	-13.4324
세스	-13.4325
▁라이터	-13.4325
영석	-13.4328
▁단대	-13.4329
▁친군	-13.4329
▁제자리	-13.433
▁즐거	-13.4331
겟당	-13.4332
▁렄ㅋㅋ	-13.4332
봅시다	-13.4332
라인	-13.4333
받아	-13.4334
▁농사	-13.4334
▁썻네	-13.4334
빨아먹	-13.4334
카라멜	-13.4334
▁차사	-13.4335
▁유노	-13.4339
▁좌우	-13.4339
사관	-13.434
다향	-13.4342
▁서준	-13.4343
제법	-13.4345
끅	-13.4345
스파이더맨	-13.4345
▁핳하	-13.4346
▁이베	-13.4346
▁빼꼼	-13.4346
▁덴데	-13.4348
▁인고	-13.4348
예정일	-13.435
▁공릉	-13.4351
술병	-13.4353
행위	-13.4353
욱기	-13.4353
▁말장	-13.4354
울적	-13.4358
▁우예	-13.4359
on	-13.436
렌트카	-13.436
▁모험	-13.4361
날라고	-13.4362
▁섬유	-13.4364
준댔	-13.4364
더기	-13.4366
나영	-13.4366
▁한라	-13.4366
😓	-13.4368
▁부룩	-13.4371
그런거	-13.4371
끌	-13.4372
▁디오	-13.4372
고시원	-13.4373
감흥	-13.4376
관리비	-13.4376
애애	-13.4377
▁졋대	-13.4377
▁누름	-13.4378
▁부릅	-13.4381
▁중동	-13.4381
늘어지	-13.4382
젯	-13.4382
K	-13.4383
▁헤니	-13.4383
텐션	-13.4385
계셔요	-13.4385
▁썻엉	-13.4386
대리	-13.4387
항생제	-13.439
싸구려	-13.439
타고	-13.439
▁제천	-13.4391
▁끓인	-13.4395
▁짜릿	-13.4398
▁소음	-13.4398
규모	-13.4399
체크인	-13.44
티라미수	-13.4401
▁미노	-13.4401
어쩔래	-13.4401
▁선명	-13.4402
는ㄷ	-13.4404
지나	-13.4405
염색약	-13.4405
담주	-13.4405
▁병문	-13.4407
쑤	-13.4409
▁윤동	-13.441
태원	-13.441
와사비	-13.4412
▁아짐	-13.4412
리버	-13.4413
빙빙	-13.4413
▁해본	-13.4415
▁튀어나와	-13.4415
호선	-13.4419
옷걸이	-13.442
줄게	-13.442
먹을	-13.4421
튈	-13.4423
합체	-13.4424
▁조요	-13.4426
연승	-13.4427
장착	-13.4427
라가	-13.4428
▁내버려	-13.4429
쟈기	-13.4429
▁ㅇㅑ	-13.4432
▁모순	-13.4433
▁줄려	-13.4434
프리미엄	-13.4434
핫초코	-13.4434
▁페탐	-13.4434
▁꼬장	-13.4435
기댈	-13.4436
식권	-13.4436
▁보디	-13.4437
이쁘	-13.4437
▁지예	-13.4438
▁사서	-13.4439
착함	-13.4439
띵띵	-13.4439
탐나	-13.444
마자	-13.4441
▁..!!!!	-13.4441
지송	-13.4441
아ㅏㅏ	-13.4443
▁붙들	-13.4443
▁허브	-13.4443
▁뭥미	-13.4444
으와	-13.4444
▁~|	-13.4445
▁텅텅	-13.4445
알로에	-13.4445
정윤	-13.4447
▁삐이	-13.4448
??!!	-13.4451
말해요	-13.4452
친오빠	-13.4453
눈웃음	-13.4455
깔깔깔	-13.4456
리안	-13.4457
▁비긴	-13.4458
▁으라니까	-13.4458
러라	-13.4458
▁김준	-13.4463
ㆍㅇ	-13.4463
▁푸짐	-13.4464
첼	-13.4466
손흥민	-13.4467
▁뜨뜻	-13.4468
▁기약	-13.4469
▁구렁	-13.4473
▁갱신	-13.4473
▁성분	-13.4475
▁가릴	-13.4475
하하	-13.4476
종이컵	-13.4479
무작정	-13.448
▁서브	-13.4481
▁약수	-13.4484
[...]
